{
  "version": "1.0",
  "model": {
    "type": "custom_bpe",
    "vocab_size": 23990,
    "vocab": {
      "<pad>": 0,
      "<unk>": 1,
      "<bos>": 2,
      "<eos>": 3,
      "!": 4,
      "!\"</w>": 5,
      "!</w>": 6,
      "!colspan</w>": 7,
      "!width</w>": 8,
      "\"": 9,
      "\"#": 10,
      "\"#0": 11,
      "\"#00": 12,
      "\"#01a7e1\"</w>": 13,
      "\"#0c": 14,
      "\"#9": 15,
      "\"#9d1d1e\"</w>": 16,
      "\"#bb": 17,
      "\"#bb0000\"</w>": 18,
      "\"#d": 19,
      "\"#d02433\"</w>": 20,
      "\"#d20001\"</w>": 21,
      "\"#da251c\"</w>": 22,
      "\"#ed": 23,
      "\"#ed1c24\"</w>": 24,
      "\"#ed8000\"</w>": 25,
      "\"#fe0000\"</w>": 26,
      "\"),</w>": 27,
      "\")</w>": 28,
      "\",</w>": 29,
      "\".</w>": 30,
      "\"1\"</w>": 31,
      "\"12\"</w>": 32,
      "\"2": 33,
      "\"2\"</w>": 34,
      "\"2\"|</w>": 35,
      "\"3\"</w>": 36,
      "\"4\"</w>": 37,
      "\"5\"</w>": 38,
      "\"6\"</w>": 39,
      "\"7\"</w>": 40,
      "\"</w>": 41,
      "\"a</w>": 42,
      "\"b": 43,
      "\"background": 44,
      "\"background-": 45,
      "\"background-color:#": 46,
      "\"background-color:#e9e9e9": 47,
      "\"background-color:#e9e9e9\"</w>": 48,
      "\"background-color:#f2f2f2": 49,
      "\"background-color:#f2f2f2\"</w>": 50,
      "\"background:": 51,
      "\"background:#": 52,
      "\"background:#00": 53,
      "\"background:#0095": 54,
      "\"background:#009527\"|</w>": 55,
      "\"background:#6600": 56,
      "\"background:#6600ff\"|</w>": 57,
      "\"background:#800000": 58,
      "\"background:#800000\"|</w>": 59,
      "\"background:#b": 60,
      "\"background:#b0e0e6;\"</w>": 61,
      "\"background:#da251c": 62,
      "\"background:#da251c\"|</w>": 63,
      "\"background:#ed8000": 64,
      "\"background:#ed8000\"|</w>": 65,
      "\"background:#ff": 66,
      "\"background:#ff0000\"|</w>": 67,
      "\"background:yellow": 68,
      "\"background:yellow\"|</w>": 69,
      "\"bir</w>": 70,
      "\"bu</w>": 71,
      "\"büyük</w>": 72,
      "\"center": 73,
      "\"center\"</w>": 74,
      "\"center\"|</w>": 75,
      "\"en</w>": 76,
      "\"f": 77,
      "\"i</w>": 78,
      "\"in</w>": 79,
      "\"left": 80,
      "\"left\"</w>": 81,
      "\"n": 82,
      "\"row": 83,
      "\"row\"</w>": 84,
      "\"s": 85,
      "\"text-align:": 86,
      "\"text-align:center": 87,
      "\"text-align:center;\"|</w>": 88,
      "\"text-align:left": 89,
      "\"text-align:left;\"|</w>": 90,
      "\"the</w>": 91,
      "\"w": 92,
      "\"width:": 93,
      "\"width:65%;</w>": 94,
      "\"wik": 95,
      "\"wikitab": 96,
      "\"wikitable\"</w>": 97,
      "\"yellow\"</w>": 98,
      "\"|": 99,
      "\"|</w>": 100,
      "#": 101,
      "$": 102,
      "$</w>": 103,
      "%": 104,
      "%0,": 105,
      "%0.": 106,
      "%1,": 107,
      "%100</w>": 108,
      "%2": 109,
      "%3": 110,
      "%4": 111,
      "%5": 112,
      "%6": 113,
      "%7": 114,
      "%8": 115,
      "%9": 116,
      "%;</w>": 117,
      "%</w>": 118,
      "%|": 119,
      "&": 120,
      "&</w>": 121,
      "'": 122,
      "''": 123,
      "''</w>": 124,
      "',</w>": 125,
      "'</w>": 126,
      "'a,</w>": 127,
      "'a</w>": 128,
      "'da,</w>": 129,
      "'da</w>": 130,
      "'daki</w>": 131,
      "'dan</w>": 132,
      "'de,</w>": 133,
      "'de</w>": 134,
      "'deki</w>": 135,
      "'den</w>": 136,
      "'dir.</w>": 137,
      "'dur.</w>": 138,
      "'dır.</w>": 139,
      "'e,</w>": 140,
      "'e</w>": 141,
      "'i</w>": 142,
      "'in,</w>": 143,
      "'in</w>": 144,
      "'inde</w>": 145,
      "'ini</w>": 146,
      "'l-": 147,
      "'la</w>": 148,
      "'lar</w>": 149,
      "'le</w>": 150,
      "'ler</w>": 151,
      "'lerde</w>": 152,
      "'lerin</w>": 153,
      "'li</w>": 154,
      "'lik</w>": 155,
      "'lu</w>": 156,
      "'n": 157,
      "'na</w>": 158,
      "'nda</w>": 159,
      "'nde</w>": 160,
      "'ne</w>": 161,
      "'nin</w>": 162,
      "'nun</w>": 163,
      "'nün</w>": 164,
      "'nın</w>": 165,
      "'s": 166,
      "'s</w>": 167,
      "'si</w>": 168,
      "'sini</w>": 169,
      "'sı</w>": 170,
      "'t</w>": 171,
      "'ta,</w>": 172,
      "'ta</w>": 173,
      "'taki</w>": 174,
      "'tan</w>": 175,
      "'te,</w>": 176,
      "'te</w>": 177,
      "'teki</w>": 178,
      "'ten</w>": 179,
      "'tir.</w>": 180,
      "'u</w>": 181,
      "'un</w>": 182,
      "'y": 183,
      "'ya,</w>": 184,
      "'ya</w>": 185,
      "'ye</w>": 186,
      "'yi</w>": 187,
      "'yla</w>": 188,
      "'yu</w>": 189,
      "'yı</w>": 190,
      "'ü</w>": 191,
      "'ün</w>": 192,
      "'ı</w>": 193,
      "'ın,</w>": 194,
      "'ın</w>": 195,
      "'ında</w>": 196,
      "(": 197,
      "(\"": 198,
      "(%": 199,
      "(),</w>": 200,
      "()</w>": 201,
      "(,</w>": 202,
      "(0": 203,
      "(1": 204,
      "(1):</w>": 205,
      "(1)</w>": 206,
      "(1-": 207,
      "(10": 208,
      "(12": 209,
      "(13": 210,
      "(14": 211,
      "(15": 212,
      "(16": 213,
      "(17": 214,
      "(18": 215,
      "(183": 216,
      "(184": 217,
      "(185": 218,
      "(186": 219,
      "(187": 220,
      "(188": 221,
      "(189": 222,
      "(19": 223,
      "(190": 224,
      "(192": 225,
      "(193": 226,
      "(194": 227,
      "(195": 228,
      "(196": 229,
      "(1968)</w>": 230,
      "(1969)</w>": 231,
      "(197": 232,
      "(1970)</w>": 233,
      "(1971)</w>": 234,
      "(1972)</w>": 235,
      "(1973)</w>": 236,
      "(1974)</w>": 237,
      "(1975)</w>": 238,
      "(1976)</w>": 239,
      "(1977)</w>": 240,
      "(1978)</w>": 241,
      "(1979)</w>": 242,
      "(198": 243,
      "(1980)</w>": 244,
      "(1981)</w>": 245,
      "(1982)</w>": 246,
      "(1983)</w>": 247,
      "(1984)</w>": 248,
      "(1985)</w>": 249,
      "(1986)</w>": 250,
      "(1987)</w>": 251,
      "(1988)</w>": 252,
      "(1989)</w>": 253,
      "(199": 254,
      "(1990)</w>": 255,
      "(1991)</w>": 256,
      "(1992)</w>": 257,
      "(1993)</w>": 258,
      "(1994)</w>": 259,
      "(1995)</w>": 260,
      "(1996)</w>": 261,
      "(1997)</w>": 262,
      "(1998)</w>": 263,
      "(1999)</w>": 264,
      "(1</w>": 265,
      "(2": 266,
      "(2):</w>": 267,
      "(2)</w>": 268,
      "(200": 269,
      "(2000)</w>": 270,
      "(2001)</w>": 271,
      "(2002)</w>": 272,
      "(2003)</w>": 273,
      "(2004)</w>": 274,
      "(2005)</w>": 275,
      "(2006)</w>": 276,
      "(2007)</w>": 277,
      "(2008)</w>": 278,
      "(2009)</w>": 279,
      "(201": 280,
      "(2010)</w>": 281,
      "(2011)</w>": 282,
      "(2012)</w>": 283,
      "(2013)</w>": 284,
      "(2014)</w>": 285,
      "(2015)</w>": 286,
      "(2016)</w>": 287,
      "(2017)</w>": 288,
      "(2018)</w>": 289,
      "(2019)</w>": 290,
      "(202": 291,
      "(2020)</w>": 292,
      "(2</w>": 293,
      "(3": 294,
      "(3)</w>": 295,
      "(3</w>": 296,
      "(4": 297,
      "(4</w>": 298,
      "(5": 299,
      "(5</w>": 300,
      "(6": 301,
      "(7": 302,
      "(8": 303,
      "(;</w>": 304,
      "(</w>": 305,
      "(?": 306,
      "(?-": 307,
      "(?-?": 308,
      "(?-?),</w>": 309,
      "(a": 310,
      "(ak": 311,
      "(al": 312,
      "(alman": 313,
      "(ap": 314,
      "(ar": 315,
      "(b": 316,
      "(bir</w>": 317,
      "(bu</w>": 318,
      "(c": 319,
      "(ch": 320,
      "(d": 321,
      "(d.": 322,
      "(d.</w>": 323,
      "(daha</w>": 324,
      "(doğum</w>": 325,
      "(ed": 326,
      "(en</w>": 327,
      "(eski</w>": 328,
      "(f": 329,
      "(film,</w>": 330,
      "(g": 331,
      "(h": 332,
      "(in": 333,
      "(i̇n": 334,
      "(i̇ngilizc": 335,
      "(i̇ngilizce)</w>": 336,
      "(i̇ngilizce:</w>": 337,
      "(j": 338,
      "(k": 339,
      "(kısa</w>": 340,
      "(l": 341,
      "(m": 342,
      "(mö</w>": 343,
      "(n": 344,
      "(p": 345,
      "(r": 346,
      "(rus": 347,
      "(rusça:</w>": 348,
      "(s": 349,
      "(söz": 350,
      "(söz:</w>": 351,
      "(t": 352,
      "(the</w>": 353,
      "(tv)</w>": 354,
      "(tv</w>": 355,
      "(türkç": 356,
      "(v": 357,
      "(ve</w>": 358,
      "(veya</w>": 359,
      "(w": 360,
      "(x": 361,
      "(ya</w>": 362,
      "(yaklaşık</w>": 363,
      "(yani</w>": 364,
      "(z": 365,
      "(ö.</w>": 366,
      "(örneğin</w>": 367,
      "(özellikle</w>": 368,
      ")": 369,
      ")\"</w>": 370,
      "))</w>": 371,
      "),</w>": 372,
      ").</w>": 373,
      "):</w>": 374,
      ");</w>": 375,
      ")</w>": 376,
      "*": 377,
      "*</w>": 378,
      "+": 379,
      "+</w>": 380,
      ",": 381,
      ",\"</w>": 382,
      ",000</w>": 383,
      ",5</w>": 384,
      ",</w>": 385,
      "-": 386,
      "--": 387,
      "----": 388,
      "--</w>": 389,
      "-</w>": 390,
      "-i</w>": 391,
      "-ı</w>": 392,
      ".": 393,
      ".\"</w>": 394,
      ".)</w>": 395,
      ".,</w>": 396,
      ".000</w>": 397,
      ".0</w>": 398,
      ".1</w>": 399,
      ".2</w>": 400,
      ".3</w>": 401,
      ".4": 402,
      ".4</w>": 403,
      ".5</w>": 404,
      ".7": 405,
      ".8": 406,
      ".:</w>": 407,
      ".</w>": 408,
      ".com": 409,
      ".com'da</w>": 410,
      ".com</w>": 411,
      ".”</w>": 412,
      "/": 413,
      "//</w>": 414,
      "/</w>": 415,
      "0": 416,
      "0'": 417,
      "0'da</w>": 418,
      "0'dan</w>": 419,
      "0'de</w>": 420,
      "0'den</w>": 421,
      "0'i</w>": 422,
      "0'lar</w>": 423,
      "0'larda</w>": 424,
      "0'ların</w>": 425,
      "0'ler</w>": 426,
      "0'lerde</w>": 427,
      "0'lerin</w>": 428,
      "0'li</w>": 429,
      "0'lı</w>": 430,
      "0'lık</w>": 431,
      "0'ta</w>": 432,
      "0),</w>": 433,
      "0).</w>": 434,
      "0)</w>": 435,
      "0,": 436,
      "0,</w>": 437,
      "0-": 438,
      "0.": 439,
      "0.</w>": 440,
      "00": 441,
      "00\"</w>": 442,
      "00-": 443,
      "000": 444,
      "000'den</w>": 445,
      "0000": 446,
      "0000\"</w>": 447,
      "0000\"|</w>": 448,
      "000</w>": 449,
      "00</w>": 450,
      "01</w>": 451,
      "024": 452,
      "02433\"</w>": 453,
      "02</w>": 454,
      "03</w>": 455,
      "04</w>": 456,
      "05</w>": 457,
      "06</w>": 458,
      "07</w>": 459,
      "08": 460,
      "08</w>": 461,
      "09</w>": 462,
      "0:</w>": 463,
      "0</w>": 464,
      "0e": 465,
      "0e0e": 466,
      "0–": 467,
      "0’": 468,
      "1": 469,
      "1\"</w>": 470,
      "1'de,</w>": 471,
      "1'de</w>": 472,
      "1'den</w>": 473,
      "1'e</w>": 474,
      "1'i</w>": 475,
      "1'in</w>": 476,
      "1),</w>": 477,
      "1).</w>": 478,
      "1)</w>": 479,
      "1,": 480,
      "1,5</w>": 481,
      "1,</w>": 482,
      "1-": 483,
      "1-0</w>": 484,
      "1-1</w>": 485,
      "1.": 486,
      "1.0": 487,
      "1.000</w>": 488,
      "1.0</w>": 489,
      "1.1": 490,
      "1.1</w>": 491,
      "1.1em;</w>": 492,
      "1.2</w>": 493,
      "1.3</w>": 494,
      "1.5</w>": 495,
      "1.</w>": 496,
      "1/": 497,
      "10": 498,
      "10)</w>": 499,
      "10,</w>": 500,
      "10-": 501,
      "10.": 502,
      "10.000</w>": 503,
      "10.</w>": 504,
      "100": 505,
      "100.000</w>": 506,
      "1000</w>": 507,
      "1007": 508,
      "100</w>": 509,
      "10</w>": 510,
      "10|": 511,
      "10|kaynak:</w>": 512,
      "11": 513,
      "11'de</w>": 514,
      "11)</w>": 515,
      "11,</w>": 516,
      "11-": 517,
      "11.": 518,
      "11.</w>": 519,
      "110": 520,
      "110</w>": 521,
      "114": 522,
      "11</w>": 523,
      "12": 524,
      "12\"</w>": 525,
      "12)</w>": 526,
      "12-": 527,
      "12.": 528,
      "12.</w>": 529,
      "120": 530,
      "120</w>": 531,
      "12</w>": 532,
      "13": 533,
      "13)</w>": 534,
      "13-": 535,
      "13.": 536,
      "13.</w>": 537,
      "130</w>": 538,
      "13</w>": 539,
      "14": 540,
      "14-": 541,
      "14.": 542,
      "14.</w>": 543,
      "14</w>": 544,
      "15": 545,
      "15)</w>": 546,
      "15-": 547,
      "15.": 548,
      "15.</w>": 549,
      "150": 550,
      "150</w>": 551,
      "155": 552,
      "157": 553,
      "15</w>": 554,
      "16": 555,
      "16-": 556,
      "16.": 557,
      "16.</w>": 558,
      "160": 559,
      "160</w>": 560,
      "164": 561,
      "165": 562,
      "166": 563,
      "168": 564,
      "16</w>": 565,
      "17": 566,
      "17-": 567,
      "17.": 568,
      "17.</w>": 569,
      "170": 570,
      "174": 571,
      "175": 572,
      "176": 573,
      "177": 574,
      "178": 575,
      "179": 576,
      "17</w>": 577,
      "18": 578,
      "18-": 579,
      "18.": 580,
      "18.</w>": 581,
      "180": 582,
      "180</w>": 583,
      "182": 584,
      "183": 585,
      "184": 586,
      "185": 587,
      "186": 588,
      "187": 589,
      "1878</w>": 590,
      "188": 591,
      "1886</w>": 592,
      "189": 593,
      "18</w>": 594,
      "19": 595,
      "19-": 596,
      "19.": 597,
      "19.</w>": 598,
      "190": 599,
      "1900": 600,
      "1900</w>": 601,
      "1903</w>": 602,
      "1904</w>": 603,
      "1905</w>": 604,
      "1906</w>": 605,
      "1907</w>": 606,
      "1908</w>": 607,
      "1909</w>": 608,
      "1910": 609,
      "1910</w>": 610,
      "1911</w>": 611,
      "1912": 612,
      "1912</w>": 613,
      "1913": 614,
      "1913</w>": 615,
      "1914": 616,
      "1914</w>": 617,
      "1915": 618,
      "1915</w>": 619,
      "1916": 620,
      "1916</w>": 621,
      "1917": 622,
      "1917</w>": 623,
      "1918": 624,
      "1918'de</w>": 625,
      "1918</w>": 626,
      "1919": 627,
      "1919'da</w>": 628,
      "1919</w>": 629,
      "192": 630,
      "1920": 631,
      "1920'de</w>": 632,
      "1920</w>": 633,
      "1921'de</w>": 634,
      "1921</w>": 635,
      "1922</w>": 636,
      "1923</w>": 637,
      "1924</w>": 638,
      "1925</w>": 639,
      "1926</w>": 640,
      "1927</w>": 641,
      "1928</w>": 642,
      "1929</w>": 643,
      "193": 644,
      "1930</w>": 645,
      "1931</w>": 646,
      "1932</w>": 647,
      "1933</w>": 648,
      "1934</w>": 649,
      "1935</w>": 650,
      "1936</w>": 651,
      "1937</w>": 652,
      "1938</w>": 653,
      "1939'da</w>": 654,
      "1939</w>": 655,
      "194": 656,
      "1940</w>": 657,
      "1941'de</w>": 658,
      "1941</w>": 659,
      "1942'de</w>": 660,
      "1942</w>": 661,
      "1943'te</w>": 662,
      "1943</w>": 663,
      "1944'te</w>": 664,
      "1944</w>": 665,
      "1945'te</w>": 666,
      "1945</w>": 667,
      "1946</w>": 668,
      "1947</w>": 669,
      "1948</w>": 670,
      "1949</w>": 671,
      "195": 672,
      "1950</w>": 673,
      "1951</w>": 674,
      "1952</w>": 675,
      "1953</w>": 676,
      "1954</w>": 677,
      "1955</w>": 678,
      "1956</w>": 679,
      "1957</w>": 680,
      "1958</w>": 681,
      "1959</w>": 682,
      "196": 683,
      "1960'larda</w>": 684,
      "1960</w>": 685,
      "1961</w>": 686,
      "1962</w>": 687,
      "1963</w>": 688,
      "1964:</w>": 689,
      "1964</w>": 690,
      "1965:</w>": 691,
      "1965</w>": 692,
      "1966:</w>": 693,
      "1966</w>": 694,
      "1967'de</w>": 695,
      "1967:</w>": 696,
      "1967</w>": 697,
      "1968'de</w>": 698,
      "1968:</w>": 699,
      "1968</w>": 700,
      "1969'da</w>": 701,
      "1969:</w>": 702,
      "1969</w>": 703,
      "197": 704,
      "1970": 705,
      "1970'lerde</w>": 706,
      "1970'lerin</w>": 707,
      "1970:</w>": 708,
      "1970</w>": 709,
      "1971'de</w>": 710,
      "1971:</w>": 711,
      "1971</w>": 712,
      "1972'de</w>": 713,
      "1972:</w>": 714,
      "1972</w>": 715,
      "1973'te</w>": 716,
      "1973:</w>": 717,
      "1973</w>": 718,
      "1974'te</w>": 719,
      "1974:</w>": 720,
      "1974</w>": 721,
      "1975'te</w>": 722,
      "1975:</w>": 723,
      "1975</w>": 724,
      "1976:</w>": 725,
      "1976</w>": 726,
      "1977'de</w>": 727,
      "1977:</w>": 728,
      "1977</w>": 729,
      "1978'de</w>": 730,
      "1978:</w>": 731,
      "1978</w>": 732,
      "1979'da</w>": 733,
      "1979:</w>": 734,
      "1979</w>": 735,
      "198": 736,
      "1980'de</w>": 737,
      "1980'lerde</w>": 738,
      "1980'lerin</w>": 739,
      "1980</w>": 740,
      "1981'de</w>": 741,
      "1981</w>": 742,
      "1982'de</w>": 743,
      "1982</w>": 744,
      "1983'te</w>": 745,
      "1983:</w>": 746,
      "1983</w>": 747,
      "1984'te</w>": 748,
      "1984:</w>": 749,
      "1984</w>": 750,
      "1985'te</w>": 751,
      "1985:</w>": 752,
      "1985</w>": 753,
      "1986'da</w>": 754,
      "1986:</w>": 755,
      "1986</w>": 756,
      "1987'de</w>": 757,
      "1987:</w>": 758,
      "1987</w>": 759,
      "1988'de</w>": 760,
      "1988:</w>": 761,
      "1988</w>": 762,
      "1989'da</w>": 763,
      "1989-": 764,
      "1989:</w>": 765,
      "1989</w>": 766,
      "199": 767,
      "1990": 768,
      "1990'da</w>": 769,
      "1990'larda</w>": 770,
      "1990'ların</w>": 771,
      "1990-": 772,
      "1990:</w>": 773,
      "1990</w>": 774,
      "1991'de</w>": 775,
      "1991-": 776,
      "1991</w>": 777,
      "1992'de</w>": 778,
      "1992-": 779,
      "1992:</w>": 780,
      "1992</w>": 781,
      "1993'te</w>": 782,
      "1993-": 783,
      "1993:</w>": 784,
      "1993</w>": 785,
      "1994'te</w>": 786,
      "1994-": 787,
      "1994:</w>": 788,
      "1994</w>": 789,
      "1995'te</w>": 790,
      "1995-": 791,
      "1995:</w>": 792,
      "1995</w>": 793,
      "1996'da</w>": 794,
      "1996-": 795,
      "1996:</w>": 796,
      "1996</w>": 797,
      "1997'de</w>": 798,
      "1997-": 799,
      "1997:</w>": 800,
      "1997</w>": 801,
      "1998'de</w>": 802,
      "1998)</w>": 803,
      "1998-": 804,
      "1998:</w>": 805,
      "1998</w>": 806,
      "1999'da</w>": 807,
      "1999)</w>": 808,
      "1999-": 809,
      "1999:</w>": 810,
      "1999</w>": 811,
      "19</w>": 812,
      "1:": 813,
      "1:</w>": 814,
      "1</w>": 815,
      "1a": 816,
      "1a7e": 817,
      "1a7e1\"</w>": 818,
      "1c": 819,
      "1|</w>": 820,
      "1–": 821,
      "1’de</w>": 822,
      "2": 823,
      "2\"</w>": 824,
      "2'de,</w>": 825,
      "2'de</w>": 826,
      "2'den</w>": 827,
      "2'nin</w>": 828,
      "2'ye</w>": 829,
      "2),</w>": 830,
      "2).</w>": 831,
      "2)</w>": 832,
      "2,": 833,
      "2,5</w>": 834,
      "2,</w>": 835,
      "2-": 836,
      "2-0</w>": 837,
      "2-1</w>": 838,
      "2.": 839,
      "2.0</w>": 840,
      "2.5</w>": 841,
      "2.</w>": 842,
      "2/": 843,
      "20": 844,
      "20)</w>": 845,
      "20-": 846,
      "20.": 847,
      "20.</w>": 848,
      "200": 849,
      "2000": 850,
      "2000'de</w>": 851,
      "2000'lerde</w>": 852,
      "2000)</w>": 853,
      "2000,</w>": 854,
      "2000-": 855,
      "2000:</w>": 856,
      "2000</w>": 857,
      "2001'de</w>": 858,
      "2001)</w>": 859,
      "2001-": 860,
      "2001:</w>": 861,
      "2001</w>": 862,
      "2002'de</w>": 863,
      "2002)</w>": 864,
      "2002-": 865,
      "2002:</w>": 866,
      "2002</w>": 867,
      "2003'te</w>": 868,
      "2003)</w>": 869,
      "2003,</w>": 870,
      "2003-": 871,
      "2003:</w>": 872,
      "2003</w>": 873,
      "2004": 874,
      "2004'te</w>": 875,
      "2004)</w>": 876,
      "2004,</w>": 877,
      "2004-": 878,
      "2004:</w>": 879,
      "2004</w>": 880,
      "2005'te</w>": 881,
      "2005)</w>": 882,
      "2005,</w>": 883,
      "2005-": 884,
      "2005-06</w>": 885,
      "2005:</w>": 886,
      "2005</w>": 887,
      "2006": 888,
      "2006'da</w>": 889,
      "2006)</w>": 890,
      "2006,</w>": 891,
      "2006-": 892,
      "2006-07</w>": 893,
      "2006:</w>": 894,
      "2006</w>": 895,
      "2007": 896,
      "2007'de</w>": 897,
      "2007)</w>": 898,
      "2007,</w>": 899,
      "2007-": 900,
      "2007-08</w>": 901,
      "2007:</w>": 902,
      "2007</w>": 903,
      "2008": 904,
      "2008'de</w>": 905,
      "2008)</w>": 906,
      "2008,</w>": 907,
      "2008-": 908,
      "2008-09</w>": 909,
      "2008:</w>": 910,
      "2008</w>": 911,
      "2009": 912,
      "2009'da</w>": 913,
      "2009)</w>": 914,
      "2009,</w>": 915,
      "2009-": 916,
      "2009-10</w>": 917,
      "2009:</w>": 918,
      "2009</w>": 919,
      "200</w>": 920,
      "201": 921,
      "2010": 922,
      "2010'da</w>": 923,
      "2010'larda</w>": 924,
      "2010)</w>": 925,
      "2010,</w>": 926,
      "2010-": 927,
      "2010-11</w>": 928,
      "2010:</w>": 929,
      "2010</w>": 930,
      "2011'de</w>": 931,
      "2011)</w>": 932,
      "2011,</w>": 933,
      "2011-": 934,
      "2011-12</w>": 935,
      "2011:</w>": 936,
      "2011</w>": 937,
      "2012'de</w>": 938,
      "2012)</w>": 939,
      "2012-": 940,
      "2012-13</w>": 941,
      "2012:</w>": 942,
      "2012</w>": 943,
      "2013'te</w>": 944,
      "2013)</w>": 945,
      "2013-": 946,
      "2013-14</w>": 947,
      "2013:</w>": 948,
      "2013</w>": 949,
      "2014": 950,
      "2014'te</w>": 951,
      "2014)</w>": 952,
      "2014-": 953,
      "2014-15</w>": 954,
      "2014:</w>": 955,
      "2014</w>": 956,
      "2015": 957,
      "2015'te</w>": 958,
      "2015)</w>": 959,
      "2015-": 960,
      "2015:</w>": 961,
      "2015</w>": 962,
      "2016": 963,
      "2016'da</w>": 964,
      "2016)</w>": 965,
      "2016-": 966,
      "2016:</w>": 967,
      "2016</w>": 968,
      "2017": 969,
      "2017'de</w>": 970,
      "2017)</w>": 971,
      "2017-": 972,
      "2017</w>": 973,
      "2018": 974,
      "2018'de</w>": 975,
      "2018-": 976,
      "2018</w>": 977,
      "2019": 978,
      "2019'da</w>": 979,
      "2019)</w>": 980,
      "2019-": 981,
      "2019</w>": 982,
      "202": 983,
      "2020": 984,
      "2020'de</w>": 985,
      "2020)</w>": 986,
      "2020-": 987,
      "2020</w>": 988,
      "2021'de</w>": 989,
      "2021-": 990,
      "2021</w>": 991,
      "2022'de</w>": 992,
      "2022</w>": 993,
      "2023</w>": 994,
      "20</w>": 995,
      "21": 996,
      "21.</w>": 997,
      "21</w>": 998,
      "22": 999,
      "22.": 1000,
      "22.</w>": 1001,
      "22</w>": 1002,
      "23": 1003,
      "23.</w>": 1004,
      "23</w>": 1005,
      "24": 1006,
      "24\"</w>": 1007,
      "24.</w>": 1008,
      "24</w>": 1009,
      "25": 1010,
      "25-": 1011,
      "25.</w>": 1012,
      "250</w>": 1013,
      "251c": 1014,
      "25</w>": 1015,
      "26": 1016,
      "26.</w>": 1017,
      "26</w>": 1018,
      "27": 1019,
      "27.</w>": 1020,
      "27</w>": 1021,
      "28": 1022,
      "28</w>": 1023,
      "29": 1024,
      "29</w>": 1025,
      "2:": 1026,
      "2:</w>": 1027,
      "2</w>": 1028,
      "2–": 1029,
      "2’de</w>": 1030,
      "3": 1031,
      "3\"</w>": 1032,
      "3'": 1033,
      "3'e</w>": 1034,
      "3'te,</w>": 1035,
      "3'te</w>": 1036,
      "3'ten</w>": 1037,
      "3),</w>": 1038,
      "3).</w>": 1039,
      "3)</w>": 1040,
      "3,": 1041,
      "3,</w>": 1042,
      "3-": 1043,
      "3-0</w>": 1044,
      "3-1</w>": 1045,
      "3-2</w>": 1046,
      "3.": 1047,
      "3.</w>": 1048,
      "3/": 1049,
      "30": 1050,
      "30%|aday</w>": 1051,
      "30%|oy</w>": 1052,
      "300": 1053,
      "300</w>": 1054,
      "30</w>": 1055,
      "31</w>": 1056,
      "32": 1057,
      "32%|": 1058,
      "32%|belde</w>": 1059,
      "32%|kazanan</w>": 1060,
      "32</w>": 1061,
      "33": 1062,
      "33\"</w>": 1063,
      "33</w>": 1064,
      "34": 1065,
      "34</w>": 1066,
      "35": 1067,
      "35</w>": 1068,
      "36": 1069,
      "360</w>": 1070,
      "36</w>": 1071,
      "37": 1072,
      "37</w>": 1073,
      "38": 1074,
      "38</w>": 1075,
      "39": 1076,
      "39</w>": 1077,
      "3:": 1078,
      "3:</w>": 1079,
      "3</w>": 1080,
      "3d</w>": 1081,
      "3–": 1082,
      "3’te</w>": 1083,
      "4": 1084,
      "4\"</w>": 1085,
      "4'": 1086,
      "4'te</w>": 1087,
      "4'ten</w>": 1088,
      "4),</w>": 1089,
      "4).</w>": 1090,
      "4)</w>": 1091,
      "4,": 1092,
      "4,</w>": 1093,
      "4-": 1094,
      "4.": 1095,
      "4.</w>": 1096,
      "40": 1097,
      "400": 1098,
      "400</w>": 1099,
      "40</w>": 1100,
      "41</w>": 1101,
      "42</w>": 1102,
      "43": 1103,
      "43</w>": 1104,
      "44": 1105,
      "44</w>": 1106,
      "45": 1107,
      "45</w>": 1108,
      "46": 1109,
      "46</w>": 1110,
      "47": 1111,
      "47</w>": 1112,
      "48": 1113,
      "48</w>": 1114,
      "49": 1115,
      "49</w>": 1116,
      "4:": 1117,
      "4:</w>": 1118,
      "4</w>": 1119,
      "4–": 1120,
      "5": 1121,
      "5\"</w>": 1122,
      "5'e</w>": 1123,
      "5'te</w>": 1124,
      "5'ten</w>": 1125,
      "5),</w>": 1126,
      "5).</w>": 1127,
      "5)</w>": 1128,
      "5,": 1129,
      "5,</w>": 1130,
      "5-": 1131,
      "5.": 1132,
      "5.</w>": 1133,
      "50": 1134,
      "500": 1135,
      "500</w>": 1136,
      "50</w>": 1137,
      "51</w>": 1138,
      "52": 1139,
      "52</w>": 1140,
      "53": 1141,
      "53</w>": 1142,
      "54": 1143,
      "54</w>": 1144,
      "55": 1145,
      "55</w>": 1146,
      "56": 1147,
      "56</w>": 1148,
      "57": 1149,
      "57</w>": 1150,
      "58": 1151,
      "58</w>": 1152,
      "59": 1153,
      "59</w>": 1154,
      "5:": 1155,
      "5:</w>": 1156,
      "5</w>": 1157,
      "5–": 1158,
      "5’te</w>": 1159,
      "6": 1160,
      "6\"</w>": 1161,
      "6'da</w>": 1162,
      "6'dan</w>": 1163,
      "6),</w>": 1164,
      "6).</w>": 1165,
      "6)</w>": 1166,
      "6,": 1167,
      "6,</w>": 1168,
      "6-": 1169,
      "6.": 1170,
      "6.</w>": 1171,
      "60": 1172,
      "600</w>": 1173,
      "60</w>": 1174,
      "61</w>": 1175,
      "62</w>": 1176,
      "63": 1177,
      "63</w>": 1178,
      "64": 1179,
      "64</w>": 1180,
      "65": 1181,
      "65%;</w>": 1182,
      "65</w>": 1183,
      "66": 1184,
      "6600": 1185,
      "66</w>": 1186,
      "67": 1187,
      "67</w>": 1188,
      "68": 1189,
      "68</w>": 1190,
      "69</w>": 1191,
      "6:</w>": 1192,
      "6;\"</w>": 1193,
      "6</w>": 1194,
      "6–": 1195,
      "6’da</w>": 1196,
      "7": 1197,
      "7\"</w>": 1198,
      "7'de</w>": 1199,
      "7'den</w>": 1200,
      "7),</w>": 1201,
      "7).</w>": 1202,
      "7)</w>": 1203,
      "7,": 1204,
      "7,</w>": 1205,
      "7-": 1206,
      "7.": 1207,
      "7.</w>": 1208,
      "70": 1209,
      "700</w>": 1210,
      "70</w>": 1211,
      "71</w>": 1212,
      "72</w>": 1213,
      "73": 1214,
      "73</w>": 1215,
      "74</w>": 1216,
      "75": 1217,
      "75</w>": 1218,
      "76": 1219,
      "76</w>": 1220,
      "77": 1221,
      "77</w>": 1222,
      "78</w>": 1223,
      "79</w>": 1224,
      "7:</w>": 1225,
      "7</w>": 1226,
      "7e": 1227,
      "7–": 1228,
      "7’de</w>": 1229,
      "8": 1230,
      "8'de</w>": 1231,
      "8'den</w>": 1232,
      "8),</w>": 1233,
      "8).</w>": 1234,
      "8)</w>": 1235,
      "8,": 1236,
      "8,</w>": 1237,
      "8-": 1238,
      "8.": 1239,
      "8.</w>": 1240,
      "80": 1241,
      "800": 1242,
      "8000": 1243,
      "800000": 1244,
      "800</w>": 1245,
      "80</w>": 1246,
      "81</w>": 1247,
      "82</w>": 1248,
      "83</w>": 1249,
      "84</w>": 1250,
      "85": 1251,
      "85</w>": 1252,
      "86</w>": 1253,
      "87": 1254,
      "87</w>": 1255,
      "88": 1256,
      "88</w>": 1257,
      "89</w>": 1258,
      "8:</w>": 1259,
      "8</w>": 1260,
      "8–": 1261,
      "8’de</w>": 1262,
      "9": 1263,
      "9'da</w>": 1264,
      "9'dan</w>": 1265,
      "9),</w>": 1266,
      "9).</w>": 1267,
      "9)</w>": 1268,
      "9,": 1269,
      "9,</w>": 1270,
      "9-": 1271,
      "9.": 1272,
      "9.</w>": 1273,
      "90": 1274,
      "900</w>": 1275,
      "90</w>": 1276,
      "91</w>": 1277,
      "92</w>": 1278,
      "93</w>": 1279,
      "94": 1280,
      "94</w>": 1281,
      "95": 1282,
      "95</w>": 1283,
      "96": 1284,
      "96</w>": 1285,
      "97": 1286,
      "975-": 1287,
      "978": 1288,
      "978-": 1289,
      "97</w>": 1290,
      "98": 1291,
      "98</w>": 1292,
      "99": 1293,
      "99</w>": 1294,
      "9:</w>": 1295,
      "9</w>": 1296,
      "9–": 1297,
      "9’da</w>": 1298,
      ":": 1299,
      ":#": 1300,
      ":</w>": 1301,
      ";": 1302,
      ";\"</w>": 1303,
      ";\"|</w>": 1304,
      ";</w>": 1305,
      "<": 1306,
      "</": 1307,
      "</w>": 1308,
      ">": 1309,
      "></w>": 1310,
      "?": 1311,
      "?\"</w>": 1312,
      "?</w>": 1313,
      "@": 1314,
      "@</w>": 1315,
      "[": 1316,
      "[</w>": 1317,
      "\\": 1318,
      "]": 1319,
      "],</w>": 1320,
      "]</w>": 1321,
      "^": 1322,
      "_": 1323,
      "`": 1324,
      "a": 1325,
      "a\"</w>": 1326,
      "a'": 1327,
      "a'</w>": 1328,
      "a'da,</w>": 1329,
      "a'da</w>": 1330,
      "a'daki</w>": 1331,
      "a'dan</w>": 1332,
      "a'dır.</w>": 1333,
      "a'nın</w>": 1334,
      "a's": 1335,
      "a's</w>": 1336,
      "a'ya</w>": 1337,
      "a'yı</w>": 1338,
      "a),</w>": 1339,
      "a)</w>": 1340,
      "a,": 1341,
      "a,</w>": 1342,
      "a-": 1343,
      "a-her": 1344,
      "a-i</w>": 1345,
      "a.": 1346,
      "a.</w>": 1347,
      "a.ş": 1348,
      "a.ş.</w>": 1349,
      "a/": 1350,
      "a:</w>": 1351,
      "a;</w>": 1352,
      "a</w>": 1353,
      "aa</w>": 1354,
      "aar": 1355,
      "aat": 1356,
      "aat</w>": 1357,
      "ab": 1358,
      "ab</w>": 1359,
      "aba</w>": 1360,
      "abbas": 1361,
      "abbas</w>": 1362,
      "abd": 1363,
      "abd'de</w>": 1364,
      "abd'nin</w>": 1365,
      "abd'ye</w>": 1366,
      "abd,</w>": 1367,
      "abd</w>": 1368,
      "abdul": 1369,
      "abdullah</w>": 1370,
      "abdur": 1371,
      "abdül": 1372,
      "abdülham": 1373,
      "abe</w>": 1374,
      "abet": 1375,
      "abet</w>": 1376,
      "abhaz": 1377,
      "abi</w>": 1378,
      "abil": 1379,
      "abildi.</w>": 1380,
      "abildiği</w>": 1381,
      "abilecek</w>": 1382,
      "abileceğ": 1383,
      "abileceği</w>": 1384,
      "abileceğini</w>": 1385,
      "abilen</w>": 1386,
      "abilir": 1387,
      "abilir,</w>": 1388,
      "abilir.</w>": 1389,
      "abilir:</w>": 1390,
      "abilir</w>": 1391,
      "abilirler.</w>": 1392,
      "abilm": 1393,
      "abilme</w>": 1394,
      "abilmek</w>": 1395,
      "abilmektedir.</w>": 1396,
      "abilmesi</w>": 1397,
      "able</w>": 1398,
      "abol": 1399,
      "about</w>": 1400,
      "abrah": 1401,
      "abı</w>": 1402,
      "ac": 1403,
      "ac</w>": 1404,
      "aca</w>": 1405,
      "academ": 1406,
      "academy</w>": 1407,
      "acak": 1408,
      "acak,</w>": 1409,
      "acak.</w>": 1410,
      "acak</w>": 1411,
      "acakları</w>": 1412,
      "acaklarını</w>": 1413,
      "acakt": 1414,
      "acaktı.</w>": 1415,
      "acaktır.</w>": 1416,
      "acağ": 1417,
      "acağı</w>": 1418,
      "acağına</w>": 1419,
      "acağını</w>": 1420,
      "ace": 1421,
      "ace</w>": 1422,
      "aceae</w>": 1423,
      "ach": 1424,
      "ach</w>": 1425,
      "acil</w>": 1426,
      "ack": 1427,
      "ack</w>": 1428,
      "ackground": 1429,
      "acı": 1430,
      "acı</w>": 1431,
      "acılar</w>": 1432,
      "acılık</w>": 1433,
      "acım": 1434,
      "ad": 1435,
      "ad'ın</w>": 1436,
      "ad,</w>": 1437,
      "ad</w>": 1438,
      "ada,</w>": 1439,
      "ada</w>": 1440,
      "adada</w>": 1441,
      "adaki</w>": 1442,
      "adalar": 1443,
      "adaları</w>": 1444,
      "adalet": 1445,
      "adalet</w>": 1446,
      "adam": 1447,
      "adam</w>": 1448,
      "adamları</w>": 1449,
      "adamı</w>": 1450,
      "adamın</w>": 1451,
      "adan": 1452,
      "adan</w>": 1453,
      "adana</w>": 1454,
      "adanın</w>": 1455,
      "adap": 1456,
      "adas": 1457,
      "adası</w>": 1458,
      "aday": 1459,
      "aday</w>": 1460,
      "adaya</w>": 1461,
      "adaylar</w>": 1462,
      "adaylık</w>": 1463,
      "adayı</w>": 1464,
      "ade": 1465,
      "ade</w>": 1466,
      "adel": 1467,
      "adelph": 1468,
      "adem": 1469,
      "adem</w>": 1470,
      "adet": 1471,
      "adet</w>": 1472,
      "adi</w>": 1473,
      "adil</w>": 1474,
      "adlandır": 1475,
      "adlandırıl": 1476,
      "adlandırılan</w>": 1477,
      "adlandırılır.</w>": 1478,
      "adları</w>": 1479,
      "adli</w>": 1480,
      "adlı</w>": 1481,
      "adnan</w>": 1482,
      "ado</w>": 1483,
      "adol": 1484,
      "adolf</w>": 1485,
      "adr": 1486,
      "adres": 1487,
      "adri": 1488,
      "adven": 1489,
      "adı": 1490,
      "adı,</w>": 1491,
      "adı.</w>": 1492,
      "adı:</w>": 1493,
      "adı</w>": 1494,
      "adım": 1495,
      "adım</w>": 1496,
      "adına</w>": 1497,
      "adında</w>": 1498,
      "adındaki</w>": 1499,
      "adından</w>": 1500,
      "adını</w>": 1501,
      "adının</w>": 1502,
      "adır": 1503,
      "adır.</w>": 1504,
      "adır</w>": 1505,
      "adıyla</w>": 1506,
      "adığı</w>": 1507,
      "adığını</w>": 1508,
      "ae": 1509,
      "ae</w>": 1510,
      "ael</w>": 1511,
      "aer": 1512,
      "af": 1513,
      "af</w>": 1514,
      "aff": 1515,
      "afgan": 1516,
      "afganistan</w>": 1517,
      "afi</w>": 1518,
      "afrik": 1519,
      "afrika'da</w>": 1520,
      "afrika</w>": 1521,
      "afrikalı</w>": 1522,
      "aft": 1523,
      "aft</w>": 1524,
      "after</w>": 1525,
      "afyon": 1526,
      "ag": 1527,
      "ag</w>": 1528,
      "again": 1529,
      "age</w>": 1530,
      "agen": 1531,
      "ager</w>": 1532,
      "ago</w>": 1533,
      "agon": 1534,
      "agor": 1535,
      "agr": 1536,
      "agu": 1537,
      "ague</w>": 1538,
      "ah": 1539,
      "ah,</w>": 1540,
      "ah</w>": 1541,
      "ahi</w>": 1542,
      "ahl": 1543,
      "ahlak": 1544,
      "ahlaki</w>": 1545,
      "ahmed": 1546,
      "ahmed</w>": 1547,
      "ahmet</w>": 1548,
      "ahş": 1549,
      "ahşap</w>": 1550,
      "ai": 1551,
      "ai,</w>": 1552,
      "ai</w>": 1553,
      "aid": 1554,
      "aik": 1555,
      "ail": 1556,
      "ail</w>": 1557,
      "aile</w>": 1558,
      "ailenin</w>": 1559,
      "ailesi</w>": 1560,
      "ailesine</w>": 1561,
      "ailesini</w>": 1562,
      "ailesinin</w>": 1563,
      "ailesiyle</w>": 1564,
      "ain": 1565,
      "ain</w>": 1566,
      "air": 1567,
      "air</w>": 1568,
      "aire</w>": 1569,
      "airlin": 1570,
      "ais": 1571,
      "ais</w>": 1572,
      "ait": 1573,
      "ait</w>": 1574,
      "aittir.</w>": 1575,
      "aj": 1576,
      "aj</w>": 1577,
      "aja</w>": 1578,
      "ajans": 1579,
      "ajansı</w>": 1580,
      "ajlı</w>": 1581,
      "ajı</w>": 1582,
      "ak": 1583,
      "ak,</w>": 1584,
      "ak</w>": 1585,
      "aka</w>": 1586,
      "akadem": 1587,
      "akademi</w>": 1588,
      "akademik</w>": 1589,
      "akademis": 1590,
      "akademisi</w>": 1591,
      "akademisyen": 1592,
      "akademisyen</w>": 1593,
      "akademisyenler</w>": 1594,
      "akan</w>": 1595,
      "akar": 1596,
      "akat": 1597,
      "akat</w>": 1598,
      "akciğ": 1599,
      "akciğer</w>": 1600,
      "akdeniz": 1601,
      "akdeniz</w>": 1602,
      "ake</w>": 1603,
      "aker": 1604,
      "aki,</w>": 1605,
      "aki</w>": 1606,
      "akk": 1607,
      "akl": 1608,
      "akla</w>": 1609,
      "aklar</w>": 1610,
      "akları</w>": 1611,
      "aklı</w>": 1612,
      "aklık</w>": 1613,
      "akrab": 1614,
      "aks": 1615,
      "aksi</w>": 1616,
      "aksine,</w>": 1617,
      "aksine</w>": 1618,
      "aksiyon</w>": 1619,
      "akt": 1620,
      "akta</w>": 1621,
      "aktad": 1622,
      "aktadır.</w>": 1623,
      "aktadır</w>": 1624,
      "aktaki</w>": 1625,
      "aktan</w>": 1626,
      "aktar": 1627,
      "aktaydı.</w>": 1628,
      "akter</w>": 1629,
      "akti": 1630,
      "aktif</w>": 1631,
      "aktiv": 1632,
      "aktivit": 1633,
      "aktris</w>": 1634,
      "aktör": 1635,
      "aktör</w>": 1636,
      "aktı.</w>": 1637,
      "aktır.</w>": 1638,
      "akust": 1639,
      "akustik</w>": 1640,
      "akç": 1641,
      "akıl": 1642,
      "akıl</w>": 1643,
      "akıllı</w>": 1644,
      "akım": 1645,
      "akım</w>": 1646,
      "akımı</w>": 1647,
      "akın": 1648,
      "akın</w>": 1649,
      "akış": 1650,
      "akış</w>": 1651,
      "akışı</w>": 1652,
      "akşam": 1653,
      "akşam</w>": 1654,
      "al": 1655,
      "al'ın</w>": 1656,
      "al)</w>": 1657,
      "al,</w>": 1658,
      "al-": 1659,
      "al</w>": 1660,
      "ala": 1661,
      "ala</w>": 1662,
      "alab": 1663,
      "alacak</w>": 1664,
      "alacağı</w>": 1665,
      "alak": 1666,
      "alam": 1667,
      "alama</w>": 1668,
      "alan": 1669,
      "alan,</w>": 1670,
      "alan</w>": 1671,
      "alana</w>": 1672,
      "alanan</w>": 1673,
      "alanda</w>": 1674,
      "alandır": 1675,
      "alanlar</w>": 1676,
      "alanlarda</w>": 1677,
      "alanları</w>": 1678,
      "alanlarında</w>": 1679,
      "alanı,</w>": 1680,
      "alanı</w>": 1681,
      "alanın</w>": 1682,
      "alanına</w>": 1683,
      "alanında</w>": 1684,
      "alanındaki</w>": 1685,
      "alanını</w>": 1686,
      "alanının</w>": 1687,
      "alar": 1688,
      "alar,</w>": 1689,
      "alar.</w>": 1690,
      "alar</w>": 1691,
      "alara</w>": 1692,
      "alarak</w>": 1693,
      "alarca</w>": 1694,
      "alarda</w>": 1695,
      "alardan</w>": 1696,
      "alarla</w>": 1697,
      "aları,</w>": 1698,
      "aları</w>": 1699,
      "aların</w>": 1700,
      "alarına</w>": 1701,
      "alarında</w>": 1702,
      "alarındaki</w>": 1703,
      "alarından</w>": 1704,
      "alarını</w>": 1705,
      "alarının</w>": 1706,
      "alarıyla</w>": 1707,
      "alask": 1708,
      "alaska</w>": 1709,
      "alay": 1710,
      "alay</w>": 1711,
      "alayı</w>": 1712,
      "alaş": 1713,
      "alb": 1714,
      "albay</w>": 1715,
      "alber": 1716,
      "albert</w>": 1717,
      "albüm": 1718,
      "albüm,</w>": 1719,
      "albüm</w>": 1720,
      "albümde</w>": 1721,
      "albümdeki</w>": 1722,
      "albümden</w>": 1723,
      "albüme</w>": 1724,
      "albümler</w>": 1725,
      "albümleri</w>": 1726,
      "albümü</w>": 1727,
      "albümün</w>": 1728,
      "albümünde</w>": 1729,
      "albümünü</w>": 1730,
      "albümünün</w>": 1731,
      "ald": 1732,
      "ald</w>": 1733,
      "aldo</w>": 1734,
      "aldı,</w>": 1735,
      "aldı.</w>": 1736,
      "aldı</w>": 1737,
      "aldıkları</w>": 1738,
      "aldıktan</w>": 1739,
      "aldılar.</w>": 1740,
      "aldığı</w>": 1741,
      "aldığını</w>": 1742,
      "ale": 1743,
      "ale</w>": 1744,
      "alek": 1745,
      "aleksand": 1746,
      "aleksandr</w>": 1747,
      "aleksi": 1748,
      "alem": 1749,
      "ales": 1750,
      "ales</w>": 1751,
      "alet": 1752,
      "alet</w>": 1753,
      "aleti</w>": 1754,
      "alev": 1755,
      "alex": 1756,
      "alex</w>": 1757,
      "alexand": 1758,
      "alexander</w>": 1759,
      "aleyh": 1760,
      "alfa</w>": 1761,
      "alfab": 1762,
      "alfred</w>": 1763,
      "alg": 1764,
      "algorit": 1765,
      "algıl": 1766,
      "ali": 1767,
      "ali'nin</w>": 1768,
      "ali,</w>": 1769,
      "ali</w>": 1770,
      "alic": 1771,
      "alice</w>": 1772,
      "alig": 1773,
      "align": 1774,
      "align</w>": 1775,
      "alim": 1776,
      "alis</w>": 1777,
      "alist</w>": 1778,
      "alit": 1779,
      "aliy": 1780,
      "alkol": 1781,
      "alkol</w>": 1782,
      "all": 1783,
      "all-": 1784,
      "all-star</w>": 1785,
      "all</w>": 1786,
      "allah": 1787,
      "allah</w>": 1788,
      "allen": 1789,
      "allen</w>": 1790,
      "alli": 1791,
      "ally</w>": 1792,
      "alma</w>": 1793,
      "almak</w>": 1794,
      "almaktadır.</w>": 1795,
      "alman": 1796,
      "alman</w>": 1797,
      "almanca</w>": 1798,
      "almanlar</w>": 1799,
      "almanya": 1800,
      "almanya'da</w>": 1801,
      "almanya'daki</w>": 1802,
      "almanya'nın</w>": 1803,
      "almanya'ya</w>": 1804,
      "almanya,</w>": 1805,
      "almanya</w>": 1806,
      "almanyas": 1807,
      "alması</w>": 1808,
      "almasına</w>": 1809,
      "almasını</w>": 1810,
      "almaya</w>": 1811,
      "almayı</w>": 1812,
      "almış,</w>": 1813,
      "almış</w>": 1814,
      "almıştı.</w>": 1815,
      "almıştır.</w>": 1816,
      "alo": 1817,
      "alp": 1818,
      "alp</w>": 1819,
      "alph": 1820,
      "als</w>": 1821,
      "alt": 1822,
      "alt</w>": 1823,
      "altay</w>": 1824,
      "altern": 1825,
      "alternatif</w>": 1826,
      "altyap": 1827,
      "altyapı</w>": 1828,
      "altı</w>": 1829,
      "altın": 1830,
      "altın</w>": 1831,
      "altına</w>": 1832,
      "altıncı</w>": 1833,
      "altınd": 1834,
      "altında,</w>": 1835,
      "altında</w>": 1836,
      "altındaki</w>": 1837,
      "alyp": 1838,
      "alçak</w>": 1839,
      "alümin": 1840,
      "alı,</w>": 1841,
      "alı</w>": 1842,
      "alıc": 1843,
      "alıcı</w>": 1844,
      "alıdır.</w>": 1845,
      "alık": 1846,
      "alık</w>": 1847,
      "alılar</w>": 1848,
      "alıların</w>": 1849,
      "alım</w>": 1850,
      "alın": 1851,
      "alınan</w>": 1852,
      "alınarak</w>": 1853,
      "alınd": 1854,
      "alındı.</w>": 1855,
      "alındı</w>": 1856,
      "alınması</w>": 1857,
      "alınmış</w>": 1858,
      "alınmıştır.</w>": 1859,
      "alınt": 1860,
      "alınır.</w>": 1861,
      "alıp</w>": 1862,
      "alır.</w>": 1863,
      "alır</w>": 1864,
      "alıyor.</w>": 1865,
      "alıyordu.</w>": 1866,
      "alığı</w>": 1867,
      "alış": 1868,
      "alışver": 1869,
      "alışveriş</w>": 1870,
      "am": 1871,
      "am,</w>": 1872,
      "am</w>": 1873,
      "ama,</w>": 1874,
      "ama</w>": 1875,
      "amac": 1876,
      "amacı,</w>": 1877,
      "amacı</w>": 1878,
      "amacıyla</w>": 1879,
      "amad": 1880,
      "amadı.</w>": 1881,
      "amadı</w>": 1882,
      "amadığı</w>": 1883,
      "amak</w>": 1884,
      "amam": 1885,
      "amamıştır.</w>": 1886,
      "aman</w>": 1887,
      "amar": 1888,
      "amas": 1889,
      "aması</w>": 1890,
      "amatör</w>": 1891,
      "amay": 1892,
      "amaya</w>": 1893,
      "amayacağını</w>": 1894,
      "amayan</w>": 1895,
      "amaz": 1896,
      "amaz.</w>": 1897,
      "amaz</w>": 1898,
      "amaç": 1899,
      "amaç</w>": 1900,
      "amaçla</w>": 1901,
      "amaçlayan</w>": 1902,
      "amaçlı</w>": 1903,
      "amc": 1904,
      "amcası</w>": 1905,
      "ame</w>": 1906,
      "amel": 1907,
      "ameliyat": 1908,
      "amer": 1909,
      "americ": 1910,
      "america</w>": 1911,
      "american</w>": 1912,
      "amerik": 1913,
      "amerika'da</w>": 1914,
      "amerika'nın</w>": 1915,
      "amerika</w>": 1916,
      "amerikalı</w>": 1917,
      "amerikalılar</w>": 1918,
      "amerikan</w>": 1919,
      "ami</w>": 1920,
      "amik</w>": 1921,
      "amin": 1922,
      "amin</w>": 1923,
      "amir": 1924,
      "amiral</w>": 1925,
      "amor": 1926,
      "amp": 1927,
      "ampir": 1928,
      "amster": 1929,
      "amy</w>": 1930,
      "amé": 1931,
      "amı</w>": 1932,
      "amış</w>": 1933,
      "amıştır.</w>": 1934,
      "an": 1935,
      "an\"</w>": 1936,
      "an'a</w>": 1937,
      "an'da</w>": 1938,
      "an'ı</w>": 1939,
      "an'ın</w>": 1940,
      "an)</w>": 1941,
      "an,</w>": 1942,
      "an-": 1943,
      "an.</w>": 1944,
      "an:</w>": 1945,
      "an</w>": 1946,
      "ana": 1947,
      "ana,</w>": 1948,
      "ana</w>": 1949,
      "anabil": 1950,
      "anabilim</w>": 1951,
      "anadol": 1952,
      "anadolu": 1953,
      "anadolu'da</w>": 1954,
      "anadolu'ya</w>": 1955,
      "anadolu</w>": 1956,
      "anah": 1957,
      "anahtar": 1958,
      "anahtar</w>": 1959,
      "anak": 1960,
      "anal": 1961,
      "analitik</w>": 1962,
      "analiz": 1963,
      "analiz</w>": 1964,
      "analizi</w>": 1965,
      "anan</w>": 1966,
      "anap</w>": 1967,
      "anarş": 1968,
      "anas": 1969,
      "anat": 1970,
      "anatom": 1971,
      "anav": 1972,
      "anavatan</w>": 1973,
      "anayas": 1974,
      "anayasa</w>": 1975,
      "anayasal</w>": 1976,
      "anbul": 1977,
      "anc": 1978,
      "anca</w>": 1979,
      "ancak,</w>": 1980,
      "ancak</w>": 1981,
      "ance</w>": 1982,
      "ancı</w>": 1983,
      "and": 1984,
      "and,</w>": 1985,
      "and</w>": 1986,
      "anda,</w>": 1987,
      "anda</w>": 1988,
      "andaki</w>": 1989,
      "andal": 1990,
      "andan</w>": 1991,
      "andar": 1992,
      "ander": 1993,
      "anderson</w>": 1994,
      "ando</w>": 1995,
      "andr": 1996,
      "andre": 1997,
      "andrea</w>": 1998,
      "andrew</w>": 1999,
      "andro": 2000,
      "android</w>": 2001,
      "andré</w>": 2002,
      "andy</w>": 2003,
      "andı.</w>": 2004,
      "andı</w>": 2005,
      "andır": 2006,
      "andır.</w>": 2007,
      "andır</w>": 2008,
      "andığı</w>": 2009,
      "andığını</w>": 2010,
      "ane</w>": 2011,
      "anet</w>": 2012,
      "ang": 2013,
      "ang</w>": 2014,
      "angel": 2015,
      "angel</w>": 2016,
      "angeles": 2017,
      "angeles'ta</w>": 2018,
      "angeles</w>": 2019,
      "ani,</w>": 2020,
      "ani</w>": 2021,
      "ania</w>": 2022,
      "aniden</w>": 2023,
      "anik": 2024,
      "anik</w>": 2025,
      "anim": 2026,
      "animasyon</w>": 2027,
      "anime</w>": 2028,
      "ankar": 2029,
      "ankara'da</w>": 2030,
      "ankara,</w>": 2031,
      "ankara</w>": 2032,
      "ankarag": 2033,
      "anket": 2034,
      "anki</w>": 2035,
      "anlam": 2036,
      "anlam</w>": 2037,
      "anlama</w>": 2038,
      "anlamda</w>": 2039,
      "anlamlı</w>": 2040,
      "anlamı</w>": 2041,
      "anlamına</w>": 2042,
      "anlamında</w>": 2043,
      "anlamıyla</w>": 2044,
      "anlar,</w>": 2045,
      "anlar</w>": 2046,
      "anlara</w>": 2047,
      "anlardan</w>": 2048,
      "anları</w>": 2049,
      "anların</w>": 2050,
      "anlat": 2051,
      "anlatan</w>": 2052,
      "anlatır.</w>": 2053,
      "anlay": 2054,
      "anlayış": 2055,
      "anlaş": 2056,
      "anlaşma</w>": 2057,
      "anlaşması</w>": 2058,
      "anlaşmaya</w>": 2059,
      "anlaşmaz": 2060,
      "anlaştı.</w>": 2061,
      "anlaşıl": 2062,
      "anlaşılmaktadır.</w>": 2063,
      "anlı</w>": 2064,
      "anlık</w>": 2065,
      "anma</w>": 2066,
      "anması</w>": 2067,
      "anmış</w>": 2068,
      "ann": 2069,
      "ann</w>": 2070,
      "anna</w>": 2071,
      "anne": 2072,
      "anne</w>": 2073,
      "annesi</w>": 2074,
      "annesinin</w>": 2075,
      "anni</w>": 2076,
      "anny</w>": 2077,
      "ano</w>": 2078,
      "anon": 2079,
      "anor": 2080,
      "ans": 2081,
      "ans,</w>": 2082,
      "ans</w>": 2083,
      "ansa</w>": 2084,
      "ansal</w>": 2085,
      "ansikl": 2086,
      "ansikloped": 2087,
      "ansiy": 2088,
      "ansı</w>": 2089,
      "ant": 2090,
      "ant,</w>": 2091,
      "ant</w>": 2092,
      "antak": 2093,
      "antal": 2094,
      "antalya</w>": 2095,
      "antar": 2096,
      "anth": 2097,
      "anthony</w>": 2098,
      "anti": 2099,
      "anti-": 2100,
      "anti</w>": 2101,
      "antik": 2102,
      "antik</w>": 2103,
      "antin": 2104,
      "antin</w>": 2105,
      "antis": 2106,
      "antlaş": 2107,
      "antlaşma</w>": 2108,
      "antlaşmas": 2109,
      "antlaşması</w>": 2110,
      "anto": 2111,
      "anton": 2112,
      "anton</w>": 2113,
      "antonio</w>": 2114,
      "antren": 2115,
      "antrenör": 2116,
      "antrop": 2117,
      "antum</w>": 2118,
      "anum</w>": 2119,
      "anus</w>": 2120,
      "anı</w>": 2121,
      "anıl": 2122,
      "anılan</w>": 2123,
      "anılır.</w>": 2124,
      "anın</w>": 2125,
      "anında</w>": 2126,
      "anısına</w>": 2127,
      "anıt": 2128,
      "anıt</w>": 2129,
      "ao</w>": 2130,
      "ap": 2131,
      "ap</w>": 2132,
      "apart": 2133,
      "apol": 2134,
      "app": 2135,
      "apple</w>": 2136,
      "aqu": 2137,
      "ar": 2138,
      "ar'ın</w>": 2139,
      "ar,</w>": 2140,
      "ar.</w>": 2141,
      "ar</w>": 2142,
      "ara": 2143,
      "ara,</w>": 2144,
      "ara</w>": 2145,
      "arab": 2146,
      "araba</w>": 2147,
      "arabistan</w>": 2148,
      "arac": 2149,
      "aracı</w>": 2150,
      "aracılığ": 2151,
      "aracılığıyla</w>": 2152,
      "aracın</w>": 2153,
      "arada</w>": 2154,
      "aradan</w>": 2155,
      "arak": 2156,
      "arak,</w>": 2157,
      "arak</w>": 2158,
      "aral": 2159,
      "aralarında</w>": 2160,
      "aralık": 2161,
      "aralık'ta</w>": 2162,
      "aralık</w>": 2163,
      "aram": 2164,
      "arama</w>": 2165,
      "aran": 2166,
      "aranan</w>": 2167,
      "aranj": 2168,
      "arap": 2169,
      "arap</w>": 2170,
      "arapç": 2171,
      "arapça</w>": 2172,
      "aras": 2173,
      "arası</w>": 2174,
      "arasına</w>": 2175,
      "arasında,</w>": 2176,
      "arasında</w>": 2177,
      "arasındadır.</w>": 2178,
      "arasındaki</w>": 2179,
      "arasından</w>": 2180,
      "aray": 2181,
      "araya</w>": 2182,
      "arayüz": 2183,
      "arayış": 2184,
      "araz": 2185,
      "arazi</w>": 2186,
      "araç": 2187,
      "araç</w>": 2188,
      "araçlar</w>": 2189,
      "araçları</w>": 2190,
      "araştır": 2191,
      "araştırma</w>": 2192,
      "araştırmac": 2193,
      "araştırmacı</w>": 2194,
      "araştırmacılar</w>": 2195,
      "araştırmalar": 2196,
      "araştırmalar</w>": 2197,
      "araştırmaları</w>": 2198,
      "arc": 2199,
      "arch": 2200,
      "ard": 2201,
      "ard,</w>": 2202,
      "ard</w>": 2203,
      "arda</w>": 2204,
      "ardah": 2205,
      "ardahan</w>": 2206,
      "ardo</w>": 2207,
      "ards</w>": 2208,
      "ardı</w>": 2209,
      "ardından,</w>": 2210,
      "ardından</w>": 2211,
      "ardır.</w>": 2212,
      "are</w>": 2213,
      "aren": 2214,
      "aret": 2215,
      "aret</w>": 2216,
      "areti</w>": 2217,
      "arg": 2218,
      "argüm": 2219,
      "ari": 2220,
      "ari</w>": 2221,
      "aria</w>": 2222,
      "arif</w>": 2223,
      "arist": 2224,
      "aristokr": 2225,
      "aristotel": 2226,
      "arit": 2227,
      "arius</w>": 2228,
      "ariz": 2229,
      "arj": 2230,
      "arjantin": 2231,
      "arjantin</w>": 2232,
      "arjantinli</w>": 2233,
      "ark": 2234,
      "ark</w>": 2235,
      "arka</w>": 2236,
      "arkad": 2237,
      "arkadaş": 2238,
      "arkadaş</w>": 2239,
      "arkadaşları</w>": 2240,
      "arkadaşı</w>": 2241,
      "arkasında</w>": 2242,
      "arke": 2243,
      "arken,</w>": 2244,
      "arken</w>": 2245,
      "arkeoloji</w>": 2246,
      "arkeolojik</w>": 2247,
      "arlar.</w>": 2248,
      "arlar</w>": 2249,
      "arm": 2250,
      "armağ": 2251,
      "armon": 2252,
      "arn": 2253,
      "arnav": 2254,
      "arnavut": 2255,
      "arnavut</w>": 2256,
      "arnavutluk": 2257,
      "arnavutluk</w>": 2258,
      "arom": 2259,
      "arp": 2260,
      "arr": 2261,
      "ars": 2262,
      "arsen": 2263,
      "arslan</w>": 2264,
      "art": 2265,
      "art,</w>": 2266,
      "art</w>": 2267,
      "artan</w>": 2268,
      "artar": 2269,
      "arter": 2270,
      "artesi</w>": 2271,
      "arth": 2272,
      "arthur</w>": 2273,
      "artması</w>": 2274,
      "arts</w>": 2275,
      "arttı.</w>": 2276,
      "arttır": 2277,
      "artvin</w>": 2278,
      "artık</w>": 2279,
      "artır": 2280,
      "artırmak</w>": 2281,
      "artış": 2282,
      "artış</w>": 2283,
      "ary</w>": 2284,
      "arya</w>": 2285,
      "arz": 2286,
      "arzu</w>": 2287,
      "arı</w>": 2288,
      "arş": 2289,
      "arşiv": 2290,
      "as": 2291,
      "as'ın</w>": 2292,
      "as,</w>": 2293,
      "as</w>": 2294,
      "asa</w>": 2295,
      "asal</w>": 2296,
      "asco": 2297,
      "ase</w>": 2298,
      "aset": 2299,
      "ash": 2300,
      "ashi</w>": 2301,
      "asi</w>": 2302,
      "asim": 2303,
      "asist": 2304,
      "asist</w>": 2305,
      "asit": 2306,
      "asit</w>": 2307,
      "ask": 2308,
      "asker": 2309,
      "asker</w>": 2310,
      "askere</w>": 2311,
      "askeri</w>": 2312,
      "askerler</w>": 2313,
      "askerleri</w>": 2314,
      "askerlerin</w>": 2315,
      "askerlerinin</w>": 2316,
      "askerlik</w>": 2317,
      "askerî</w>": 2318,
      "asl": 2319,
      "asla</w>": 2320,
      "aslan": 2321,
      "aslan</w>": 2322,
      "aslen</w>": 2323,
      "aslı</w>": 2324,
      "aslında</w>": 2325,
      "aspor": 2326,
      "aspor</w>": 2327,
      "ass": 2328,
      "associ": 2329,
      "association</w>": 2330,
      "ast": 2331,
      "ast</w>": 2332,
      "aster": 2333,
      "aster</w>": 2334,
      "astik</w>": 2335,
      "aston</w>": 2336,
      "astr": 2337,
      "astro": 2338,
      "astronom": 2339,
      "astronomi</w>": 2340,
      "asur": 2341,
      "asya'da</w>": 2342,
      "asya</w>": 2343,
      "asyon": 2344,
      "asyon,</w>": 2345,
      "asyon</w>": 2346,
      "asyona</w>": 2347,
      "asyonal</w>": 2348,
      "asyonlar</w>": 2349,
      "asyonları</w>": 2350,
      "asyonu</w>": 2351,
      "asyonun</w>": 2352,
      "asyonunu</w>": 2353,
      "ası": 2354,
      "ası\"</w>": 2355,
      "ası'nda</w>": 2356,
      "ası'nın</w>": 2357,
      "ası)</w>": 2358,
      "ası,</w>": 2359,
      "ası.</w>": 2360,
      "ası</w>": 2361,
      "asıdır.</w>": 2362,
      "asıl": 2363,
      "asıl</w>": 2364,
      "asıllı</w>": 2365,
      "asına</w>": 2366,
      "asında,</w>": 2367,
      "asında</w>": 2368,
      "asındaki</w>": 2369,
      "asından</w>": 2370,
      "asını</w>": 2371,
      "asının</w>": 2372,
      "asıydı.</w>": 2373,
      "asıyla</w>": 2374,
      "asız</w>": 2375,
      "at": 2376,
      "at'ın</w>": 2377,
      "at,</w>": 2378,
      "at</w>": 2379,
      "ata": 2380,
      "ata</w>": 2381,
      "atab": 2382,
      "atak": 2383,
      "atam": 2384,
      "atan": 2385,
      "atan</w>": 2386,
      "atanan</w>": 2387,
      "atandı.</w>": 2388,
      "atanmıştır.</w>": 2389,
      "atarak</w>": 2390,
      "atas": 2391,
      "atası</w>": 2392,
      "atatür": 2393,
      "atatürk": 2394,
      "atatürk'ün</w>": 2395,
      "atatürk</w>": 2396,
      "ate": 2397,
      "ate</w>": 2398,
      "ated</w>": 2399,
      "ater": 2400,
      "ates</w>": 2401,
      "ateş": 2402,
      "ateş</w>": 2403,
      "ateşi</w>": 2404,
      "ateşkes</w>": 2405,
      "ateşli</w>": 2406,
      "atf": 2407,
      "ath": 2408,
      "ath</w>": 2409,
      "athan</w>": 2410,
      "athen": 2411,
      "ati": 2412,
      "ati</w>": 2413,
      "atif": 2414,
      "atif</w>": 2415,
      "atik</w>": 2416,
      "atin": 2417,
      "atina</w>": 2418,
      "ation": 2419,
      "ation,</w>": 2420,
      "ation</w>": 2421,
      "ational</w>": 2422,
      "ations</w>": 2423,
      "atist": 2424,
      "atistik</w>": 2425,
      "ative</w>": 2426,
      "atlan": 2427,
      "atlant": 2428,
      "atlantik</w>": 2429,
      "atlar</w>": 2430,
      "atları</w>": 2431,
      "atların</w>": 2432,
      "atlas</w>": 2433,
      "atlet": 2434,
      "atletizm</w>": 2435,
      "atlı</w>": 2436,
      "atma</w>": 2437,
      "atmos": 2438,
      "atmosfer": 2439,
      "atmıştır.</w>": 2440,
      "ato</w>": 2441,
      "atom": 2442,
      "atom</w>": 2443,
      "ator": 2444,
      "ator</w>": 2445,
      "att": 2446,
      "attin</w>": 2447,
      "attı.</w>": 2448,
      "attı</w>": 2449,
      "attığı</w>": 2450,
      "atus</w>": 2451,
      "atöly": 2452,
      "atör": 2453,
      "atör</w>": 2454,
      "atörü</w>": 2455,
      "atür": 2456,
      "atı</w>": 2457,
      "atıf": 2458,
      "atıfta</w>": 2459,
      "atık</w>": 2460,
      "atıl": 2461,
      "atılan</w>": 2462,
      "atıldı.</w>": 2463,
      "atın</w>": 2464,
      "atını</w>": 2465,
      "atının</w>": 2466,
      "atış": 2467,
      "atış</w>": 2468,
      "au": 2469,
      "au</w>": 2470,
      "aug": 2471,
      "august": 2472,
      "august</w>": 2473,
      "aul": 2474,
      "aur": 2475,
      "aus": 2476,
      "aus</w>": 2477,
      "aust": 2478,
      "austral": 2479,
      "aut": 2480,
      "aux</w>": 2481,
      "av": 2482,
      "av</w>": 2483,
      "ava</w>": 2484,
      "avant": 2485,
      "avantaj": 2486,
      "avc": 2487,
      "avcı</w>": 2488,
      "ave</w>": 2489,
      "aven": 2490,
      "aver": 2491,
      "avi</w>": 2492,
      "avir": 2493,
      "avr": 2494,
      "avrup": 2495,
      "avrupa'da</w>": 2496,
      "avrupa'daki</w>": 2497,
      "avrupa'nın</w>": 2498,
      "avrupa'ya</w>": 2499,
      "avrupa</w>": 2500,
      "avrupalı</w>": 2501,
      "avu": 2502,
      "avuk": 2503,
      "avukat": 2504,
      "avukat</w>": 2505,
      "avust": 2506,
      "avustral": 2507,
      "avustralya'da</w>": 2508,
      "avustralya</w>": 2509,
      "avustralyalı</w>": 2510,
      "avustur": 2511,
      "avusturya-": 2512,
      "avusturya</w>": 2513,
      "avusturyalı</w>": 2514,
      "avş": 2515,
      "aw": 2516,
      "aw</w>": 2517,
      "awa,</w>": 2518,
      "awa</w>": 2519,
      "award</w>": 2520,
      "ax": 2521,
      "ax</w>": 2522,
      "ay": 2523,
      "ay'ın</w>": 2524,
      "ay,</w>": 2525,
      "ay-": 2526,
      "ay</w>": 2527,
      "aya,</w>": 2528,
      "aya</w>": 2529,
      "ayak": 2530,
      "ayak</w>": 2531,
      "ayakkab": 2532,
      "ayaklan": 2533,
      "ayaklanma</w>": 2534,
      "ayakta</w>": 2535,
      "ayan</w>": 2536,
      "ayar": 2537,
      "ayarak</w>": 2538,
      "ayas": 2539,
      "ayd": 2540,
      "ayda</w>": 2541,
      "aydı.</w>": 2542,
      "aydı</w>": 2543,
      "aydın": 2544,
      "aydın</w>": 2545,
      "aydınlat": 2546,
      "ayet": 2547,
      "ayet</w>": 2548,
      "ayeti</w>": 2549,
      "ayg": 2550,
      "aygıt": 2551,
      "ayhan</w>": 2552,
      "aykırı</w>": 2553,
      "ayla</w>": 2554,
      "aylarında</w>": 2555,
      "aylık</w>": 2556,
      "ayn": 2557,
      "ayn</w>": 2558,
      "ayne</w>": 2559,
      "aynı</w>": 2560,
      "ayr": 2561,
      "ayrı</w>": 2562,
      "ayrıc": 2563,
      "ayrıca,</w>": 2564,
      "ayrıca</w>": 2565,
      "ayrıl": 2566,
      "ayrılan</w>": 2567,
      "ayrılarak</w>": 2568,
      "ayrıldı.</w>": 2569,
      "ayrıldı</w>": 2570,
      "ayrıldıktan</w>": 2571,
      "ayrılmış</w>": 2572,
      "ayrılmıştır.</w>": 2573,
      "ayrılıp</w>": 2574,
      "ayrılır.</w>": 2575,
      "ayrım</w>": 2576,
      "ayrımc": 2577,
      "ayrınt": 2578,
      "ayrıntılı</w>": 2579,
      "ayı</w>": 2580,
      "ayın</w>": 2581,
      "ayında,</w>": 2582,
      "ayında</w>": 2583,
      "ayının</w>": 2584,
      "ayıp</w>": 2585,
      "ayır": 2586,
      "ayıran</w>": 2587,
      "ayırt</w>": 2588,
      "ayş": 2589,
      "ayşe</w>": 2590,
      "az": 2591,
      "az,</w>": 2592,
      "az</w>": 2593,
      "aza</w>": 2594,
      "azal": 2595,
      "azalt": 2596,
      "azaltmak</w>": 2597,
      "azer": 2598,
      "azerbay": 2599,
      "azerbaycan": 2600,
      "azerbaycan'ın</w>": 2601,
      "azerbaycan</w>": 2602,
      "azeri</w>": 2603,
      "azi</w>": 2604,
      "aziz": 2605,
      "aziz</w>": 2606,
      "azz": 2607,
      "azı</w>": 2608,
      "azın": 2609,
      "azından</w>": 2610,
      "azınlık</w>": 2611,
      "aç": 2612,
      "aç</w>": 2613,
      "açan</w>": 2614,
      "açar.</w>": 2615,
      "açlık</w>": 2616,
      "açmıştır.</w>": 2617,
      "açtı.</w>": 2618,
      "açtığı</w>": 2619,
      "açıdan</w>": 2620,
      "açık": 2621,
      "açık</w>": 2622,
      "açıkladı.</w>": 2623,
      "açıklam": 2624,
      "açıklama</w>": 2625,
      "açıklamada</w>": 2626,
      "açıklaması</w>": 2627,
      "açıklamıştır.</w>": 2628,
      "açıklan": 2629,
      "açıklandı.</w>": 2630,
      "açıklanmıştır.</w>": 2631,
      "açıklar.</w>": 2632,
      "açıkça</w>": 2633,
      "açıl": 2634,
      "açılan</w>": 2635,
      "açıldı.</w>": 2636,
      "açılmıştır.</w>": 2637,
      "açılış</w>": 2638,
      "açısal</w>": 2639,
      "açısı</w>": 2640,
      "açısından</w>": 2641,
      "açığa</w>": 2642,
      "aüstü</w>": 2643,
      "ağ": 2644,
      "ağ</w>": 2645,
      "ağa</w>": 2646,
      "ağab": 2647,
      "ağabeyi</w>": 2648,
      "ağac": 2649,
      "ağacı</w>": 2650,
      "ağaç": 2651,
      "ağaç</w>": 2652,
      "ağr": 2653,
      "ağrı</w>": 2654,
      "ağust": 2655,
      "ağustos": 2656,
      "ağustos'ta</w>": 2657,
      "ağustos</w>": 2658,
      "ağz": 2659,
      "ağı,</w>": 2660,
      "ağı</w>": 2661,
      "ağın</w>": 2662,
      "ağına</w>": 2663,
      "ağında</w>": 2664,
      "ağını</w>": 2665,
      "ağının</w>": 2666,
      "ağır": 2667,
      "ağır</w>": 2668,
      "ağırlık</w>": 2669,
      "ağırlıklı</w>": 2670,
      "ağırlığı</w>": 2671,
      "ağız": 2672,
      "ağız</w>": 2673,
      "aş": 2674,
      "aş,</w>": 2675,
      "aş</w>": 2676,
      "aşa</w>": 2677,
      "aşam": 2678,
      "aşamada</w>": 2679,
      "aşaması</w>": 2680,
      "aşamasında</w>": 2681,
      "aşan</w>": 2682,
      "aşağ": 2683,
      "aşağı</w>": 2684,
      "aşağıda</w>": 2685,
      "aşağıdaki</w>": 2686,
      "aşir": 2687,
      "aşk": 2688,
      "aşk</w>": 2689,
      "aşkın</w>": 2690,
      "aştır": 2691,
      "aşı</w>": 2692,
      "aşık": 2693,
      "aşık</w>": 2694,
      "aşıl": 2695,
      "aşır": 2696,
      "aşırı</w>": 2697,
      "a’": 2698,
      "a’da</w>": 2699,
      "a’daki</w>": 2700,
      "a’nın</w>": 2701,
      "a’ya</w>": 2702,
      "a’yı</w>": 2703,
      "a”</w>": 2704,
      "b": 2705,
      "b\"</w>": 2706,
      "b)</w>": 2707,
      "b,</w>": 2708,
      "b-": 2709,
      "b.": 2710,
      "b.</w>": 2711,
      "b</w>": 2712,
      "ba": 2713,
      "ba</w>": 2714,
      "bab": 2715,
      "baba</w>": 2716,
      "babası,</w>": 2717,
      "babası</w>": 2718,
      "babasıdır.</w>": 2719,
      "babasını</w>": 2720,
      "babasının</w>": 2721,
      "babil": 2722,
      "babil</w>": 2723,
      "bac": 2724,
      "bacak": 2725,
      "bach": 2726,
      "bach</w>": 2727,
      "back": 2728,
      "back</w>": 2729,
      "bad": 2730,
      "bad</w>": 2731,
      "baf": 2732,
      "bafta</w>": 2733,
      "bag": 2734,
      "bah": 2735,
      "bahar": 2736,
      "bahar</w>": 2737,
      "baharında</w>": 2738,
      "bahs": 2739,
      "bahç": 2740,
      "bahçe</w>": 2741,
      "bak": 2742,
      "bakan": 2743,
      "bakan</w>": 2744,
      "bakanlar</w>": 2745,
      "bakanları</w>": 2746,
      "bakanlığ": 2747,
      "bakanlığı,</w>": 2748,
      "bakanlığı</w>": 2749,
      "bakanı</w>": 2750,
      "bakter": 2751,
      "bakü": 2752,
      "bakü</w>": 2753,
      "bakım": 2754,
      "bakım</w>": 2755,
      "bakımından</w>": 2756,
      "bakın": 2757,
      "bakınız</w>": 2758,
      "bakır": 2759,
      "bakır</w>": 2760,
      "bakış</w>": 2761,
      "bal": 2762,
      "bal</w>": 2763,
      "bale</w>": 2764,
      "balin": 2765,
      "balkan": 2766,
      "balkan</w>": 2767,
      "ball</w>": 2768,
      "balt": 2769,
      "baltık</w>": 2770,
      "balık": 2771,
      "balık</w>": 2772,
      "balıkesir": 2773,
      "balıkesir</w>": 2774,
      "balığı</w>": 2775,
      "bam": 2776,
      "ban": 2777,
      "ban</w>": 2778,
      "bana</w>": 2779,
      "band": 2780,
      "band</w>": 2781,
      "bang": 2782,
      "bank": 2783,
      "bank</w>": 2784,
      "banka</w>": 2785,
      "bankas": 2786,
      "bankası</w>": 2787,
      "bant": 2788,
      "bant</w>": 2789,
      "bap": 2790,
      "bar": 2791,
      "bar</w>": 2792,
      "baraj": 2793,
      "baraj</w>": 2794,
      "barat</w>": 2795,
      "barbar": 2796,
      "barbara</w>": 2797,
      "barcel": 2798,
      "barcelona</w>": 2799,
      "bard": 2800,
      "bart": 2801,
      "barın": 2802,
      "barındır": 2803,
      "barındıran</w>": 2804,
      "barış": 2805,
      "barış</w>": 2806,
      "bas": 2807,
      "bas</w>": 2808,
      "basam": 2809,
      "basit": 2810,
      "basit</w>": 2811,
      "bask": 2812,
      "basket": 2813,
      "basketbol": 2814,
      "basketbol</w>": 2815,
      "basketbolcular</w>": 2816,
      "basketbolcuları</w>": 2817,
      "baskı</w>": 2818,
      "baskın": 2819,
      "baskın</w>": 2820,
      "baskısı</w>": 2821,
      "bastır": 2822,
      "basılan</w>": 2823,
      "basın": 2824,
      "basın</w>": 2825,
      "basınç": 2826,
      "basınç</w>": 2827,
      "bat": 2828,
      "bat</w>": 2829,
      "bater": 2830,
      "batman</w>": 2831,
      "batt": 2832,
      "battle</w>": 2833,
      "batı": 2834,
      "batı</w>": 2835,
      "batıda</w>": 2836,
      "batılı</w>": 2837,
      "batır": 2838,
      "batısında</w>": 2839,
      "batıya</w>": 2840,
      "bau": 2841,
      "bav": 2842,
      "bavyer": 2843,
      "bay": 2844,
      "bay</w>": 2845,
      "bayan</w>": 2846,
      "bayern</w>": 2847,
      "bayez": 2848,
      "bayr": 2849,
      "bayrak</w>": 2850,
      "bayram": 2851,
      "bayram</w>": 2852,
      "bayrağı</w>": 2853,
      "baz": 2854,
      "baz</w>": 2855,
      "bazen</w>": 2856,
      "bazlı</w>": 2857,
      "bazı</w>": 2858,
      "bazıları</w>": 2859,
      "bağ": 2860,
      "bağ</w>": 2861,
      "bağd": 2862,
      "bağdat": 2863,
      "bağdat</w>": 2864,
      "bağl": 2865,
      "bağlam": 2866,
      "bağlan": 2867,
      "bağlant": 2868,
      "bağlantı</w>": 2869,
      "bağlantılar</w>": 2870,
      "bağlantılı</w>": 2871,
      "bağlantısı</w>": 2872,
      "bağlayan</w>": 2873,
      "bağlı</w>": 2874,
      "bağlıdır.</w>": 2875,
      "bağlıydı.</w>": 2876,
      "bağı</w>": 2877,
      "bağım": 2878,
      "bağıml": 2879,
      "bağımlı</w>": 2880,
      "bağımsız": 2881,
      "bağımsız</w>": 2882,
      "bağımsızlık</w>": 2883,
      "bağımsızlığını</w>": 2884,
      "bağır": 2885,
      "bağış": 2886,
      "bağışıklık</w>": 2887,
      "baş": 2888,
      "baş</w>": 2889,
      "başa</w>": 2890,
      "başar": 2891,
      "başaran</w>": 2892,
      "başard": 2893,
      "başardı.</w>": 2894,
      "başarmıştır.</w>": 2895,
      "başarı</w>": 2896,
      "başarılar</w>": 2897,
      "başarıları</w>": 2898,
      "başarılı</w>": 2899,
      "başarıs": 2900,
      "başarısı</w>": 2901,
      "başarısını</w>": 2902,
      "başarısız": 2903,
      "başarısız</w>": 2904,
      "başarıyla</w>": 2905,
      "başbakan": 2906,
      "başbakan</w>": 2907,
      "başbakanlık</w>": 2908,
      "başbakanı</w>": 2909,
      "başk": 2910,
      "başka</w>": 2911,
      "başkan": 2912,
      "başkan:</w>": 2913,
      "başkan</w>": 2914,
      "başkanları</w>": 2915,
      "başkanlık</w>": 2916,
      "başkanlığ": 2917,
      "başkanlığı</w>": 2918,
      "başkanlığına</w>": 2919,
      "başkanlığında</w>": 2920,
      "başkanlığını</w>": 2921,
      "başkanı,</w>": 2922,
      "başkanı</w>": 2923,
      "başkent": 2924,
      "başkent</w>": 2925,
      "başkenti</w>": 2926,
      "başlad": 2927,
      "başladı,</w>": 2928,
      "başladı.</w>": 2929,
      "başladı</w>": 2930,
      "başladılar.</w>": 2931,
      "başladığı</w>": 2932,
      "başlam": 2933,
      "başlamadan</w>": 2934,
      "başlaması</w>": 2935,
      "başlamış</w>": 2936,
      "başlamıştı.</w>": 2937,
      "başlamıştır.</w>": 2938,
      "başlan": 2939,
      "başlandı.</w>": 2940,
      "başlang": 2941,
      "başlangıc": 2942,
      "başlangıcı</w>": 2943,
      "başlangıç": 2944,
      "başlangıç</w>": 2945,
      "başlangıçta</w>": 2946,
      "başlanmıştır.</w>": 2947,
      "başlar.</w>": 2948,
      "başlar</w>": 2949,
      "başlarına</w>": 2950,
      "başlarında</w>": 2951,
      "başlat": 2952,
      "başlattı.</w>": 2953,
      "başlatılan</w>": 2954,
      "başlay": 2955,
      "başlayan</w>": 2956,
      "başlayarak</w>": 2957,
      "başlayıp</w>": 2958,
      "başlı</w>": 2959,
      "başlıca</w>": 2960,
      "başlık</w>": 2961,
      "başlıklı</w>": 2962,
      "başlığı</w>": 2963,
      "başrol": 2964,
      "başrol</w>": 2965,
      "başta</w>": 2966,
      "baştan</w>": 2967,
      "başvur": 2968,
      "başvuru</w>": 2969,
      "başı</w>": 2970,
      "başına</w>": 2971,
      "başında</w>": 2972,
      "başından</w>": 2973,
      "bb": 2974,
      "bbc</w>": 2975,
      "bbp</w>": 2976,
      "be": 2977,
      "be,</w>": 2978,
      "be</w>": 2979,
      "beat": 2980,
      "beau": 2981,
      "beb": 2982,
      "bebek</w>": 2983,
      "bec": 2984,
      "becer": 2985,
      "bed": 2986,
      "beden": 2987,
      "beden</w>": 2988,
      "beg": 2989,
      "begonia</w>": 2990,
      "beh": 2991,
      "bek": 2992,
      "bek</w>": 2993,
      "bekir</w>": 2994,
      "beklem": 2995,
      "beklen": 2996,
      "beklenen</w>": 2997,
      "beklent": 2998,
      "bel": 2999,
      "bel</w>": 3000,
      "belar": 3001,
      "belarus</w>": 3002,
      "beld": 3003,
      "belde</w>": 3004,
      "beldeler</w>": 3005,
      "beled": 3006,
      "belediy": 3007,
      "belediye</w>": 3008,
      "belediyes": 3009,
      "belediyesi</w>": 3010,
      "belediyespor</w>": 3011,
      "beler": 3012,
      "belg": 3013,
      "belge</w>": 3014,
      "belgel": 3015,
      "belgeler": 3016,
      "belges": 3017,
      "belgesel</w>": 3018,
      "beli</w>": 3019,
      "belir": 3020,
      "belirgin</w>": 3021,
      "belirlem": 3022,
      "belirlemek</w>": 3023,
      "belirlen": 3024,
      "belirlendi.</w>": 3025,
      "belirlenen</w>": 3026,
      "belirlenir.</w>": 3027,
      "belirlenmiş</w>": 3028,
      "belirlenmiştir.</w>": 3029,
      "belirli</w>": 3030,
      "belirsiz": 3031,
      "belirsiz</w>": 3032,
      "belirt": 3033,
      "belirten</w>": 3034,
      "belirtilen</w>": 3035,
      "belirtilm": 3036,
      "belirtilmiştir.</w>": 3037,
      "belirtir.</w>": 3038,
      "belirtmiştir.</w>": 3039,
      "belirtti.</w>": 3040,
      "belki</w>": 3041,
      "bell": 3042,
      "bell</w>": 3043,
      "bellek</w>": 3044,
      "belli</w>": 3045,
      "belç": 3046,
      "belçik": 3047,
      "belçika</w>": 3048,
      "belçikalı</w>": 3049,
      "ben": 3050,
      "ben</w>": 3051,
      "beni</w>": 3052,
      "benim": 3053,
      "benim</w>": 3054,
      "benimsem": 3055,
      "benimsen": 3056,
      "benin</w>": 3057,
      "benjam": 3058,
      "benjamin</w>": 3059,
      "benz": 3060,
      "benzer": 3061,
      "benzer</w>": 3062,
      "benzeri</w>": 3063,
      "benzersiz</w>": 3064,
      "benzeyen</w>": 3065,
      "ber": 3066,
      "ber</w>": 3067,
      "berab": 3068,
      "beraber": 3069,
      "beraber,</w>": 3070,
      "beraber</w>": 3071,
      "berabere</w>": 3072,
      "beraberlik</w>": 3073,
      "berg": 3074,
      "berg,</w>": 3075,
      "berg</w>": 3076,
      "beri</w>": 3077,
      "berk": 3078,
      "berlin": 3079,
      "berlin'de</w>": 3080,
      "berlin</w>": 3081,
      "bern": 3082,
      "bernard</w>": 3083,
      "bert</w>": 3084,
      "bes": 3085,
      "besi</w>": 3086,
      "besin</w>": 3087,
      "beslen": 3088,
      "beslenme</w>": 3089,
      "best": 3090,
      "best</w>": 3091,
      "bestec": 3092,
      "besteci</w>": 3093,
      "bestecileri</w>": 3094,
      "bestel": 3095,
      "bet": 3096,
      "bet</w>": 3097,
      "beta</w>": 3098,
      "betim": 3099,
      "bett": 3100,
      "bey": 3101,
      "bey'in</w>": 3102,
      "bey,</w>": 3103,
      "bey</w>": 3104,
      "beyaz": 3105,
      "beyaz</w>": 3106,
      "beyi</w>": 3107,
      "beyin</w>": 3108,
      "beyler": 3109,
      "bez": 3110,
      "beğ": 3111,
      "beğen": 3112,
      "beş": 3113,
      "beş</w>": 3114,
      "beşik": 3115,
      "beşiktaş": 3116,
      "beşiktaş</w>": 3117,
      "beşinci</w>": 3118,
      "bgcolor</w>": 3119,
      "bi": 3120,
      "bi</w>": 3121,
      "bib": 3122,
      "bibliy": 3123,
      "bibliyograf": 3124,
      "big": 3125,
      "big</w>": 3126,
      "bik": 3127,
      "bik</w>": 3128,
      "bil": 3129,
      "bil</w>": 3130,
      "bildir": 3131,
      "bildirdi.</w>": 3132,
      "bildirildi.</w>": 3133,
      "bildirm": 3134,
      "bile,</w>": 3135,
      "bile</w>": 3136,
      "bilen</w>": 3137,
      "bileş": 3138,
      "bileşen": 3139,
      "bilg": 3140,
      "bilge</w>": 3141,
      "bilgi</w>": 3142,
      "bilgil": 3143,
      "bilgiler</w>": 3144,
      "bilgileri</w>": 3145,
      "bilgin": 3146,
      "bilginin</w>": 3147,
      "bilgis": 3148,
      "bilgisay": 3149,
      "bilgisayar": 3150,
      "bilgisayar</w>": 3151,
      "bilgisi</w>": 3152,
      "bilgiye</w>": 3153,
      "bilim": 3154,
      "bilim</w>": 3155,
      "bilimci</w>": 3156,
      "bilimi</w>": 3157,
      "bilimkurgu</w>": 3158,
      "bilimler</w>": 3159,
      "bilimleri</w>": 3160,
      "bilimsel</w>": 3161,
      "bilin": 3162,
      "bilinen</w>": 3163,
      "bilinir.</w>": 3164,
      "bilinm": 3165,
      "bilinmektedir.</w>": 3166,
      "bilinmemektedir.</w>": 3167,
      "bilinmeyen</w>": 3168,
      "bilinmiyor</w>": 3169,
      "bilinç": 3170,
      "biliş": 3171,
      "bilişim</w>": 3172,
      "bilişsel</w>": 3173,
      "bill": 3174,
      "bill</w>": 3175,
      "billboard</w>": 3176,
      "billy</w>": 3177,
      "bilm": 3178,
      "bilmektedir.</w>": 3179,
      "bin": 3180,
      "bin</w>": 3181,
      "bina</w>": 3182,
      "binanın</w>": 3183,
      "binası</w>": 3184,
      "bine</w>": 3185,
      "bing": 3186,
      "binlerce</w>": 3187,
      "bir": 3188,
      "bir</w>": 3189,
      "bira</w>": 3190,
      "biraz</w>": 3191,
      "birbir": 3192,
      "birbirinden</w>": 3193,
      "birbirine</w>": 3194,
      "birbiriyle</w>": 3195,
      "birbirlerine</w>": 3196,
      "birbirleriyle</w>": 3197,
      "birden</w>": 3198,
      "birer</w>": 3199,
      "birey": 3200,
      "bireyin</w>": 3201,
      "bireyler</w>": 3202,
      "bireylerin</w>": 3203,
      "bireysel</w>": 3204,
      "biri,</w>": 3205,
      "biri</w>": 3206,
      "biridir.</w>": 3207,
      "birik": 3208,
      "birim": 3209,
      "birim</w>": 3210,
      "birimi</w>": 3211,
      "birimler</w>": 3212,
      "birimleri</w>": 3213,
      "birinc": 3214,
      "birinci</w>": 3215,
      "birincil</w>": 3216,
      "birincisi</w>": 3217,
      "birinde</w>": 3218,
      "birine</w>": 3219,
      "birini</w>": 3220,
      "birinin</w>": 3221,
      "birisi</w>": 3222,
      "birisidir.</w>": 3223,
      "biriydi.</w>": 3224,
      "birkaç</w>": 3225,
      "birleş": 3226,
      "birleşik</w>": 3227,
      "birleşme</w>": 3228,
      "birleşmiş</w>": 3229,
      "birleştir": 3230,
      "birleştirm": 3231,
      "birlik": 3232,
      "birlik</w>": 3233,
      "birlikler</w>": 3234,
      "birlikleri</w>": 3235,
      "birliklerinin</w>": 3236,
      "birlikte": 3237,
      "birlikte)</w>": 3238,
      "birlikte,</w>": 3239,
      "birlikte</w>": 3240,
      "birliğ": 3241,
      "birliği'nde</w>": 3242,
      "birliği'ne</w>": 3243,
      "birliği'nin</w>": 3244,
      "birliği,</w>": 3245,
      "birliği</w>": 3246,
      "birtakım</w>": 3247,
      "birçok</w>": 3248,
      "birçoğu</w>": 3249,
      "bis": 3250,
      "bisik": 3251,
      "bisiklet": 3252,
      "bisiklet</w>": 3253,
      "bit": 3254,
      "bit</w>": 3255,
      "biten</w>": 3256,
      "bitir": 3257,
      "bitirdi.</w>": 3258,
      "bitiren</w>": 3259,
      "bitirm": 3260,
      "bitiş": 3261,
      "bitk": 3262,
      "bitki</w>": 3263,
      "bitkiler</w>": 3264,
      "biy": 3265,
      "biyo": 3266,
      "biyograf": 3267,
      "biyografi</w>": 3268,
      "biyografik</w>": 3269,
      "biyografisi</w>": 3270,
      "biyoloji</w>": 3271,
      "biyolojik</w>": 3272,
      "biz": 3273,
      "biz</w>": 3274,
      "bizans": 3275,
      "bizans</w>": 3276,
      "bizanslılar</w>": 3277,
      "bize</w>": 3278,
      "bizim</w>": 3279,
      "bizzat</w>": 3280,
      "biç": 3281,
      "biçim": 3282,
      "biçimde</w>": 3283,
      "biçimi</w>": 3284,
      "biçiminde</w>": 3285,
      "bj": 3286,
      "bl": 3287,
      "bla": 3288,
      "black": 3289,
      "black</w>": 3290,
      "blan": 3291,
      "ble": 3292,
      "ble</w>": 3293,
      "bled": 3294,
      "blem": 3295,
      "blin": 3296,
      "blo": 3297,
      "blok": 3298,
      "blok</w>": 3299,
      "blu": 3300,
      "blue</w>": 3301,
      "blues</w>": 3302,
      "bm": 3303,
      "bm</w>": 3304,
      "bn": 3305,
      "bn</w>": 3306,
      "bo": 3307,
      "bo</w>": 3308,
      "board</w>": 3309,
      "bob</w>": 3310,
      "bobb": 3311,
      "bod": 3312,
      "boe": 3313,
      "boeing</w>": 3314,
      "bok": 3315,
      "boks": 3316,
      "boks</w>": 3317,
      "bol": 3318,
      "bol</w>": 3319,
      "boliv": 3320,
      "bolu</w>": 3321,
      "bolşev": 3322,
      "bom": 3323,
      "bomb": 3324,
      "bomba</w>": 3325,
      "bombal": 3326,
      "bombard": 3327,
      "bombardıman</w>": 3328,
      "bon": 3329,
      "bon</w>": 3330,
      "book": 3331,
      "book</w>": 3332,
      "bor": 3333,
      "boris</w>": 3334,
      "born</w>": 3335,
      "boro": 3336,
      "bors": 3337,
      "boru</w>": 3338,
      "borus": 3339,
      "borç": 3340,
      "bos": 3341,
      "bosn": 3342,
      "bosna-her": 3343,
      "bosna</w>": 3344,
      "bost": 3345,
      "boston</w>": 3346,
      "bot": 3347,
      "bot</w>": 3348,
      "botan": 3349,
      "boul": 3350,
      "bour": 3351,
      "bow": 3352,
      "box</w>": 3353,
      "boy": 3354,
      "boy</w>": 3355,
      "boya</w>": 3356,
      "boyn": 3357,
      "boys</w>": 3358,
      "boyu</w>": 3359,
      "boyun": 3360,
      "boyun</w>": 3361,
      "boyunca,</w>": 3362,
      "boyunca</w>": 3363,
      "boyut": 3364,
      "boyut</w>": 3365,
      "boyutlu</w>": 3366,
      "boyutu</w>": 3367,
      "boz": 3368,
      "bozuk": 3369,
      "bozukluk": 3370,
      "bozukluğu</w>": 3371,
      "bozul": 3372,
      "boğ": 3373,
      "boğaz": 3374,
      "boğaziçi</w>": 3375,
      "boş": 3376,
      "boş</w>": 3377,
      "boşalt": 3378,
      "br": 3379,
      "bra": 3380,
      "bra</w>": 3381,
      "brad": 3382,
      "bran": 3383,
      "brand": 3384,
      "bre": 3385,
      "break": 3386,
      "brec": 3387,
      "brezil": 3388,
      "brezilya</w>": 3389,
      "brezilyalı</w>": 3390,
      "brian</w>": 3391,
      "brid": 3392,
      "brit": 3393,
      "britan": 3394,
      "britanya</w>": 3395,
      "britanyalı</w>": 3396,
      "british</w>": 3397,
      "bro": 3398,
      "broad": 3399,
      "bron": 3400,
      "bronz</w>": 3401,
      "brook": 3402,
      "bros.</w>": 3403,
      "brow": 3404,
      "brown": 3405,
      "brown</w>": 3406,
      "bru": 3407,
      "bruce</w>": 3408,
      "brun": 3409,
      "bruno</w>": 3410,
      "brüks": 3411,
      "bs</w>": 3412,
      "btp</w>": 3413,
      "bu": 3414,
      "bu,</w>": 3415,
      "bu</w>": 3416,
      "buc": 3417,
      "bud": 3418,
      "budap": 3419,
      "budapeş": 3420,
      "budist</w>": 3421,
      "budiz": 3422,
      "buff": 3423,
      "buffy</w>": 3424,
      "bug": 3425,
      "bugün": 3426,
      "bugün</w>": 3427,
      "bugüne</w>": 3428,
      "bugünkü</w>": 3429,
      "buhar": 3430,
      "buhar</w>": 3431,
      "buk": 3432,
      "bul": 3433,
      "bulan</w>": 3434,
      "bulaş": 3435,
      "buldu.</w>": 3436,
      "bulduğu</w>": 3437,
      "bulgar": 3438,
      "bulgar</w>": 3439,
      "bulgaristan</w>": 3440,
      "bulgu": 3441,
      "bulmak</w>": 3442,
      "bulmuştur.</w>": 3443,
      "bulun": 3444,
      "bulunabilir.</w>": 3445,
      "bulunan,</w>": 3446,
      "bulunan</w>": 3447,
      "bulundu.</w>": 3448,
      "bulundu</w>": 3449,
      "bulundukları</w>": 3450,
      "bulundur": 3451,
      "bulunduğ": 3452,
      "bulunduğu</w>": 3453,
      "bulunduğunu</w>": 3454,
      "bulunmaktadır.</w>": 3455,
      "bulunmaktaydı.</w>": 3456,
      "bulunmamaktadır.</w>": 3457,
      "bulunması</w>": 3458,
      "bulunmayan</w>": 3459,
      "bulunmuş</w>": 3460,
      "bulunmuştur.</w>": 3461,
      "buluntu": 3462,
      "bulunur": 3463,
      "bulunur.</w>": 3464,
      "bulunur</w>": 3465,
      "bulunuyor.</w>": 3466,
      "bulunuyordu.</w>": 3467,
      "bulur.</w>": 3468,
      "bulut": 3469,
      "bulut</w>": 3470,
      "buluş": 3471,
      "bun": 3472,
      "buna</w>": 3473,
      "bunda</w>": 3474,
      "bundan</w>": 3475,
      "bundes": 3476,
      "bundesliga</w>": 3477,
      "bunlar</w>": 3478,
      "bunlara</w>": 3479,
      "bunlardan</w>": 3480,
      "bunları</w>": 3481,
      "bunların</w>": 3482,
      "bunu</w>": 3483,
      "bunun</w>": 3484,
      "bununla</w>": 3485,
      "bur": 3486,
      "bur</w>": 3487,
      "burada</w>": 3488,
      "buradaki</w>": 3489,
      "buradan</w>": 3490,
      "burak</w>": 3491,
      "buraya</w>": 3492,
      "burg": 3493,
      "burg,</w>": 3494,
      "burg</w>": 3495,
      "burn": 3496,
      "burn</w>": 3497,
      "bursa": 3498,
      "bursa</w>": 3499,
      "bursas": 3500,
      "bursaspor</w>": 3501,
      "burun</w>": 3502,
      "bury</w>": 3503,
      "bus": 3504,
      "bus</w>": 3505,
      "busin": 3506,
      "but": 3507,
      "buy": 3508,
      "buz": 3509,
      "buz</w>": 3510,
      "buzul": 3511,
      "buzul</w>": 3512,
      "buçuk</w>": 3513,
      "buğ": 3514,
      "by": 3515,
      "by</w>": 3516,
      "bâ": 3517,
      "bö": 3518,
      "böbr": 3519,
      "böbrek</w>": 3520,
      "böc": 3521,
      "böl": 3522,
      "bölg": 3523,
      "bölge,</w>": 3524,
      "bölge</w>": 3525,
      "bölgede</w>": 3526,
      "bölgedeki</w>": 3527,
      "bölgeden</w>": 3528,
      "bölgel": 3529,
      "bölgeler": 3530,
      "bölgeler</w>": 3531,
      "bölgelerde</w>": 3532,
      "bölgelere</w>": 3533,
      "bölgeleri</w>": 3534,
      "bölgelerinde</w>": 3535,
      "bölgelerine</w>": 3536,
      "bölgenin</w>": 3537,
      "bölges": 3538,
      "bölgesel</w>": 3539,
      "bölgesi</w>": 3540,
      "bölgesinde</w>": 3541,
      "bölgesindeki</w>": 3542,
      "bölgesinden</w>": 3543,
      "bölgesine</w>": 3544,
      "bölgesini</w>": 3545,
      "bölgesinin</w>": 3546,
      "bölgeye</w>": 3547,
      "bölgeyi</w>": 3548,
      "bölüm": 3549,
      "bölüm)</w>": 3550,
      "bölüm,</w>": 3551,
      "bölüm</w>": 3552,
      "bölümde</w>": 3553,
      "bölümden</w>": 3554,
      "bölüme</w>": 3555,
      "bölümler</w>": 3556,
      "bölümleri</w>": 3557,
      "bölümü</w>": 3558,
      "bölümün</w>": 3559,
      "bölümünde</w>": 3560,
      "bölümünden</w>": 3561,
      "bölümüne</w>": 3562,
      "bölümünü</w>": 3563,
      "bölümünün</w>": 3564,
      "bölün": 3565,
      "böy": 3566,
      "böyl": 3567,
      "böyle": 3568,
      "böyle</w>": 3569,
      "böylece,</w>": 3570,
      "böylece</w>": 3571,
      "böylelikle</w>": 3572,
      "bü": 3573,
      "bül": 3574,
      "bülent</w>": 3575,
      "bün": 3576,
      "büny": 3577,
      "bünyesinde</w>": 3578,
      "bür": 3579,
      "bürokr": 3580,
      "büt": 3581,
      "bütç": 3582,
      "bütçe</w>": 3583,
      "bütün": 3584,
      "bütün</w>": 3585,
      "büy": 3586,
      "büyü": 3587,
      "büyüdü.</w>": 3588,
      "büyük": 3589,
      "büyük</w>": 3590,
      "büyükel": 3591,
      "büyükelç": 3592,
      "büyükelçisi</w>": 3593,
      "büyüklük": 3594,
      "büyüklüğ": 3595,
      "büyüklüğü</w>": 3596,
      "büyükşehir</w>": 3597,
      "büyüm": 3598,
      "büyüme</w>": 3599,
      "büyüyen</w>": 3600,
      "bğ": 3601,
      "bğmsz</w>": 3602,
      "bır": 3603,
      "bırak": 3604,
      "bırakarak</w>": 3605,
      "bırakmıştır.</w>": 3606,
      "bırakt": 3607,
      "bıraktı.</w>": 3608,
      "bırakıl": 3609,
      "bırakıldı.</w>": 3610,
      "bıç": 3611,
      "c": 3612,
      "c'nin</w>": 3613,
      "c)</w>": 3614,
      "c,</w>": 3615,
      "c-": 3616,
      "c.": 3617,
      "c.</w>": 3618,
      "c</w>": 3619,
      "ca": 3620,
      "ca)</w>": 3621,
      "ca,</w>": 3622,
      "ca:</w>": 3623,
      "ca</w>": 3624,
      "cab": 3625,
      "cac": 3626,
      "cad": 3627,
      "caddes": 3628,
      "caddesi</w>": 3629,
      "caf": 3630,
      "cah": 3631,
      "cal": 3632,
      "cal</w>": 3633,
      "californ": 3634,
      "california</w>": 3635,
      "call": 3636,
      "cam": 3637,
      "cam</w>": 3638,
      "cambrid": 3639,
      "cambridge</w>": 3640,
      "camer": 3641,
      "cami": 3642,
      "cami</w>": 3643,
      "camii</w>": 3644,
      "caminin</w>": 3645,
      "camp": 3646,
      "can": 3647,
      "can,</w>": 3648,
      "can</w>": 3649,
      "canav": 3650,
      "canl": 3651,
      "canlandır": 3652,
      "canlandırdı.</w>": 3653,
      "canlandırdığı</w>": 3654,
      "canlı</w>": 3655,
      "cannes</w>": 3656,
      "cant": 3657,
      "cap": 3658,
      "cape</w>": 3659,
      "car": 3660,
      "car</w>": 3661,
      "card": 3662,
      "carex</w>": 3663,
      "carl</w>": 3664,
      "carlo</w>": 3665,
      "carlos</w>": 3666,
      "carol": 3667,
      "cart": 3668,
      "cas": 3669,
      "cast": 3670,
      "castle</w>": 3671,
      "cat": 3672,
      "cat</w>": 3673,
      "cav": 3674,
      "cay": 3675,
      "caz": 3676,
      "caz</w>": 3677,
      "cc": 3678,
      "cd": 3679,
      "cd</w>": 3680,
      "ce": 3681,
      "ce,</w>": 3682,
      "ce</w>": 3683,
      "ceb": 3684,
      "cec": 3685,
      "ced": 3686,
      "ceh": 3687,
      "cek</w>": 3688,
      "cel": 3689,
      "cel</w>": 3690,
      "celal</w>": 3691,
      "cem": 3692,
      "cem</w>": 3693,
      "cemaat": 3694,
      "cemal</w>": 3695,
      "cemil</w>": 3696,
      "cemiyet": 3697,
      "cemiyeti</w>": 3698,
      "cen": 3699,
      "cenaz": 3700,
      "cenaze</w>": 3701,
      "cenazesi</w>": 3702,
      "cenev": 3703,
      "cengiz</w>": 3704,
      "cennet": 3705,
      "cent</w>": 3706,
      "center": 3707,
      "center</w>": 3708,
      "center>": 3709,
      "center|": 3710,
      "centr": 3711,
      "central</w>": 3712,
      "centur": 3713,
      "century</w>": 3714,
      "cep": 3715,
      "cep</w>": 3716,
      "ceph": 3717,
      "cephe</w>": 3718,
      "cephes": 3719,
      "cephesi</w>": 3720,
      "cer": 3721,
      "cer</w>": 3722,
      "cermen</w>": 3723,
      "cerrah": 3724,
      "cerrahi</w>": 3725,
      "ces": 3726,
      "cet": 3727,
      "cev": 3728,
      "cevap": 3729,
      "cevap</w>": 3730,
      "cey": 3731,
      "cez": 3732,
      "ceza": 3733,
      "ceza</w>": 3734,
      "cezalandır": 3735,
      "cezası</w>": 3736,
      "cezasına</w>": 3737,
      "cezay": 3738,
      "cezayir</w>": 3739,
      "cf</w>": 3740,
      "ch": 3741,
      "ch,</w>": 3742,
      "ch</w>": 3743,
      "cha": 3744,
      "cha</w>": 3745,
      "challen": 3746,
      "cham": 3747,
      "champion": 3748,
      "championship</w>": 3749,
      "chan": 3750,
      "chang": 3751,
      "chann": 3752,
      "chap": 3753,
      "char": 3754,
      "charles</w>": 3755,
      "charlie</w>": 3756,
      "charlot": 3757,
      "charlotte</w>": 3758,
      "che": 3759,
      "che</w>": 3760,
      "chel": 3761,
      "chelsea</w>": 3762,
      "chem": 3763,
      "chen": 3764,
      "chen</w>": 3765,
      "cher": 3766,
      "cher</w>": 3767,
      "ches": 3768,
      "chester": 3769,
      "chester</w>": 3770,
      "chi": 3771,
      "chi</w>": 3772,
      "chic": 3773,
      "chicag": 3774,
      "chicago</w>": 3775,
      "chil": 3776,
      "chin": 3777,
      "cho": 3778,
      "chp</w>": 3779,
      "chr": 3780,
      "chris": 3781,
      "chris</w>": 3782,
      "christ": 3783,
      "christi": 3784,
      "christian</w>": 3785,
      "christop": 3786,
      "christopher</w>": 3787,
      "chron": 3788,
      "chur": 3789,
      "chy": 3790,
      "ci": 3791,
      "ci,</w>": 3792,
      "ci</w>": 3793,
      "cia</w>": 3794,
      "cic": 3795,
      "cid": 3796,
      "ciddi</w>": 3797,
      "cih": 3798,
      "cihaz": 3799,
      "cihaz</w>": 3800,
      "cihazlar</w>": 3801,
      "cihazları</w>": 3802,
      "cihazın</w>": 3803,
      "cil": 3804,
      "cil</w>": 3805,
      "ciler</w>": 3806,
      "cileri</w>": 3807,
      "cilik</w>": 3808,
      "cilt": 3809,
      "cilt</w>": 3810,
      "cim": 3811,
      "cin": 3812,
      "cin</w>": 3813,
      "cinayet": 3814,
      "cinayet</w>": 3815,
      "cins": 3816,
      "cins</w>": 3817,
      "cinsel": 3818,
      "cinsel</w>": 3819,
      "cinsiy": 3820,
      "cinsiyet</w>": 3821,
      "cir": 3822,
      "cis": 3823,
      "cisi</w>": 3824,
      "cisim": 3825,
      "cisim</w>": 3826,
      "cismin</w>": 3827,
      "cit": 3828,
      "city</w>": 3829,
      "civ": 3830,
      "civar": 3831,
      "civarında</w>": 3832,
      "ciz": 3833,
      "ciğ": 3834,
      "ck</w>": 3835,
      "cl": 3836,
      "cla": 3837,
      "clar": 3838,
      "clas": 3839,
      "class</w>": 3840,
      "classic": 3841,
      "claude</w>": 3842,
      "claudi": 3843,
      "cle": 3844,
      "clem": 3845,
      "clev": 3846,
      "cli": 3847,
      "clin": 3848,
      "clo": 3849,
      "clu": 3850,
      "club</w>": 3851,
      "cm": 3852,
      "cm</w>": 3853,
      "cn": 3854,
      "co": 3855,
      "co,</w>": 3856,
      "co</w>": 3857,
      "coc": 3858,
      "col": 3859,
      "cole</w>": 3860,
      "colle": 3861,
      "collec": 3862,
      "college": 3863,
      "college</w>": 3864,
      "collin": 3865,
      "color": 3866,
      "color:#": 3867,
      "color</w>": 3868,
      "colspan</w>": 3869,
      "columb": 3870,
      "columbia</w>": 3871,
      "com": 3872,
      "come</w>": 3873,
      "commun": 3874,
      "comp": 3875,
      "compan": 3876,
      "company</w>": 3877,
      "comput": 3878,
      "con": 3879,
      "con</w>": 3880,
      "concer": 3881,
      "connec": 3882,
      "const": 3883,
      "contin": 3884,
      "contr": 3885,
      "cop": 3886,
      "copa</w>": 3887,
      "cor": 3888,
      "core</w>": 3889,
      "corn": 3890,
      "corpor": 3891,
      "corporation</w>": 3892,
      "cort": 3893,
      "cos": 3894,
      "cot": 3895,
      "coun": 3896,
      "count": 3897,
      "country</w>": 3898,
      "county</w>": 3899,
      "coup": 3900,
      "cour": 3901,
      "cov": 3902,
      "cover": 3903,
      "covid-": 3904,
      "covid-19</w>": 3905,
      "coğraf": 3906,
      "coğrafi</w>": 3907,
      "coğrafya</w>": 3908,
      "coş": 3909,
      "cr": 3910,
      "cre": 3911,
      "crip": 3912,
      "crit": 3913,
      "cro": 3914,
      "cros": 3915,
      "crow": 3916,
      "cu": 3917,
      "cu,</w>": 3918,
      "cu</w>": 3919,
      "cul": 3920,
      "cular</w>": 3921,
      "cuları</w>": 3922,
      "cultur": 3923,
      "culuk</w>": 3924,
      "cum": 3925,
      "cuma</w>": 3926,
      "cumhur": 3927,
      "cumhurbaşkan": 3928,
      "cumhurbaşkanlığı</w>": 3929,
      "cumhurbaşkanı</w>": 3930,
      "cumhuriyet": 3931,
      "cumhuriyet</w>": 3932,
      "cumhuriyeti'nde</w>": 3933,
      "cumhuriyeti'nin</w>": 3934,
      "cumhuriyeti,</w>": 3935,
      "cumhuriyeti</w>": 3936,
      "cumhuriyetin</w>": 3937,
      "cumhuriyetçi</w>": 3938,
      "cun": 3939,
      "cup": 3940,
      "cup</w>": 3941,
      "cur": 3942,
      "cus": 3943,
      "cus</w>": 3944,
      "cusu</w>": 3945,
      "cut": 3946,
      "cut</w>": 3947,
      "cy": 3948,
      "cy</w>": 3949,
      "cz": 3950,
      "cé": 3951,
      "cü": 3952,
      "cü</w>": 3953,
      "cüce</w>": 3954,
      "cül</w>": 3955,
      "cüm": 3956,
      "cüml": 3957,
      "cı</w>": 3958,
      "cılar</w>": 3959,
      "cılık</w>": 3960,
      "d": 3961,
      "d'": 3962,
      "d'un</w>": 3963,
      "d)</w>": 3964,
      "d,</w>": 3965,
      "d-": 3966,
      "d.": 3967,
      "d.</w>": 3968,
      "d1": 3969,
      "d1d1e\"</w>": 3970,
      "d</w>": 3971,
      "da": 3972,
      "da)</w>": 3973,
      "da,</w>": 3974,
      "da251c\"</w>": 3975,
      "da;</w>": 3976,
      "da</w>": 3977,
      "dad": 3978,
      "dadır.</w>": 3979,
      "dah": 3980,
      "daha</w>": 3981,
      "dahi</w>": 3982,
      "dahil": 3983,
      "dahil</w>": 3984,
      "dahili</w>": 3985,
      "daima</w>": 3986,
      "daimi</w>": 3987,
      "dair": 3988,
      "dair</w>": 3989,
      "daire</w>": 3990,
      "dairesel</w>": 3991,
      "dairesi</w>": 3992,
      "dak": 3993,
      "dak</w>": 3994,
      "daki</w>": 3995,
      "dakik": 3996,
      "dakika</w>": 3997,
      "dakikada</w>": 3998,
      "dakikalık</w>": 3999,
      "dal": 4000,
      "dal</w>": 4001,
      "dale</w>": 4002,
      "dalg": 4003,
      "dalga</w>": 4004,
      "dallas</w>": 4005,
      "dalı</w>": 4006,
      "dalında</w>": 4007,
      "dam": 4008,
      "dam</w>": 4009,
      "damar": 4010,
      "dan": 4011,
      "dan,</w>": 4012,
      "dan</w>": 4013,
      "danc": 4014,
      "dance</w>": 4015,
      "dani": 4016,
      "daniel</w>": 4017,
      "danim": 4018,
      "danimark": 4019,
      "danimarka</w>": 4020,
      "danimarkalı</w>": 4021,
      "danny</w>": 4022,
      "dans": 4023,
      "dans</w>": 4024,
      "danış": 4025,
      "danışma</w>": 4026,
      "danışman": 4027,
      "danışmanı</w>": 4028,
      "dar": 4029,
      "dar</w>": 4030,
      "darbe</w>": 4031,
      "dard": 4032,
      "dark": 4033,
      "dark</w>": 4034,
      "das": 4035,
      "das</w>": 4036,
      "dat": 4037,
      "dav": 4038,
      "dava</w>": 4039,
      "davası</w>": 4040,
      "dave</w>": 4041,
      "davet</w>": 4042,
      "david</w>": 4043,
      "davis</w>": 4044,
      "davr": 4045,
      "davran": 4046,
      "davranış": 4047,
      "davranış</w>": 4048,
      "davul": 4049,
      "davul</w>": 4050,
      "day": 4051,
      "day</w>": 4052,
      "dayalı</w>": 4053,
      "dayan": 4054,
      "dayanan</w>": 4055,
      "dayanarak</w>": 4056,
      "dayanmaktadır.</w>": 4057,
      "dayanık": 4058,
      "dayanıklı</w>": 4059,
      "dayanır.</w>": 4060,
      "dayanışma</w>": 4061,
      "days</w>": 4062,
      "dağ": 4063,
      "dağ</w>": 4064,
      "dağlar</w>": 4065,
      "dağları</w>": 4066,
      "dağlık</w>": 4067,
      "dağı</w>": 4068,
      "dağıl": 4069,
      "dağılım</w>": 4070,
      "dağılımı</w>": 4071,
      "dağıt": 4072,
      "dağıtım</w>": 4073,
      "daş": 4074,
      "dc</w>": 4075,
      "dd": 4076,
      "de": 4077,
      "de)</w>": 4078,
      "de,</w>": 4079,
      "de-": 4080,
      "de.</w>": 4081,
      "de;</w>": 4082,
      "de</w>": 4083,
      "dead": 4084,
      "dead</w>": 4085,
      "dean</w>": 4086,
      "death</w>": 4087,
      "dec": 4088,
      "ded": 4089,
      "ded</w>": 4090,
      "dede</w>": 4091,
      "dedek": 4092,
      "dedi.</w>": 4093,
      "dedir.</w>": 4094,
      "def": 4095,
      "defa</w>": 4096,
      "defans</w>": 4097,
      "defn": 4098,
      "defnedildi.</w>": 4099,
      "defnedilenler</w>": 4100,
      "defter": 4101,
      "deh": 4102,
      "dek": 4103,
      "dek</w>": 4104,
      "deki</w>": 4105,
      "dekor": 4106,
      "del": 4107,
      "del</w>": 4108,
      "deli</w>": 4109,
      "delik</w>": 4110,
      "della</w>": 4111,
      "dem": 4112,
      "dem</w>": 4113,
      "demektir.</w>": 4114,
      "demir": 4115,
      "demir</w>": 4116,
      "demirtaş</w>": 4117,
      "demiryol": 4118,
      "demiryolu</w>": 4119,
      "demiştir.</w>": 4120,
      "demli</w>": 4121,
      "demokr": 4122,
      "demokras": 4123,
      "demokrasi</w>": 4124,
      "demokrat</w>": 4125,
      "demokratik</w>": 4126,
      "den": 4127,
      "den,</w>": 4128,
      "den</w>": 4129,
      "denem": 4130,
      "deneme</w>": 4131,
      "denen</w>": 4132,
      "denet": 4133,
      "denetim</w>": 4134,
      "deney": 4135,
      "deney</w>": 4136,
      "deneyim": 4137,
      "deneysel</w>": 4138,
      "deng": 4139,
      "denge</w>": 4140,
      "dengel": 4141,
      "denilen</w>": 4142,
      "denin</w>": 4143,
      "denir.</w>": 4144,
      "deniz": 4145,
      "deniz</w>": 4146,
      "denizalt": 4147,
      "denizden</w>": 4148,
      "denize</w>": 4149,
      "denizi</w>": 4150,
      "denk": 4151,
      "denk</w>": 4152,
      "denklem": 4153,
      "dep": 4154,
      "depart": 4155,
      "deplas": 4156,
      "deplasman": 4157,
      "deplasmanda</w>": 4158,
      "depol": 4159,
      "depolama</w>": 4160,
      "depr": 4161,
      "deprem": 4162,
      "deprem</w>": 4163,
      "depres": 4164,
      "der": 4165,
      "der,</w>": 4166,
      "der.</w>": 4167,
      "der</w>": 4168,
      "dere</w>": 4169,
      "derec": 4170,
      "derece</w>": 4171,
      "derecede</w>": 4172,
      "derecesi</w>": 4173,
      "derecesini</w>": 4174,
      "derek</w>": 4175,
      "derg": 4176,
      "dergi</w>": 4177,
      "derginin</w>": 4178,
      "dergis": 4179,
      "dergisi,</w>": 4180,
      "dergisi</w>": 4181,
      "dergisinde</w>": 4182,
      "dergisinin</w>": 4183,
      "derhal</w>": 4184,
      "deri</w>": 4185,
      "derin": 4186,
      "derin</w>": 4187,
      "derlem": 4188,
      "derleme</w>": 4189,
      "dern": 4190,
      "derneğ": 4191,
      "derneği</w>": 4192,
      "ders": 4193,
      "ders</w>": 4194,
      "dersler</w>": 4195,
      "dersleri</w>": 4196,
      "derv": 4197,
      "des": 4198,
      "des</w>": 4199,
      "desi</w>": 4200,
      "dest": 4201,
      "destan": 4202,
      "destek": 4203,
      "destek</w>": 4204,
      "destekledi.</w>": 4205,
      "desteklem": 4206,
      "desteklemek</w>": 4207,
      "desteklen": 4208,
      "desteklenen</w>": 4209,
      "destekleyen</w>": 4210,
      "destekli</w>": 4211,
      "desteği</w>": 4212,
      "desteğini</w>": 4213,
      "desteğiyle</w>": 4214,
      "det": 4215,
      "det</w>": 4216,
      "detay": 4217,
      "detaylı</w>": 4218,
      "detro": 4219,
      "deut": 4220,
      "deutsch": 4221,
      "dev": 4222,
      "dev</w>": 4223,
      "devam": 4224,
      "devam</w>": 4225,
      "devamlı</w>": 4226,
      "devamı</w>": 4227,
      "develop": 4228,
      "devir": 4229,
      "devlet": 4230,
      "devlet</w>": 4231,
      "devlete</w>": 4232,
      "devleti'nin</w>": 4233,
      "devleti</w>": 4234,
      "devletin</w>": 4235,
      "devletinin</w>": 4236,
      "devletler": 4237,
      "devletler</w>": 4238,
      "devletleri'nde</w>": 4239,
      "devletleri'ndeki</w>": 4240,
      "devletleri'nin</w>": 4241,
      "devletleri</w>": 4242,
      "devletlerin</w>": 4243,
      "devr": 4244,
      "devre</w>": 4245,
      "devri</w>": 4246,
      "devrim": 4247,
      "devrim</w>": 4248,
      "devrimci</w>": 4249,
      "devrimi</w>": 4250,
      "dey": 4251,
      "deyiş": 4252,
      "dez": 4253,
      "değ": 4254,
      "değer": 4255,
      "değer</w>": 4256,
      "değeri</w>": 4257,
      "değerini</w>": 4258,
      "değerlendir": 4259,
      "değerlendirm": 4260,
      "değerlendirme</w>": 4261,
      "değerleri</w>": 4262,
      "değerli</w>": 4263,
      "değil": 4264,
      "değil,</w>": 4265,
      "değil</w>": 4266,
      "değildi.</w>": 4267,
      "değildir,</w>": 4268,
      "değildir.</w>": 4269,
      "değildir</w>": 4270,
      "değin": 4271,
      "değirm": 4272,
      "değiş": 4273,
      "değişen</w>": 4274,
      "değişik": 4275,
      "değişik</w>": 4276,
      "değişiklik": 4277,
      "değişiklik</w>": 4278,
      "değişiklikler</w>": 4279,
      "değişiklikleri</w>": 4280,
      "değişikliği</w>": 4281,
      "değişim": 4282,
      "değişim</w>": 4283,
      "değişimi</w>": 4284,
      "değişir.</w>": 4285,
      "değişken": 4286,
      "değişken</w>": 4287,
      "değiştir": 4288,
      "değiştirdi.</w>": 4289,
      "değiştiril": 4290,
      "değiştirildi.</w>": 4291,
      "değiştirilmiştir.</w>": 4292,
      "değiştirm": 4293,
      "değiştirme</w>": 4294,
      "deş": 4295,
      "df": 4296,
      "dh": 4297,
      "di": 4298,
      "di)</w>": 4299,
      "di,</w>": 4300,
      "di.": 4301,
      "di.</w>": 4302,
      "di:</w>": 4303,
      "di;</w>": 4304,
      "di</w>": 4305,
      "dia</w>": 4306,
      "diam": 4307,
      "dic": 4308,
      "die</w>": 4309,
      "diego</w>": 4310,
      "dif": 4311,
      "difer": 4312,
      "diferansiy": 4313,
      "dig": 4314,
      "digit": 4315,
      "digital</w>": 4316,
      "dij": 4317,
      "dijital</w>": 4318,
      "dik": 4319,
      "dik</w>": 4320,
      "dikey</w>": 4321,
      "dikkat": 4322,
      "dikkat</w>": 4323,
      "dikkate</w>": 4324,
      "dikkatini</w>": 4325,
      "dikleri</w>": 4326,
      "diklerini</w>": 4327,
      "diktat": 4328,
      "diktatör": 4329,
      "dikten</w>": 4330,
      "dil": 4331,
      "dil</w>": 4332,
      "dilde</w>": 4333,
      "dile</w>": 4334,
      "diler.</w>": 4335,
      "diler</w>": 4336,
      "dili</w>": 4337,
      "dilin</w>": 4338,
      "dilinde</w>": 4339,
      "dilinin</w>": 4340,
      "diller</w>": 4341,
      "dilleri</w>": 4342,
      "dim": 4343,
      "dim</w>": 4344,
      "dimit": 4345,
      "din": 4346,
      "din</w>": 4347,
      "dinam": 4348,
      "dinamik</w>": 4349,
      "dinamo</w>": 4350,
      "dinde</w>": 4351,
      "ding": 4352,
      "ding</w>": 4353,
      "dini</w>": 4354,
      "dinsel</w>": 4355,
      "dinî</w>": 4356,
      "dip": 4357,
      "dip</w>": 4358,
      "dipl": 4359,
      "diplom": 4360,
      "diplomat</w>": 4361,
      "diplomatik</w>": 4362,
      "dipnotlar</w>": 4363,
      "dir": 4364,
      "dir,</w>": 4365,
      "dir.</w>": 4366,
      "dir:</w>": 4367,
      "dir;</w>": 4368,
      "dir</w>": 4369,
      "direc": 4370,
      "direk": 4371,
      "direkt</w>": 4372,
      "direktör": 4373,
      "direktör</w>": 4374,
      "direktörler</w>": 4375,
      "direktörleri</w>": 4376,
      "direktörlük</w>": 4377,
      "direktörü</w>": 4378,
      "diren": 4379,
      "direniş</w>": 4380,
      "dirler.</w>": 4381,
      "dirm": 4382,
      "dis": 4383,
      "disip": 4384,
      "disiplin": 4385,
      "disk": 4386,
      "disk</w>": 4387,
      "disko": 4388,
      "diskografi</w>": 4389,
      "disney</w>": 4390,
      "dist": 4391,
      "dit": 4392,
      "div": 4393,
      "divan": 4394,
      "divan</w>": 4395,
      "diven": 4396,
      "diy": 4397,
      "diyal": 4398,
      "diyar": 4399,
      "diyarbakır": 4400,
      "diyarbakır</w>": 4401,
      "diye</w>": 4402,
      "diyerek</w>": 4403,
      "diz": 4404,
      "dizi,</w>": 4405,
      "dizi</w>": 4406,
      "dizide</w>": 4407,
      "dizileri</w>": 4408,
      "dizinin</w>": 4409,
      "dizisi)</w>": 4410,
      "dizisi</w>": 4411,
      "dizisinde</w>": 4412,
      "dizisinin</w>": 4413,
      "diğ": 4414,
      "diğer": 4415,
      "diğer</w>": 4416,
      "diğeri</w>": 4417,
      "diğerleri</w>": 4418,
      "diği,</w>": 4419,
      "diği</w>": 4420,
      "diğinde,</w>": 4421,
      "diğinde</w>": 4422,
      "diğinden</w>": 4423,
      "diğine</w>": 4424,
      "diğini</w>": 4425,
      "diş": 4426,
      "diş</w>": 4427,
      "dişi</w>": 4428,
      "dj": 4429,
      "dj</w>": 4430,
      "dn": 4431,
      "dna</w>": 4432,
      "do": 4433,
      "do,</w>": 4434,
      "do</w>": 4435,
      "doc": 4436,
      "doctor</w>": 4437,
      "dog": 4438,
      "dok": 4439,
      "doktor": 4440,
      "doktor,</w>": 4441,
      "doktor</w>": 4442,
      "doktora</w>": 4443,
      "doktorasını</w>": 4444,
      "doku</w>": 4445,
      "dokun": 4446,
      "dokuz</w>": 4447,
      "dokuzun": 4448,
      "dokuzuncu</w>": 4449,
      "dol": 4450,
      "dolar": 4451,
      "dolar</w>": 4452,
      "dolara</w>": 4453,
      "dolarlık</w>": 4454,
      "doları</w>": 4455,
      "dolay": 4456,
      "dolaylı</w>": 4457,
      "dolayı,</w>": 4458,
      "dolayı</w>": 4459,
      "dolayısıyla</w>": 4460,
      "dolaş": 4461,
      "doldur": 4462,
      "dolu</w>": 4463,
      "dom": 4464,
      "dom</w>": 4465,
      "domin": 4466,
      "don": 4467,
      "don't</w>": 4468,
      "don</w>": 4469,
      "donald</w>": 4470,
      "donan": 4471,
      "donanma</w>": 4472,
      "donanması</w>": 4473,
      "donanım</w>": 4474,
      "donat": 4475,
      "dondur": 4476,
      "dop": 4477,
      "dor": 4478,
      "dor</w>": 4479,
      "dos": 4480,
      "dos</w>": 4481,
      "dost": 4482,
      "dost</w>": 4483,
      "dostluk</w>": 4484,
      "dosy": 4485,
      "dosya</w>": 4486,
      "dou": 4487,
      "doub": 4488,
      "double</w>": 4489,
      "doug": 4490,
      "douglas</w>": 4491,
      "dow": 4492,
      "down": 4493,
      "down</w>": 4494,
      "doy": 4495,
      "doz": 4496,
      "doç": 4497,
      "doğ": 4498,
      "doğa</w>": 4499,
      "doğal</w>": 4500,
      "doğan</w>": 4501,
      "doğdu.</w>": 4502,
      "doğdu</w>": 4503,
      "doğduğu</w>": 4504,
      "doğmuştur.</w>": 4505,
      "doğr": 4506,
      "doğru": 4507,
      "doğru</w>": 4508,
      "doğrudan</w>": 4509,
      "doğrul": 4510,
      "doğrult": 4511,
      "doğrultusunda</w>": 4512,
      "doğrusal</w>": 4513,
      "doğu": 4514,
      "doğu</w>": 4515,
      "doğuda</w>": 4516,
      "doğum": 4517,
      "doğum</w>": 4518,
      "doğumlu": 4519,
      "doğumlu),</w>": 4520,
      "doğumlu</w>": 4521,
      "doğumlular</w>": 4522,
      "doğur": 4523,
      "doğus": 4524,
      "doğusunda</w>": 4525,
      "doğuya</w>": 4526,
      "doğuş": 4527,
      "dp</w>": 4528,
      "dr": 4529,
      "dr.</w>": 4530,
      "drag": 4531,
      "dragon</w>": 4532,
      "dram": 4533,
      "dram</w>": 4534,
      "drama</w>": 4535,
      "dramatik</w>": 4536,
      "dre": 4537,
      "dream": 4538,
      "dream</w>": 4539,
      "dren": 4540,
      "dres": 4541,
      "dro": 4542,
      "ds": 4543,
      "ds</w>": 4544,
      "dsp</w>": 4545,
      "du": 4546,
      "du,</w>": 4547,
      "du.</w>": 4548,
      "du;</w>": 4549,
      "du</w>": 4550,
      "dua</w>": 4551,
      "dubl": 4552,
      "duc": 4553,
      "duk": 4554,
      "dukları</w>": 4555,
      "duktan</w>": 4556,
      "dul": 4557,
      "dular.</w>": 4558,
      "dum": 4559,
      "dum</w>": 4560,
      "dun": 4561,
      "dun</w>": 4562,
      "dur": 4563,
      "dur,</w>": 4564,
      "dur.</w>": 4565,
      "dur</w>": 4566,
      "duran</w>": 4567,
      "durdur": 4568,
      "durdurul": 4569,
      "durum": 4570,
      "durum,</w>": 4571,
      "durum</w>": 4572,
      "duruma</w>": 4573,
      "durumda</w>": 4574,
      "durumlar</w>": 4575,
      "durumlarda</w>": 4576,
      "durumu</w>": 4577,
      "durumun</w>": 4578,
      "durumuna</w>": 4579,
      "durumunda</w>": 4580,
      "durumunu</w>": 4581,
      "duruş": 4582,
      "dus</w>": 4583,
      "dut": 4584,
      "duvar": 4585,
      "duvar</w>": 4586,
      "duy": 4587,
      "duyan</w>": 4588,
      "duyar": 4589,
      "duyduğu</w>": 4590,
      "duyg": 4591,
      "duygu": 4592,
      "duygusal</w>": 4593,
      "duyul": 4594,
      "duyulan</w>": 4595,
      "duyur": 4596,
      "duyurdu.</w>": 4597,
      "duyuruldu.</w>": 4598,
      "duğ": 4599,
      "duğu</w>": 4600,
      "duğunda</w>": 4601,
      "duğunu</w>": 4602,
      "dv": 4603,
      "dvd</w>": 4604,
      "dw": 4605,
      "dy": 4606,
      "dy</w>": 4607,
      "dyp</w>": 4608,
      "dâ": 4609,
      "dâhil</w>": 4610,
      "dé": 4611,
      "dî": 4612,
      "dö": 4613,
      "dök": 4614,
      "dökül": 4615,
      "dön": 4616,
      "döndü.</w>": 4617,
      "döndü</w>": 4618,
      "döndükten</w>": 4619,
      "döndür": 4620,
      "dönem": 4621,
      "dönem</w>": 4622,
      "dönemde,</w>": 4623,
      "dönemde</w>": 4624,
      "döneme</w>": 4625,
      "dönemi</w>": 4626,
      "dönemin</w>": 4627,
      "döneminde,</w>": 4628,
      "döneminde</w>": 4629,
      "döneminden</w>": 4630,
      "dönemine</w>": 4631,
      "döneminin</w>": 4632,
      "dönemlerde</w>": 4633,
      "dönemlerinde</w>": 4634,
      "dönen</w>": 4635,
      "döner.</w>": 4636,
      "döner</w>": 4637,
      "dönerek</w>": 4638,
      "döngü": 4639,
      "dönme</w>": 4640,
      "dönmüştür.</w>": 4641,
      "dönüm": 4642,
      "dönüm</w>": 4643,
      "dönümü</w>": 4644,
      "dönüş": 4645,
      "dönüş</w>": 4646,
      "dönüştü.</w>": 4647,
      "dönüştür": 4648,
      "dönüştürül": 4649,
      "dönüşü</w>": 4650,
      "dönüşüm": 4651,
      "dönüşüm</w>": 4652,
      "dör": 4653,
      "dördün": 4654,
      "dördüncü</w>": 4655,
      "dört": 4656,
      "dört</w>": 4657,
      "dörtgen</w>": 4658,
      "döv": 4659,
      "dövüş": 4660,
      "dövüş</w>": 4661,
      "dü": 4662,
      "dü,</w>": 4663,
      "dü.</w>": 4664,
      "dü</w>": 4665,
      "düet</w>": 4666,
      "dük": 4667,
      "dükkân": 4668,
      "dükleri</w>": 4669,
      "düksiy": 4670,
      "dükten</w>": 4671,
      "dükü</w>": 4672,
      "dül": 4673,
      "düler.</w>": 4674,
      "düm": 4675,
      "dün": 4676,
      "dün</w>": 4677,
      "düny": 4678,
      "dünya": 4679,
      "dünya'nın</w>": 4680,
      "dünya</w>": 4681,
      "dünyada</w>": 4682,
      "dünyadaki</w>": 4683,
      "dünyanın</w>": 4684,
      "dünyas": 4685,
      "dünyası</w>": 4686,
      "dünyasında</w>": 4687,
      "dünyasının</w>": 4688,
      "dünyaya</w>": 4689,
      "dünyayı</w>": 4690,
      "dür": 4691,
      "dür.</w>": 4692,
      "dür</w>": 4693,
      "düz": 4694,
      "düz</w>": 4695,
      "düzel": 4696,
      "düzelt": 4697,
      "düzen": 4698,
      "düzen</w>": 4699,
      "düzeni</w>": 4700,
      "düzenledi.</w>": 4701,
      "düzenlediği</w>": 4702,
      "düzenlem": 4703,
      "düzenleme</w>": 4704,
      "düzenlen": 4705,
      "düzenlendi.</w>": 4706,
      "düzenlenen</w>": 4707,
      "düzenlenmiştir.</w>": 4708,
      "düzenli</w>": 4709,
      "düzensiz</w>": 4710,
      "düzey": 4711,
      "düzey</w>": 4712,
      "düzeyde</w>": 4713,
      "düzeyinde</w>": 4714,
      "düzgün</w>": 4715,
      "düzlem": 4716,
      "düğ": 4717,
      "düğü</w>": 4718,
      "düğüm": 4719,
      "düğün": 4720,
      "düğün</w>": 4721,
      "düğünde</w>": 4722,
      "düğünü</w>": 4723,
      "düş": 4724,
      "düşen</w>": 4725,
      "düşer.</w>": 4726,
      "düşman": 4727,
      "düşman</w>": 4728,
      "düşmanı</w>": 4729,
      "düşmüştür.</w>": 4730,
      "düştü.</w>": 4731,
      "düşük": 4732,
      "düşük</w>": 4733,
      "düşün": 4734,
      "düşünc": 4735,
      "düşünce</w>": 4736,
      "düşünül": 4737,
      "düşünülen</w>": 4738,
      "düşünülmektedir.</w>": 4739,
      "düşünür": 4740,
      "düşür": 4741,
      "düşürül": 4742,
      "düşüş": 4743,
      "dı,</w>": 4744,
      "dı.</w>": 4745,
      "dı</w>": 4746,
      "dıkları</w>": 4747,
      "dıktan</w>": 4748,
      "dılar.</w>": 4749,
      "dır": 4750,
      "dır.</w>": 4751,
      "dır</w>": 4752,
      "dığı</w>": 4753,
      "dığını</w>": 4754,
      "dış": 4755,
      "dış</w>": 4756,
      "dışar": 4757,
      "dışarı</w>": 4758,
      "dışişleri</w>": 4759,
      "dışı</w>": 4760,
      "dışına</w>": 4761,
      "dışında,</w>": 4762,
      "dışında</w>": 4763,
      "dışındaki</w>": 4764,
      "e": 4765,
      "e\"": 4766,
      "e\",</w>": 4767,
      "e\"</w>": 4768,
      "e'": 4769,
      "e'a</w>": 4770,
      "e'da</w>": 4771,
      "e'de</w>": 4772,
      "e'deki</w>": 4773,
      "e'den</w>": 4774,
      "e'e</w>": 4775,
      "e'i</w>": 4776,
      "e'in</w>": 4777,
      "e'nin</w>": 4778,
      "e's</w>": 4779,
      "e'un</w>": 4780,
      "e'ye</w>": 4781,
      "e'yi</w>": 4782,
      "e'ın</w>": 4783,
      "e),</w>": 4784,
      "e)</w>": 4785,
      "e,</w>": 4786,
      "e-": 4787,
      "e-i</w>": 4788,
      "e-posta</w>": 4789,
      "e.": 4790,
      "e.</w>": 4791,
      "e/": 4792,
      "e9": 4793,
      "e9e9": 4794,
      "e9e9e9": 4795,
      "e:": 4796,
      "e:</w>": 4797,
      "e;</w>": 4798,
      "e</w>": 4799,
      "ea": 4800,
      "ea</w>": 4801,
      "ean</w>": 4802,
      "ear": 4803,
      "eas": 4804,
      "east</w>": 4805,
      "eau</w>": 4806,
      "eb": 4807,
      "eb</w>": 4808,
      "ebe</w>": 4809,
      "ebel": 4810,
      "ebev": 4811,
      "ebeveyn": 4812,
      "ebi</w>": 4813,
      "ebil": 4814,
      "ebilecek</w>": 4815,
      "ebileceği</w>": 4816,
      "ebileceğini</w>": 4817,
      "ebilen</w>": 4818,
      "ebilir": 4819,
      "ebilir,</w>": 4820,
      "ebilir.</w>": 4821,
      "ebilir:</w>": 4822,
      "ebilir</w>": 4823,
      "ebilirler.</w>": 4824,
      "ebilm": 4825,
      "ebilmek</w>": 4826,
      "ebilmektedir.</w>": 4827,
      "ebilmesi</w>": 4828,
      "ebo": 4829,
      "ebu</w>": 4830,
      "ec": 4831,
      "ec</w>": 4832,
      "ece</w>": 4833,
      "ecek": 4834,
      "ecek,</w>": 4835,
      "ecek.</w>": 4836,
      "ecek</w>": 4837,
      "ecekleri</w>": 4838,
      "eceklerini</w>": 4839,
      "ecekti.</w>": 4840,
      "ecektir.</w>": 4841,
      "eceğ": 4842,
      "eceği</w>": 4843,
      "eceğine</w>": 4844,
      "eceğini</w>": 4845,
      "ech": 4846,
      "eci</w>": 4847,
      "ecik</w>": 4848,
      "econom": 4849,
      "ect</w>": 4850,
      "ecz": 4851,
      "ed": 4852,
      "ed,</w>": 4853,
      "ed.</w>": 4854,
      "ed8000\"</w>": 4855,
      "ed</w>": 4856,
      "eda</w>": 4857,
      "eddin</w>": 4858,
      "ede": 4859,
      "ede,</w>": 4860,
      "ede</w>": 4861,
      "edeb": 4862,
      "edebi</w>": 4863,
      "edebil": 4864,
      "edebilir.</w>": 4865,
      "edebiy": 4866,
      "edebiyat": 4867,
      "edebiyat</w>": 4868,
      "edebiyatı</w>": 4869,
      "edec": 4870,
      "edecek</w>": 4871,
      "edeceğini</w>": 4872,
      "edeki</w>": 4873,
      "edem": 4874,
      "eden": 4875,
      "eden,</w>": 4876,
      "eden</w>": 4877,
      "eder": 4878,
      "eder,</w>": 4879,
      "eder.</w>": 4880,
      "eder</w>": 4881,
      "ederek,</w>": 4882,
      "ederek</w>": 4883,
      "ederken,</w>": 4884,
      "ederken</w>": 4885,
      "ederler.</w>": 4886,
      "edi.</w>": 4887,
      "edi</w>": 4888,
      "edic": 4889,
      "edici</w>": 4890,
      "edil": 4891,
      "edildi,</w>": 4892,
      "edildi.</w>": 4893,
      "edildi</w>": 4894,
      "edildiği</w>": 4895,
      "edildiğini</w>": 4896,
      "edilebilir.</w>": 4897,
      "edilebilir</w>": 4898,
      "edilem": 4899,
      "edilen</w>": 4900,
      "edilenler</w>": 4901,
      "ediler</w>": 4902,
      "edilerek</w>": 4903,
      "edilip</w>": 4904,
      "edilir.</w>": 4905,
      "edilir</w>": 4906,
      "edilm": 4907,
      "edilmektedir.</w>": 4908,
      "edilmesi</w>": 4909,
      "edilmesine</w>": 4910,
      "edilmesini</w>": 4911,
      "edilmiş,</w>": 4912,
      "edilmiş</w>": 4913,
      "edilmişti.</w>": 4914,
      "edilmiştir.</w>": 4915,
      "edin": 4916,
      "edinburg": 4917,
      "edip</w>": 4918,
      "edir": 4919,
      "edir.</w>": 4920,
      "edir</w>": 4921,
      "edirne": 4922,
      "edirne</w>": 4923,
      "edit": 4924,
      "edition</w>": 4925,
      "editör": 4926,
      "ediyor": 4927,
      "ediyor.</w>": 4928,
      "ediyordu.</w>": 4929,
      "ediği</w>": 4930,
      "ediğini</w>": 4931,
      "edu": 4932,
      "edward": 4933,
      "edward</w>": 4934,
      "ee</w>": 4935,
      "ef": 4936,
      "ef</w>": 4937,
      "efa</w>": 4938,
      "efdf": 4939,
      "efekt": 4940,
      "efen": 4941,
      "efend": 4942,
      "efendi": 4943,
      "efendi,</w>": 4944,
      "efendi</w>": 4945,
      "efes</w>": 4946,
      "eff": 4947,
      "efsan": 4948,
      "efsanevi</w>": 4949,
      "eg": 4950,
      "ege</w>": 4951,
      "egem": 4952,
      "egemen": 4953,
      "egemen</w>": 4954,
      "egemenliği</w>": 4955,
      "egen</w>": 4956,
      "ego</w>": 4957,
      "egor": 4958,
      "eh": 4959,
      "eh</w>": 4960,
      "ehir": 4961,
      "ehir</w>": 4962,
      "ehr": 4963,
      "ei</w>": 4964,
      "ein": 4965,
      "ein</w>": 4966,
      "eir": 4967,
      "eira</w>": 4968,
      "eis": 4969,
      "ej": 4970,
      "ejder": 4971,
      "ek": 4972,
      "ek,</w>": 4973,
      "ek.</w>": 4974,
      "ek</w>": 4975,
      "eke</w>": 4976,
      "eki</w>": 4977,
      "ekib": 4978,
      "ekibi</w>": 4979,
      "ekim": 4980,
      "ekim'de</w>": 4981,
      "ekim</w>": 4982,
      "ekip": 4983,
      "ekip</w>": 4984,
      "ekiplerinden</w>": 4985,
      "ekipman": 4986,
      "ekle</w>": 4987,
      "ekledi.</w>": 4988,
      "eklem": 4989,
      "eklen": 4990,
      "eklendi.</w>": 4991,
      "eklenmiştir.</w>": 4992,
      "ekler</w>": 4993,
      "ekleri</w>": 4994,
      "eklerin</w>": 4995,
      "ekli</w>": 4996,
      "ekmek</w>": 4997,
      "ekolojik</w>": 4998,
      "ekonom": 4999,
      "ekonomi</w>": 5000,
      "ekonomik</w>": 5001,
      "ekonomisi</w>": 5002,
      "ekr": 5003,
      "ekran": 5004,
      "ekran</w>": 5005,
      "ekrem</w>": 5006,
      "eksen": 5007,
      "eksik": 5008,
      "eksik</w>": 5009,
      "eksikliği</w>": 5010,
      "ekstr": 5011,
      "eksü": 5012,
      "eksüel</w>": 5013,
      "ekt": 5014,
      "ektaş": 5015,
      "ekte,</w>": 5016,
      "ekte</w>": 5017,
      "ekted": 5018,
      "ektedir.</w>": 5019,
      "ektedir</w>": 5020,
      "ektedirler.</w>": 5021,
      "ekteki</w>": 5022,
      "ekten</w>": 5023,
      "ektey": 5024,
      "ekteydi.</w>": 5025,
      "ekti.</w>": 5026,
      "ekti</w>": 5027,
      "ektir": 5028,
      "ektir.</w>": 5029,
      "ektirm": 5030,
      "ektör": 5031,
      "ektör</w>": 5032,
      "el": 5033,
      "el'in</w>": 5034,
      "el)</w>": 5035,
      "el,</w>": 5036,
      "el-": 5037,
      "el</w>": 5038,
      "ela</w>": 5039,
      "eland</w>": 5040,
      "elaz": 5041,
      "elazığ": 5042,
      "elbis": 5043,
      "elde</w>": 5044,
      "elden</w>": 5045,
      "ele": 5046,
      "ele</w>": 5047,
      "elec": 5048,
      "electr": 5049,
      "electron": 5050,
      "elekt": 5051,
      "elektr": 5052,
      "elektrik": 5053,
      "elektrik</w>": 5054,
      "elektrikli</w>": 5055,
      "elektriksel</w>": 5056,
      "elektro": 5057,
      "elektroman": 5058,
      "elektromanyetik</w>": 5059,
      "elektron": 5060,
      "elektron</w>": 5061,
      "elektronik</w>": 5062,
      "elem": 5063,
      "eleman": 5064,
      "eleme</w>": 5065,
      "elemeleri</w>": 5066,
      "element": 5067,
      "elen": 5068,
      "elendi.</w>": 5069,
      "elenen</w>": 5070,
      "elenmiş</w>": 5071,
      "elenmiştir.</w>": 5072,
      "eler": 5073,
      "eler,</w>": 5074,
      "eler.</w>": 5075,
      "eler</w>": 5076,
      "elerde</w>": 5077,
      "elerden</w>": 5078,
      "elerdir.</w>": 5079,
      "elere</w>": 5080,
      "eleri,</w>": 5081,
      "eleri</w>": 5082,
      "elerin</w>": 5083,
      "elerinde</w>": 5084,
      "elerinden</w>": 5085,
      "elerine</w>": 5086,
      "elerini</w>": 5087,
      "elerinin</w>": 5088,
      "eleriyle</w>": 5089,
      "elerle</w>": 5090,
      "eley": 5091,
      "eleyen</w>": 5092,
      "eleş": 5093,
      "eleştir": 5094,
      "eleştirel</w>": 5095,
      "eleştiri</w>": 5096,
      "eleştiriler</w>": 5097,
      "eleştirm": 5098,
      "eleştirmen": 5099,
      "eleştirmenler</w>": 5100,
      "eleştirmenleri</w>": 5101,
      "eli": 5102,
      "eli,</w>": 5103,
      "eli</w>": 5104,
      "elidir.</w>": 5105,
      "elik": 5106,
      "elik</w>": 5107,
      "elikle</w>": 5108,
      "elin</w>": 5109,
      "elinde</w>": 5110,
      "elindeki</w>": 5111,
      "elinden</w>": 5112,
      "eline</w>": 5113,
      "elini</w>": 5114,
      "elip": 5115,
      "elis": 5116,
      "eliz": 5117,
      "elizabet": 5118,
      "elizabeth</w>": 5119,
      "eliği</w>": 5120,
      "eliğine</w>": 5121,
      "ell": 5122,
      "ell,</w>": 5123,
      "ell</w>": 5124,
      "ella</w>": 5125,
      "elle</w>": 5126,
      "eller</w>": 5127,
      "elleri</w>": 5128,
      "elli": 5129,
      "elli</w>": 5130,
      "ellik": 5131,
      "ellikle</w>": 5132,
      "ello</w>": 5133,
      "elma</w>": 5134,
      "elop": 5135,
      "els</w>": 5136,
      "elt": 5137,
      "elver": 5138,
      "ely</w>": 5139,
      "elç": 5140,
      "em": 5141,
      "em;</w>": 5142,
      "em</w>": 5143,
      "ema</w>": 5144,
      "eman</w>": 5145,
      "eme</w>": 5146,
      "emed": 5147,
      "emedi.</w>": 5148,
      "emek": 5149,
      "emek</w>": 5150,
      "emekli</w>": 5151,
      "emektedir.</w>": 5152,
      "emem": 5153,
      "emen</w>": 5154,
      "ement</w>": 5155,
      "emesi</w>": 5156,
      "emev": 5157,
      "emey": 5158,
      "emeyen</w>": 5159,
      "emez": 5160,
      "emez.</w>": 5161,
      "emez</w>": 5162,
      "emi</w>": 5163,
      "emil": 5164,
      "emin": 5165,
      "emin</w>": 5166,
      "emir": 5167,
      "emir</w>": 5168,
      "emit": 5169,
      "emiş</w>": 5170,
      "emiştir.</w>": 5171,
      "emma</w>": 5172,
      "emmy</w>": 5173,
      "emn": 5174,
      "emniyet</w>": 5175,
      "emon": 5176,
      "emp": 5177,
      "emper": 5178,
      "empire</w>": 5179,
      "emr": 5180,
      "emre</w>": 5181,
      "emri</w>": 5182,
      "emriyle</w>": 5183,
      "en": 5184,
      "en\"</w>": 5185,
      "en'in</w>": 5186,
      "en)</w>": 5187,
      "en,</w>": 5188,
      "en-": 5189,
      "en:</w>": 5190,
      "en</w>": 5191,
      "ena</w>": 5192,
      "enc": 5193,
      "ence</w>": 5194,
      "ency": 5195,
      "encycl": 5196,
      "encycloped": 5197,
      "end": 5198,
      "end</w>": 5199,
      "ende": 5200,
      "ende</w>": 5201,
      "endeks": 5202,
      "enden</w>": 5203,
      "ender": 5204,
      "ender</w>": 5205,
      "endi</w>": 5206,
      "endir": 5207,
      "endir.</w>": 5208,
      "endirm": 5209,
      "endirme</w>": 5210,
      "endiş": 5211,
      "endişe</w>": 5212,
      "endon": 5213,
      "endonez": 5214,
      "endüst": 5215,
      "endüstr": 5216,
      "endüstri</w>": 5217,
      "endüstris": 5218,
      "endüstrisi</w>": 5219,
      "endüstriyel</w>": 5220,
      "ene</w>": 5221,
      "ener": 5222,
      "enerj": 5223,
      "enerji</w>": 5224,
      "enerjisi</w>": 5225,
      "enf": 5226,
      "enfek": 5227,
      "enfeksiyon": 5228,
      "eng": 5229,
      "engel": 5230,
      "engel</w>": 5231,
      "engellem": 5232,
      "engellemek</w>": 5233,
      "engelli</w>": 5234,
      "engi</w>": 5235,
      "engin</w>": 5236,
      "englis": 5237,
      "english</w>": 5238,
      "eni</w>": 5239,
      "enin</w>": 5240,
      "enj": 5241,
      "enler</w>": 5242,
      "enlere</w>": 5243,
      "enleri</w>": 5244,
      "enlerin</w>": 5245,
      "enli</w>": 5246,
      "enn": 5247,
      "enne</w>": 5248,
      "eno": 5249,
      "enos</w>": 5250,
      "ens": 5251,
      "ens</w>": 5252,
      "ense</w>": 5253,
      "ensis</w>": 5254,
      "enstit": 5255,
      "enstitüs": 5256,
      "enstitüsü</w>": 5257,
      "enstr": 5258,
      "enstrüm": 5259,
      "ent": 5260,
      "ent,</w>": 5261,
      "ent</w>": 5262,
      "ental</w>": 5263,
      "ente</w>": 5264,
      "entegr": 5265,
      "entegre</w>": 5266,
      "entel": 5267,
      "entelekt": 5268,
      "enter": 5269,
      "entertain": 5270,
      "entertainment</w>": 5271,
      "enti": 5272,
      "ento": 5273,
      "ento</w>": 5274,
      "entom": 5275,
      "ents</w>": 5276,
      "enver</w>": 5277,
      "enz": 5278,
      "eo</w>": 5279,
      "eon</w>": 5280,
      "ep": 5281,
      "ep</w>": 5282,
      "epe</w>": 5283,
      "epis": 5284,
      "eppe</w>": 5285,
      "equ": 5286,
      "er": 5287,
      "er\"</w>": 5288,
      "er'in</w>": 5289,
      "er'ın</w>": 5290,
      "er)</w>": 5291,
      "er,</w>": 5292,
      "er-": 5293,
      "er.</w>": 5294,
      "er</w>": 5295,
      "era</w>": 5296,
      "erc": 5297,
      "erdem</w>": 5298,
      "erdi.</w>": 5299,
      "erdoğ": 5300,
      "erdoğan</w>": 5301,
      "ere</w>": 5302,
      "erek,</w>": 5303,
      "erek</w>": 5304,
      "eren</w>": 5305,
      "erg": 5306,
      "ergen": 5307,
      "eri</w>": 5308,
      "eric": 5309,
      "eric</w>": 5310,
      "erik</w>": 5311,
      "erin</w>": 5312,
      "erit": 5313,
      "eriş": 5314,
      "erişim</w>": 5315,
      "erk": 5316,
      "erkan</w>": 5317,
      "erkek": 5318,
      "erkek</w>": 5319,
      "erkekler</w>": 5320,
      "erkeklerin</w>": 5321,
      "erken,</w>": 5322,
      "erken</w>": 5323,
      "erler.</w>": 5324,
      "erler</w>": 5325,
      "ermen": 5326,
      "ermeni</w>": 5327,
      "ermenistan</w>": 5328,
      "ern": 5329,
      "ern</w>": 5330,
      "ernst</w>": 5331,
      "ero": 5332,
      "ero</w>": 5333,
      "erol</w>": 5334,
      "eroz": 5335,
      "ers": 5336,
      "ers</w>": 5337,
      "ert": 5338,
      "ert</w>": 5339,
      "ertel": 5340,
      "ertelen": 5341,
      "ertesi</w>": 5342,
      "ertuğrul</w>": 5343,
      "erz": 5344,
      "erzinc": 5345,
      "erzur": 5346,
      "erzurum": 5347,
      "erzurum</w>": 5348,
      "es": 5349,
      "es\"</w>": 5350,
      "es'in</w>": 5351,
      "es)</w>": 5352,
      "es,</w>": 5353,
      "es-": 5354,
      "es.</w>": 5355,
      "es:</w>": 5356,
      "es</w>": 5357,
      "esas": 5358,
      "esas</w>": 5359,
      "esco</w>": 5360,
      "ese</w>": 5361,
      "esel</w>": 5362,
      "eser": 5363,
      "eser,</w>": 5364,
      "eser</w>": 5365,
      "eseri</w>": 5366,
      "eserin</w>": 5367,
      "eserinde</w>": 5368,
      "eserini</w>": 5369,
      "eserler</w>": 5370,
      "eserleri</w>": 5371,
      "eserlerin</w>": 5372,
      "eserlerinde</w>": 5373,
      "eserlerini</w>": 5374,
      "eserlerinin</w>": 5375,
      "esi": 5376,
      "esi\"</w>": 5377,
      "esi'nde</w>": 5378,
      "esi'nden</w>": 5379,
      "esi'ne</w>": 5380,
      "esi'ni</w>": 5381,
      "esi'nin</w>": 5382,
      "esi)</w>": 5383,
      "esi,</w>": 5384,
      "esi.</w>": 5385,
      "esi:</w>": 5386,
      "esi</w>": 5387,
      "esidir.</w>": 5388,
      "esin": 5389,
      "esin</w>": 5390,
      "esinde,</w>": 5391,
      "esinde</w>": 5392,
      "esindeki</w>": 5393,
      "esinden</w>": 5394,
      "esine</w>": 5395,
      "esini</w>": 5396,
      "esinin</w>": 5397,
      "esir": 5398,
      "esir</w>": 5399,
      "esiydi.</w>": 5400,
      "esiyle</w>": 5401,
      "esiz</w>": 5402,
      "esi’nde</w>": 5403,
      "esk": 5404,
      "eski</w>": 5405,
      "eskiden</w>": 5406,
      "eskim": 5407,
      "eskiş": 5408,
      "eskişehir": 5409,
      "eskişehir</w>": 5410,
      "esn": 5411,
      "esnasında</w>": 5412,
      "espor</w>": 5413,
      "ess</w>": 5414,
      "est": 5415,
      "est</w>": 5416,
      "ester": 5417,
      "ester</w>": 5418,
      "estetik</w>": 5419,
      "eston": 5420,
      "et": 5421,
      "et,</w>": 5422,
      "et-": 5423,
      "et</w>": 5424,
      "eta</w>": 5425,
      "etap": 5426,
      "etap</w>": 5427,
      "etaplar</w>": 5428,
      "ete</w>": 5429,
      "eter": 5430,
      "eter</w>": 5431,
      "eth": 5432,
      "eti,</w>": 5433,
      "eti</w>": 5434,
      "etik": 5435,
      "etik</w>": 5436,
      "etiket": 5437,
      "etiketiyle</w>": 5438,
      "etim": 5439,
      "etimoloji</w>": 5440,
      "etin</w>": 5441,
      "etine</w>": 5442,
      "etini</w>": 5443,
      "etinin</w>": 5444,
      "etiy": 5445,
      "etiyle</w>": 5446,
      "etiyop": 5447,
      "etk": 5448,
      "etken": 5449,
      "etki</w>": 5450,
      "etkil": 5451,
      "etkilen": 5452,
      "etkilenen</w>": 5453,
      "etkiler</w>": 5454,
      "etkileri</w>": 5455,
      "etkiley": 5456,
      "etkileyen</w>": 5457,
      "etkileş": 5458,
      "etkileşim</w>": 5459,
      "etkili</w>": 5460,
      "etkin": 5461,
      "etkin</w>": 5462,
      "etkinlik": 5463,
      "etkinlik</w>": 5464,
      "etkinlikler</w>": 5465,
      "etkinlikleri</w>": 5466,
      "etkinliği</w>": 5467,
      "etkis": 5468,
      "etkisi</w>": 5469,
      "etkisini</w>": 5470,
      "etkisiyle</w>": 5471,
      "etkisiz</w>": 5472,
      "etle</w>": 5473,
      "etler</w>": 5474,
      "etleri</w>": 5475,
      "etli</w>": 5476,
      "etm": 5477,
      "etme</w>": 5478,
      "etmek</w>": 5479,
      "etmekte</w>": 5480,
      "etmektedir.</w>": 5481,
      "etmeleri</w>": 5482,
      "etmem": 5483,
      "etmenin</w>": 5484,
      "etmesi</w>": 5485,
      "etmesine</w>": 5486,
      "etmesini</w>": 5487,
      "etmesiyle</w>": 5488,
      "etmey": 5489,
      "etmeye</w>": 5490,
      "etmeyi</w>": 5491,
      "etmiş": 5492,
      "etmiş,</w>": 5493,
      "etmiş</w>": 5494,
      "etmişlerdir.</w>": 5495,
      "etmişti.</w>": 5496,
      "etmiştir.</w>": 5497,
      "etnik</w>": 5498,
      "etno": 5499,
      "eto": 5500,
      "eton</w>": 5501,
      "etr": 5502,
      "etraf": 5503,
      "etrafında</w>": 5504,
      "etrafındaki</w>": 5505,
      "etre</w>": 5506,
      "etrik</w>": 5507,
      "ets</w>": 5508,
      "ett": 5509,
      "ett,</w>": 5510,
      "ett</w>": 5511,
      "etta</w>": 5512,
      "ette</w>": 5513,
      "etten</w>": 5514,
      "etti": 5515,
      "etti,</w>": 5516,
      "etti.</w>": 5517,
      "etti</w>": 5518,
      "ettikleri</w>": 5519,
      "ettikten</w>": 5520,
      "ettiler.</w>": 5521,
      "ettiler</w>": 5522,
      "ettin</w>": 5523,
      "ettir": 5524,
      "ettir.</w>": 5525,
      "ettirm": 5526,
      "ettiğ": 5527,
      "ettiği</w>": 5528,
      "ettiğini</w>": 5529,
      "etto</w>": 5530,
      "etz": 5531,
      "eu": 5532,
      "euc": 5533,
      "eur": 5534,
      "euro": 5535,
      "euro</w>": 5536,
      "eurole": 5537,
      "euroleague</w>": 5538,
      "europ": 5539,
      "european</w>": 5540,
      "eurov": 5541,
      "eurovision</w>": 5542,
      "eus</w>": 5543,
      "ev": 5544,
      "ev'in</w>": 5545,
      "ev,</w>": 5546,
      "ev</w>": 5547,
      "eva</w>": 5548,
      "evde</w>": 5549,
      "eve</w>": 5550,
      "evel": 5551,
      "ever": 5552,
      "ever</w>": 5553,
      "every": 5554,
      "evi,</w>": 5555,
      "evi</w>": 5556,
      "evin</w>": 5557,
      "evinde</w>": 5558,
      "evine</w>": 5559,
      "evinin</w>": 5560,
      "eviz": 5561,
      "eviç</w>": 5562,
      "evl": 5563,
      "evlen": 5564,
      "evlendi.</w>": 5565,
      "evler</w>": 5566,
      "evleri</w>": 5567,
      "evli</w>": 5568,
      "evlil": 5569,
      "evlilik</w>": 5570,
      "evliliği</w>": 5571,
      "evr": 5572,
      "evren": 5573,
      "evren</w>": 5574,
      "evrenin</w>": 5575,
      "evrensel</w>": 5576,
      "evrim": 5577,
      "evrim</w>": 5578,
      "evrimsel</w>": 5579,
      "ew": 5580,
      "ew</w>": 5581,
      "ex": 5582,
      "ex</w>": 5583,
      "expl": 5584,
      "ey": 5585,
      "ey,</w>": 5586,
      "ey</w>": 5587,
      "eyalet": 5588,
      "eyalet</w>": 5589,
      "eyaleti</w>": 5590,
      "eyaletinde</w>": 5591,
      "eyaletinin</w>": 5592,
      "eydi.</w>": 5593,
      "eye</w>": 5594,
      "eyen</w>": 5595,
      "eyh": 5596,
      "eyi</w>": 5597,
      "eyl": 5598,
      "eyle</w>": 5599,
      "eylem": 5600,
      "eylem</w>": 5601,
      "eylül": 5602,
      "eylül'de</w>": 5603,
      "eylül</w>": 5604,
      "eyn": 5605,
      "eyy": 5606,
      "ez": 5607,
      "ez,</w>": 5608,
      "ez.</w>": 5609,
      "ez</w>": 5610,
      "ezi</w>": 5611,
      "ezil": 5612,
      "eç": 5613,
      "eç</w>": 5614,
      "eğ": 5615,
      "eğe</w>": 5616,
      "eğer</w>": 5617,
      "eği,</w>": 5618,
      "eği</w>": 5619,
      "eğil": 5620,
      "eğilim": 5621,
      "eğin</w>": 5622,
      "eğinde</w>": 5623,
      "eğinden</w>": 5624,
      "eğine</w>": 5625,
      "eğini</w>": 5626,
      "eğinin</w>": 5627,
      "eğit": 5628,
      "eğitim": 5629,
      "eğitim,</w>": 5630,
      "eğitim</w>": 5631,
      "eğitimi</w>": 5632,
      "eğitimine</w>": 5633,
      "eğitimini</w>": 5634,
      "eğiyle</w>": 5635,
      "eğlen": 5636,
      "eğlenc": 5637,
      "eğlence</w>": 5638,
      "eğr": 5639,
      "eş": 5640,
      "eş</w>": 5641,
      "eşcinsel": 5642,
      "eşcinsel</w>": 5643,
      "eşi</w>": 5644,
      "eşit": 5645,
      "eşit</w>": 5646,
      "eşitlik</w>": 5647,
      "eşleş": 5648,
      "eşlik</w>": 5649,
      "eşliğinde</w>": 5650,
      "eşy": 5651,
      "e’nin</w>": 5652,
      "e”</w>": 5653,
      "f": 5654,
      "f)</w>": 5655,
      "f,</w>": 5656,
      "f-": 5657,
      "f.": 5658,
      "f.</w>": 5659,
      "f2": 5660,
      "f2f2": 5661,
      "f2f2f2": 5662,
      "f</w>": 5663,
      "fa": 5664,
      "fa</w>": 5665,
      "faal": 5666,
      "faaliyet": 5667,
      "faaliyet</w>": 5668,
      "faaliyete</w>": 5669,
      "faaliyetleri</w>": 5670,
      "faaliyetlerine</w>": 5671,
      "faaliyetlerini</w>": 5672,
      "fab": 5673,
      "fabrik": 5674,
      "fabrika</w>": 5675,
      "fabrikası</w>": 5676,
      "fac": 5677,
      "face</w>": 5678,
      "facebo": 5679,
      "facebook</w>": 5680,
      "fah": 5681,
      "fahr": 5682,
      "fahri</w>": 5683,
      "fair": 5684,
      "fak": 5685,
      "fakat,</w>": 5686,
      "fakat</w>": 5687,
      "fakir</w>": 5688,
      "faktör": 5689,
      "fakül": 5690,
      "fakült": 5691,
      "fakültes": 5692,
      "fakültesi</w>": 5693,
      "fakültesinde</w>": 5694,
      "fal": 5695,
      "fall": 5696,
      "fall</w>": 5697,
      "fam": 5698,
      "famil": 5699,
      "family</w>": 5700,
      "familya</w>": 5701,
      "familyas": 5702,
      "fan": 5703,
      "fan</w>": 5704,
      "fant": 5705,
      "fantas": 5706,
      "fantastik</w>": 5707,
      "far": 5708,
      "fare</w>": 5709,
      "fark": 5710,
      "fark</w>": 5711,
      "farkl": 5712,
      "farklı</w>": 5713,
      "farklıdır.</w>": 5714,
      "farklılık": 5715,
      "farklılık</w>": 5716,
      "farklılıklar</w>": 5717,
      "farkı</w>": 5718,
      "fars": 5719,
      "farsça</w>": 5720,
      "faruk</w>": 5721,
      "fas": 5722,
      "fat": 5723,
      "fat</w>": 5724,
      "fatih": 5725,
      "fatih</w>": 5726,
      "fatma</w>": 5727,
      "fav": 5728,
      "fay": 5729,
      "fayd": 5730,
      "faydalan": 5731,
      "faz": 5732,
      "faz</w>": 5733,
      "fazla</w>": 5734,
      "fazlad": 5735,
      "fazlas": 5736,
      "fazlası</w>": 5737,
      "faş": 5738,
      "fc": 5739,
      "fc</w>": 5740,
      "fe": 5741,
      "feat": 5742,
      "feat.</w>": 5743,
      "featur": 5744,
      "featuring</w>": 5745,
      "fed": 5746,
      "feder": 5747,
      "federal</w>": 5748,
      "federasyon": 5749,
      "federasyon</w>": 5750,
      "federasyonu</w>": 5751,
      "feh": 5752,
      "fel": 5753,
      "felak": 5754,
      "feld": 5755,
      "felsef": 5756,
      "felsefe</w>": 5757,
      "felsefesi</w>": 5758,
      "felsefi</w>": 5759,
      "fem": 5760,
      "femin": 5761,
      "feminist</w>": 5762,
      "fen": 5763,
      "fen</w>": 5764,
      "fener": 5765,
      "fenerbah": 5766,
      "fenerbahç": 5767,
      "fenerbahçe</w>": 5768,
      "fenom": 5769,
      "fer": 5770,
      "fer</w>": 5771,
      "ferdin": 5772,
      "feri</w>": 5773,
      "fern": 5774,
      "fernando</w>": 5775,
      "ferrar": 5776,
      "fes": 5777,
      "fesh": 5778,
      "festi": 5779,
      "festival": 5780,
      "festival</w>": 5781,
      "festivali'nde</w>": 5782,
      "festivali,</w>": 5783,
      "festivali</w>": 5784,
      "fet": 5785,
      "feth": 5786,
      "fethi</w>": 5787,
      "fett": 5788,
      "fev": 5789,
      "fey": 5790,
      "ff": 5791,
      "ff\"|</w>": 5792,
      "ff</w>": 5793,
      "ffff": 5794,
      "fi": 5795,
      "fi</w>": 5796,
      "fib": 5797,
      "fiba</w>": 5798,
      "fid": 5799,
      "fiel": 5800,
      "field": 5801,
      "field</w>": 5802,
      "fif": 5803,
      "fifa</w>": 5804,
      "fig": 5805,
      "figür": 5806,
      "fiilen</w>": 5807,
      "fik": 5808,
      "fik</w>": 5809,
      "fikir": 5810,
      "fikir</w>": 5811,
      "fikr": 5812,
      "fikret</w>": 5813,
      "fikri</w>": 5814,
      "fikrini</w>": 5815,
      "fil": 5816,
      "filip": 5817,
      "filist": 5818,
      "filistin": 5819,
      "filistin</w>": 5820,
      "film": 5821,
      "film)</w>": 5822,
      "film,</w>": 5823,
      "film</w>": 5824,
      "filmde</w>": 5825,
      "filmdeki</w>": 5826,
      "filme</w>": 5827,
      "filmi)</w>": 5828,
      "filmi.</w>": 5829,
      "filmi</w>": 5830,
      "filmidir.</w>": 5831,
      "filmin</w>": 5832,
      "filminde</w>": 5833,
      "filminin</w>": 5834,
      "filmler</w>": 5835,
      "filmlerde</w>": 5836,
      "filmleri</w>": 5837,
      "filmlerinde</w>": 5838,
      "filmografi</w>": 5839,
      "filmografisi</w>": 5840,
      "filo</w>": 5841,
      "filos": 5842,
      "filosu</w>": 5843,
      "filoz": 5844,
      "filozof": 5845,
      "filozof</w>": 5846,
      "filtr": 5847,
      "fin": 5848,
      "fin</w>": 5849,
      "final": 5850,
      "final</w>": 5851,
      "finalde</w>": 5852,
      "finale</w>": 5853,
      "finali</w>": 5854,
      "finalinde</w>": 5855,
      "finans": 5856,
      "finans</w>": 5857,
      "finansal</w>": 5858,
      "finanse</w>": 5859,
      "finland": 5860,
      "finlandiy": 5861,
      "finlandiya</w>": 5862,
      "fir": 5863,
      "firav": 5864,
      "fire</w>": 5865,
      "firm": 5866,
      "firması</w>": 5867,
      "first</w>": 5868,
      "fis": 5869,
      "fit": 5870,
      "fiyat": 5871,
      "fiyat</w>": 5872,
      "fiz": 5873,
      "fizik": 5874,
      "fizik</w>": 5875,
      "fiziksel</w>": 5876,
      "fizikçi</w>": 5877,
      "fizy": 5878,
      "fk</w>": 5879,
      "fl": 5880,
      "flam": 5881,
      "flas": 5882,
      "fle": 5883,
      "fli": 5884,
      "flor": 5885,
      "florans": 5886,
      "florid": 5887,
      "fm</w>": 5888,
      "fo": 5889,
      "fol": 5890,
      "fon": 5891,
      "fon</w>": 5892,
      "fonksiy": 5893,
      "fonksiyon": 5894,
      "fonksiyon</w>": 5895,
      "fonksiyonu</w>": 5896,
      "font-": 5897,
      "font-siz": 5898,
      "font-size:": 5899,
      "font-size:90": 5900,
      "font-size:90%;</w>": 5901,
      "foot": 5902,
      "football</w>": 5903,
      "for": 5904,
      "for</w>": 5905,
      "ford": 5906,
      "ford,</w>": 5907,
      "ford</w>": 5908,
      "form": 5909,
      "form</w>": 5910,
      "forma</w>": 5911,
      "formas": 5912,
      "forması</w>": 5913,
      "formasını</w>": 5914,
      "formasıyla</w>": 5915,
      "format": 5916,
      "formayı</w>": 5917,
      "formula</w>": 5918,
      "formül": 5919,
      "fort": 5920,
      "fort</w>": 5921,
      "forvet</w>": 5922,
      "fos": 5923,
      "fosil</w>": 5924,
      "fot": 5925,
      "fotoğraf": 5926,
      "fotoğraf</w>": 5927,
      "fotoğraflar</w>": 5928,
      "found": 5929,
      "four": 5930,
      "four</w>": 5931,
      "fox": 5932,
      "fox</w>": 5933,
      "fr": 5934,
      "frag": 5935,
      "fran": 5936,
      "franc": 5937,
      "france</w>": 5938,
      "francis": 5939,
      "francis</w>": 5940,
      "francisco</w>": 5941,
      "frank": 5942,
      "frank</w>": 5943,
      "frankfur": 5944,
      "frankfurt</w>": 5945,
      "frans": 5946,
      "fransa'da</w>": 5947,
      "fransa'daki</w>": 5948,
      "fransa'nın</w>": 5949,
      "fransa'ya</w>": 5950,
      "fransa,</w>": 5951,
      "fransa</w>": 5952,
      "fransız": 5953,
      "fransız</w>": 5954,
      "fransızca</w>": 5955,
      "fransızlar</w>": 5956,
      "franz</w>": 5957,
      "franço": 5958,
      "françois</w>": 5959,
      "fre": 5960,
      "fred": 5961,
      "fred</w>": 5962,
      "freder": 5963,
      "frederick</w>": 5964,
      "free</w>": 5965,
      "frek": 5966,
      "frekans": 5967,
      "frekans</w>": 5968,
      "fren": 5969,
      "frey</w>": 5970,
      "fri": 5971,
      "fried": 5972,
      "friedrich</w>": 5973,
      "friend": 5974,
      "fro": 5975,
      "from</w>": 5976,
      "fron": 5977,
      "ft": 5978,
      "ft</w>": 5979,
      "fu": 5980,
      "fu</w>": 5981,
      "fuat</w>": 5982,
      "ful": 5983,
      "fun": 5984,
      "fur": 5985,
      "fus": 5986,
      "fut": 5987,
      "futbol": 5988,
      "futbol</w>": 5989,
      "futbola</w>": 5990,
      "futbolcu": 5991,
      "futbolcu,</w>": 5992,
      "futbolcu</w>": 5993,
      "futbolcudur.</w>": 5994,
      "futbolcular</w>": 5995,
      "futbolcuları</w>": 5996,
      "futbolculuk</w>": 5997,
      "futbolcusu</w>": 5998,
      "futbolu</w>": 5999,
      "fü": 6000,
      "führ": 6001,
      "fün": 6002,
      "für</w>": 6003,
      "füz": 6004,
      "füze</w>": 6005,
      "fık": 6006,
      "fınd": 6007,
      "fır": 6008,
      "fırat</w>": 6009,
      "fırlat": 6010,
      "fırlatma</w>": 6011,
      "fırsat": 6012,
      "fırsat</w>": 6013,
      "fırsatı</w>": 6014,
      "fırt": 6015,
      "fırtın": 6016,
      "fırtına</w>": 6017,
      "g": 6018,
      "g)</w>": 6019,
      "g,</w>": 6020,
      "g-": 6021,
      "g.": 6022,
      "g.</w>": 6023,
      "g</w>": 6024,
      "ga": 6025,
      "ga</w>": 6026,
      "gab": 6027,
      "gabri": 6028,
      "gabriel</w>": 6029,
      "gad": 6030,
      "gag": 6031,
      "gah": 6032,
      "gal": 6033,
      "gal</w>": 6034,
      "galaks": 6035,
      "galar</w>": 6036,
      "galatas": 6037,
      "galatasar": 6038,
      "galatasaray": 6039,
      "galatasaray</w>": 6040,
      "galax": 6041,
      "galaxy</w>": 6042,
      "galer": 6043,
      "galeri</w>": 6044,
      "galerisi,</w>": 6045,
      "galerisi</w>": 6046,
      "galib": 6047,
      "galibiyet": 6048,
      "galibiyet</w>": 6049,
      "galile": 6050,
      "galip</w>": 6051,
      "galler": 6052,
      "galler</w>": 6053,
      "gam": 6054,
      "game</w>": 6055,
      "games</w>": 6056,
      "gan": 6057,
      "gan</w>": 6058,
      "gang": 6059,
      "gang</w>": 6060,
      "gar": 6061,
      "gar</w>": 6062,
      "garanti</w>": 6063,
      "gard": 6064,
      "garip</w>": 6065,
      "garniz": 6066,
      "gary</w>": 6067,
      "gas": 6068,
      "gat": 6069,
      "gate</w>": 6070,
      "gay": 6071,
      "gay</w>": 6072,
      "gayet</w>": 6073,
      "gayr": 6074,
      "gayrim": 6075,
      "gaz": 6076,
      "gaz</w>": 6077,
      "gazet": 6078,
      "gazete</w>": 6079,
      "gazetec": 6080,
      "gazeteci</w>": 6081,
      "gazeteciler</w>": 6082,
      "gazetecileri</w>": 6083,
      "gazetecilik</w>": 6084,
      "gazetesi</w>": 6085,
      "gazetesinde</w>": 6086,
      "gazi": 6087,
      "gazi</w>": 6088,
      "gaziant": 6089,
      "gaziantep": 6090,
      "gaziantep</w>": 6091,
      "gb": 6092,
      "gb</w>": 6093,
      "ge": 6094,
      "ge,</w>": 6095,
      "ge</w>": 6096,
      "geb": 6097,
      "gebel": 6098,
      "gec": 6099,
      "gece</w>": 6100,
      "gecesi</w>": 6101,
      "gecik": 6102,
      "ged": 6103,
      "gel": 6104,
      "gel</w>": 6105,
      "geldi.</w>": 6106,
      "geldi</w>": 6107,
      "geldiği</w>": 6108,
      "geldiğinde</w>": 6109,
      "geldiğini</w>": 6110,
      "gelec": 6111,
      "gelecek</w>": 6112,
      "gelecekte</w>": 6113,
      "gelecekteki</w>": 6114,
      "geleceğ": 6115,
      "gelen": 6116,
      "gelen</w>": 6117,
      "gelenek": 6118,
      "geleneksel</w>": 6119,
      "geleneği</w>": 6120,
      "geler": 6121,
      "geler</w>": 6122,
      "gelerek</w>": 6123,
      "geleri</w>": 6124,
      "gelin": 6125,
      "gelindiğinde</w>": 6126,
      "gelip</w>": 6127,
      "gelir": 6128,
      "gelir.</w>": 6129,
      "gelir</w>": 6130,
      "geliyordu.</w>": 6131,
      "geliş": 6132,
      "gelişen</w>": 6133,
      "gelişim</w>": 6134,
      "gelişimi</w>": 6135,
      "gelişm": 6136,
      "gelişme</w>": 6137,
      "gelişmeler</w>": 6138,
      "gelişmesi</w>": 6139,
      "gelişmiş</w>": 6140,
      "geliştir": 6141,
      "geliştirdi.</w>": 6142,
      "geliştiric": 6143,
      "geliştirilen</w>": 6144,
      "geliştirilm": 6145,
      "geliştirilmesi</w>": 6146,
      "geliştirilmiş</w>": 6147,
      "geliştirilmiştir.</w>": 6148,
      "geliştirm": 6149,
      "geliştirme</w>": 6150,
      "geliştirmek</w>": 6151,
      "gelmektedir.</w>": 6152,
      "gelmesi</w>": 6153,
      "gelmiş</w>": 6154,
      "gelmiştir.</w>": 6155,
      "gem": 6156,
      "gemi</w>": 6157,
      "gemiler</w>": 6158,
      "gemileri</w>": 6159,
      "geminin</w>": 6160,
      "gemisi</w>": 6161,
      "gen": 6162,
      "gen,</w>": 6163,
      "gen</w>": 6164,
      "gene</w>": 6165,
      "genel": 6166,
      "genel</w>": 6167,
      "genelde</w>": 6168,
      "genelinde</w>": 6169,
      "genelkurmay</w>": 6170,
      "genellikle</w>": 6171,
      "gener": 6172,
      "general": 6173,
      "general</w>": 6174,
      "genetik</w>": 6175,
      "genin</w>": 6176,
      "geniş": 6177,
      "geniş</w>": 6178,
      "genişl": 6179,
      "genişlem": 6180,
      "genişleme</w>": 6181,
      "genişlet": 6182,
      "genç": 6183,
      "genç</w>": 6184,
      "gençler": 6185,
      "gençler</w>": 6186,
      "gençlik</w>": 6187,
      "geomet": 6188,
      "geometrik</w>": 6189,
      "georg": 6190,
      "georg</w>": 6191,
      "george</w>": 6192,
      "georges</w>": 6193,
      "ger": 6194,
      "ger,</w>": 6195,
      "ger</w>": 6196,
      "gerek": 6197,
      "gerek</w>": 6198,
      "gereken</w>": 6199,
      "gerekir.</w>": 6200,
      "gerekli</w>": 6201,
      "gereklidir.</w>": 6202,
      "gerekmektedir.</w>": 6203,
      "gerekse</w>": 6204,
      "gereksin": 6205,
      "gerektir": 6206,
      "gerektiren</w>": 6207,
      "gerektirir.</w>": 6208,
      "gerektirm": 6209,
      "gerektiğ": 6210,
      "gerektiği</w>": 6211,
      "gerektiğini</w>": 6212,
      "gerekç": 6213,
      "gerekçesiyle</w>": 6214,
      "gereği</w>": 6215,
      "gergin": 6216,
      "geri</w>": 6217,
      "geride</w>": 6218,
      "geril": 6219,
      "gerilim</w>": 6220,
      "geriye</w>": 6221,
      "german": 6222,
      "gers</w>": 6223,
      "gerç": 6224,
      "gerçek": 6225,
      "gerçek</w>": 6226,
      "gerçekleş": 6227,
      "gerçekleşen</w>": 6228,
      "gerçekleşir.</w>": 6229,
      "gerçekleşmiştir.</w>": 6230,
      "gerçekleşti.</w>": 6231,
      "gerçekleştir": 6232,
      "gerçekleştirdi.</w>": 6233,
      "gerçekleştirdiği</w>": 6234,
      "gerçekleştiril": 6235,
      "gerçekleştirildi.</w>": 6236,
      "gerçekleştirilen</w>": 6237,
      "gerçekleştirilmiştir.</w>": 6238,
      "gerçekleştirm": 6239,
      "gerçekte</w>": 6240,
      "gerçekten</w>": 6241,
      "gerçekçi</w>": 6242,
      "ges": 6243,
      "gesch": 6244,
      "gesi</w>": 6245,
      "get": 6246,
      "get</w>": 6247,
      "getir": 6248,
      "getirdi.</w>": 6249,
      "getirdiği</w>": 6250,
      "getiren</w>": 6251,
      "getiril": 6252,
      "getirildi.</w>": 6253,
      "getirilen</w>": 6254,
      "getirilm": 6255,
      "getirilmiştir.</w>": 6256,
      "getirir.</w>": 6257,
      "getirm": 6258,
      "getirmek</w>": 6259,
      "getirmiştir.</w>": 6260,
      "gev": 6261,
      "gey": 6262,
      "gez": 6263,
      "geze": 6264,
      "gezegen": 6265,
      "gezegen</w>": 6266,
      "gezi</w>": 6267,
      "geç": 6268,
      "geç</w>": 6269,
      "geçen</w>": 6270,
      "geçer": 6271,
      "geçer.</w>": 6272,
      "geçer</w>": 6273,
      "geçerek</w>": 6274,
      "geçerli</w>": 6275,
      "geçersiz</w>": 6276,
      "geçici</w>": 6277,
      "geçir": 6278,
      "geçirdi.</w>": 6279,
      "geçirdi</w>": 6280,
      "geçirdiği</w>": 6281,
      "geçiren</w>": 6282,
      "geçirm": 6283,
      "geçirmek</w>": 6284,
      "geçirmiştir.</w>": 6285,
      "geçiş</w>": 6286,
      "geçm": 6287,
      "geçmeden</w>": 6288,
      "geçmek</w>": 6289,
      "geçmektedir.</w>": 6290,
      "geçmesi</w>": 6291,
      "geçmiş": 6292,
      "geçmiş</w>": 6293,
      "geçmişi</w>": 6294,
      "geçmişte</w>": 6295,
      "geçmiştir.</w>": 6296,
      "geçti.</w>": 6297,
      "geçti</w>": 6298,
      "geçtiği</w>": 6299,
      "gh": 6300,
      "gho": 6301,
      "gi": 6302,
      "gi</w>": 6303,
      "gib": 6304,
      "gibi)</w>": 6305,
      "gibi,</w>": 6306,
      "gibi.</w>": 6307,
      "gibi</w>": 6308,
      "gid": 6309,
      "gide": 6310,
      "gide</w>": 6311,
      "giden</w>": 6312,
      "gider": 6313,
      "gider.</w>": 6314,
      "gider</w>": 6315,
      "giderek</w>": 6316,
      "giderken</w>": 6317,
      "gidip</w>": 6318,
      "gig": 6319,
      "gil": 6320,
      "gil</w>": 6321,
      "giler</w>": 6322,
      "gileri</w>": 6323,
      "gili</w>": 6324,
      "giller</w>": 6325,
      "gin": 6326,
      "gin</w>": 6327,
      "ginç</w>": 6328,
      "gio</w>": 6329,
      "giorg": 6330,
      "giov": 6331,
      "giovanni</w>": 6332,
      "gir": 6333,
      "girdi.</w>": 6334,
      "girdi</w>": 6335,
      "girdiği</w>": 6336,
      "giren</w>": 6337,
      "girer.</w>": 6338,
      "girerek</w>": 6339,
      "gires": 6340,
      "giriş": 6341,
      "giriş</w>": 6342,
      "girişi</w>": 6343,
      "girişim": 6344,
      "girişim</w>": 6345,
      "girişimi</w>": 6346,
      "girl": 6347,
      "girl</w>": 6348,
      "girls</w>": 6349,
      "girm": 6350,
      "girmesi</w>": 6351,
      "girmiş</w>": 6352,
      "girmiştir.</w>": 6353,
      "giro</w>": 6354,
      "gis": 6355,
      "gisi</w>": 6356,
      "gisini</w>": 6357,
      "git": 6358,
      "git</w>": 6359,
      "gitar": 6360,
      "gitar,</w>": 6361,
      "gitar</w>": 6362,
      "gitarist</w>": 6363,
      "gitmek</w>": 6364,
      "gitti.</w>": 6365,
      "gitti</w>": 6366,
      "gittikçe</w>": 6367,
      "gittiği</w>": 6368,
      "gius": 6369,
      "giy": 6370,
      "giydi.</w>": 6371,
      "giyen</w>": 6372,
      "giymiştir.</w>": 6373,
      "giys": 6374,
      "giz": 6375,
      "giz</w>": 6376,
      "gizem": 6377,
      "gizemli</w>": 6378,
      "gizli</w>": 6379,
      "gizlice</w>": 6380,
      "glad": 6381,
      "glas": 6382,
      "glen": 6383,
      "glo": 6384,
      "global</w>": 6385,
      "glor": 6386,
      "gn": 6387,
      "go": 6388,
      "go</w>": 6389,
      "god": 6390,
      "gol": 6391,
      "gol</w>": 6392,
      "gold": 6393,
      "gold</w>": 6394,
      "golden</w>": 6395,
      "golle</w>": 6396,
      "golü</w>": 6397,
      "golünü</w>": 6398,
      "gom": 6399,
      "gon": 6400,
      "good": 6401,
      "good</w>": 6402,
      "goog": 6403,
      "google</w>": 6404,
      "gor": 6405,
      "gord": 6406,
      "gordon</w>": 6407,
      "gos": 6408,
      "got": 6409,
      "got</w>": 6410,
      "gp</w>": 6411,
      "gr": 6412,
      "grad": 6413,
      "grad</w>": 6414,
      "graf": 6415,
      "graf</w>": 6416,
      "grafi</w>": 6417,
      "grafik</w>": 6418,
      "grah": 6419,
      "gram": 6420,
      "gram</w>": 6421,
      "grammy</w>": 6422,
      "gran": 6423,
      "grand": 6424,
      "grand</w>": 6425,
      "grap": 6426,
      "graph": 6427,
      "grav": 6428,
      "gre": 6429,
      "great": 6430,
      "great</w>": 6431,
      "green": 6432,
      "green</w>": 6433,
      "gregor": 6434,
      "grek": 6435,
      "gren": 6436,
      "gri</w>": 6437,
      "grif": 6438,
      "grig": 6439,
      "grim": 6440,
      "gro": 6441,
      "ground": 6442,
      "group</w>": 6443,
      "gru": 6444,
      "grub": 6445,
      "gruba</w>": 6446,
      "grubu,</w>": 6447,
      "grubu</w>": 6448,
      "grubun</w>": 6449,
      "grubuna</w>": 6450,
      "grubunda</w>": 6451,
      "grubunu</w>": 6452,
      "grubunun</w>": 6453,
      "grup": 6454,
      "grup,</w>": 6455,
      "grup</w>": 6456,
      "gruplar</w>": 6457,
      "gruplara</w>": 6458,
      "grupları</w>": 6459,
      "grupların</w>": 6460,
      "grupta</w>": 6461,
      "gruptan</w>": 6462,
      "gs": 6463,
      "gs</w>": 6464,
      "gsy": 6465,
      "gu": 6466,
      "gu</w>": 6467,
      "guar": 6468,
      "guardi": 6469,
      "gue</w>": 6470,
      "guer": 6471,
      "guil": 6472,
      "gul": 6473,
      "gun": 6474,
      "gun</w>": 6475,
      "gur": 6476,
      "gurbet": 6477,
      "gurbetçi</w>": 6478,
      "gurbetçiler</w>": 6479,
      "gust": 6480,
      "gut": 6481,
      "gut</w>": 6482,
      "guy": 6483,
      "guy</w>": 6484,
      "gw": 6485,
      "gy": 6486,
      "gy</w>": 6487,
      "gâ": 6488,
      "gâh": 6489,
      "gö": 6490,
      "gök": 6491,
      "gök</w>": 6492,
      "gökhan</w>": 6493,
      "göks": 6494,
      "gökyüz": 6495,
      "göl": 6496,
      "göl</w>": 6497,
      "gölü</w>": 6498,
      "göm": 6499,
      "gömül": 6500,
      "gön": 6501,
      "gönder": 6502,
      "gönderdi.</w>": 6503,
      "gönderdiği</w>": 6504,
      "gönderil": 6505,
      "gönderildi.</w>": 6506,
      "gönderilen</w>": 6507,
      "gönül": 6508,
      "gönül</w>": 6509,
      "gönüllü</w>": 6510,
      "gör": 6511,
      "gördü.</w>": 6512,
      "gördüğü</w>": 6513,
      "göre,</w>": 6514,
      "göre</w>": 6515,
      "görel": 6516,
      "gören</w>": 6517,
      "görenler</w>": 6518,
      "görev": 6519,
      "görev</w>": 6520,
      "görevde</w>": 6521,
      "görevden</w>": 6522,
      "göreve</w>": 6523,
      "görevi</w>": 6524,
      "görevinde</w>": 6525,
      "görevinden</w>": 6526,
      "görevine</w>": 6527,
      "görevini</w>": 6528,
      "görevlendir": 6529,
      "görevlendirildi.</w>": 6530,
      "görevler</w>": 6531,
      "görevleri</w>": 6532,
      "görevlerinde</w>": 6533,
      "görevlerini</w>": 6534,
      "görevli</w>": 6535,
      "görevlisi</w>": 6536,
      "görme</w>": 6537,
      "görmek</w>": 6538,
      "görmüş</w>": 6539,
      "görmüştür.</w>": 6540,
      "görsel": 6541,
      "görsel</w>": 6542,
      "görül": 6543,
      "görüldü.</w>": 6544,
      "görüldüğü</w>": 6545,
      "görüle": 6546,
      "görülebil": 6547,
      "görülebilir.</w>": 6548,
      "görülen</w>": 6549,
      "görülmektedir.</w>": 6550,
      "görülmüştür.</w>": 6551,
      "görülür.</w>": 6552,
      "görün": 6553,
      "görünen</w>": 6554,
      "görünt": 6555,
      "görüntü": 6556,
      "görüntü</w>": 6557,
      "görüntül": 6558,
      "görünüm": 6559,
      "görünür</w>": 6560,
      "görünüş": 6561,
      "görür.</w>": 6562,
      "görüş": 6563,
      "görüş</w>": 6564,
      "görüşler</w>": 6565,
      "görüşleri</w>": 6566,
      "görüşm": 6567,
      "görüşü</w>": 6568,
      "göst": 6569,
      "göster": 6570,
      "gösterdi.</w>": 6571,
      "gösterdiği</w>": 6572,
      "gösteren</w>": 6573,
      "göstererek</w>": 6574,
      "gösteri</w>": 6575,
      "gösteril": 6576,
      "gösterildi.</w>": 6577,
      "gösterilen</w>": 6578,
      "gösterilir.</w>": 6579,
      "gösterilm": 6580,
      "gösterilmiştir.</w>": 6581,
      "gösterime</w>": 6582,
      "gösterir.</w>": 6583,
      "göstermek</w>": 6584,
      "göstermektedir.</w>": 6585,
      "göstermiştir.</w>": 6586,
      "götür": 6587,
      "götürül": 6588,
      "göv": 6589,
      "gövde</w>": 6590,
      "göz": 6591,
      "göz</w>": 6592,
      "gözaltına</w>": 6593,
      "gözden</w>": 6594,
      "göze</w>": 6595,
      "gözet": 6596,
      "gözlem": 6597,
      "gözlem</w>": 6598,
      "gözlemlen": 6599,
      "gözük": 6600,
      "göç": 6601,
      "göç</w>": 6602,
      "göçmen": 6603,
      "göçmen</w>": 6604,
      "göçmenler</w>": 6605,
      "göğ": 6606,
      "göğüs</w>": 6607,
      "gü": 6608,
      "gü</w>": 6609,
      "güc": 6610,
      "gücü</w>": 6611,
      "gücüne</w>": 6612,
      "gücünü</w>": 6613,
      "gücünün</w>": 6614,
      "gül": 6615,
      "gül</w>": 6616,
      "güler</w>": 6617,
      "güm": 6618,
      "gümrük</w>": 6619,
      "gümüş": 6620,
      "gümüş</w>": 6621,
      "gün": 6622,
      "gün,</w>": 6623,
      "gün</w>": 6624,
      "günah": 6625,
      "güncel": 6626,
      "güncel</w>": 6627,
      "güncellem": 6628,
      "günde</w>": 6629,
      "gündem": 6630,
      "gündeme</w>": 6631,
      "günden</w>": 6632,
      "gündüz</w>": 6633,
      "güne</w>": 6634,
      "güney": 6635,
      "güney</w>": 6636,
      "güneybatı</w>": 6637,
      "güneyde</w>": 6638,
      "güneydoğu</w>": 6639,
      "güneye</w>": 6640,
      "güneyinde</w>": 6641,
      "güneş": 6642,
      "güneş</w>": 6643,
      "günler</w>": 6644,
      "günlerde</w>": 6645,
      "günleri</w>": 6646,
      "günlük</w>": 6647,
      "günü,</w>": 6648,
      "günü</w>": 6649,
      "günümüz": 6650,
      "günümüz)</w>": 6651,
      "günümüz</w>": 6652,
      "günümüzde</w>": 6653,
      "günümüzdeki</w>": 6654,
      "günümüze</w>": 6655,
      "günün</w>": 6656,
      "gününde</w>": 6657,
      "gür": 6658,
      "gürc": 6659,
      "gürcistan'ın</w>": 6660,
      "gürcistan</w>": 6661,
      "gürcü": 6662,
      "gürcü</w>": 6663,
      "gürcüce</w>": 6664,
      "güreş": 6665,
      "güreş</w>": 6666,
      "güreşçi</w>": 6667,
      "gürül": 6668,
      "güven": 6669,
      "güven</w>": 6670,
      "güvence</w>": 6671,
      "güvenilir</w>": 6672,
      "güvenli</w>": 6673,
      "güvenlik</w>": 6674,
      "güvenliği</w>": 6675,
      "güver": 6676,
      "güz": 6677,
      "güzel": 6678,
      "güzel</w>": 6679,
      "güzer": 6680,
      "güç": 6681,
      "güç</w>": 6682,
      "güçlendir": 6683,
      "güçler</w>": 6684,
      "güçleri</w>": 6685,
      "güçlerini</w>": 6686,
      "güçlerinin</w>": 6687,
      "güçlü</w>": 6688,
      "gıda</w>": 6689,
      "gın": 6690,
      "gın</w>": 6691,
      "h": 6692,
      "h'in</w>": 6693,
      "h)</w>": 6694,
      "h,</w>": 6695,
      "h-": 6696,
      "h.": 6697,
      "h.</w>": 6698,
      "h</w>": 6699,
      "ha": 6700,
      "ha</w>": 6701,
      "hab": 6702,
      "haber": 6703,
      "haber</w>": 6704,
      "haberi</w>": 6705,
      "habit": 6706,
      "hac": 6707,
      "hacett": 6708,
      "hacettepe</w>": 6709,
      "hacı</w>": 6710,
      "had": 6711,
      "hadis": 6712,
      "haf": 6713,
      "haf</w>": 6714,
      "hafif": 6715,
      "hafif</w>": 6716,
      "haft": 6717,
      "hafta</w>": 6718,
      "haftada</w>": 6719,
      "haftal": 6720,
      "haftalık</w>": 6721,
      "haftasında</w>": 6722,
      "hafız": 6723,
      "hag": 6724,
      "hah": 6725,
      "hak": 6726,
      "hak</w>": 6727,
      "hakan</w>": 6728,
      "hakem": 6729,
      "hakem</w>": 6730,
      "hakim": 6731,
      "hakim</w>": 6732,
      "hakimiyeti</w>": 6733,
      "hakk": 6734,
      "hakkı</w>": 6735,
      "hakkında</w>": 6736,
      "hakkındaki</w>": 6737,
      "hakkını</w>": 6738,
      "haklar</w>": 6739,
      "hakları</w>": 6740,
      "haklarını</w>": 6741,
      "hal": 6742,
      "hal</w>": 6743,
      "hala</w>": 6744,
      "halde</w>": 6745,
      "hale</w>": 6746,
      "halef": 6747,
      "halen</w>": 6748,
      "halep": 6749,
      "halep</w>": 6750,
      "hali</w>": 6751,
      "halif": 6752,
      "halife</w>": 6753,
      "halil</w>": 6754,
      "halinde</w>": 6755,
      "haline</w>": 6756,
      "halini</w>": 6757,
      "halk": 6758,
      "halk</w>": 6759,
      "halka</w>": 6760,
      "halkların</w>": 6761,
      "halkçı</w>": 6762,
      "halkı</w>": 6763,
      "halkın</w>": 6764,
      "halkının</w>": 6765,
      "hall": 6766,
      "hall</w>": 6767,
      "ham": 6768,
      "ham,</w>": 6769,
      "ham</w>": 6770,
      "hamdi</w>": 6771,
      "hamil": 6772,
      "hamile</w>": 6773,
      "han": 6774,
      "han'ın</w>": 6775,
      "han,</w>": 6776,
      "han</w>": 6777,
      "hand": 6778,
      "hane</w>": 6779,
      "haned": 6780,
      "hanedan": 6781,
      "hanedanı</w>": 6782,
      "hanede</w>": 6783,
      "hangi</w>": 6784,
      "hani</w>": 6785,
      "hann": 6786,
      "hans": 6787,
      "hans</w>": 6788,
      "hanım": 6789,
      "hanım</w>": 6790,
      "hap": 6791,
      "hapis": 6792,
      "hapis</w>": 6793,
      "hapishan": 6794,
      "haps": 6795,
      "hapse</w>": 6796,
      "har": 6797,
      "har</w>": 6798,
      "harb": 6799,
      "harcam": 6800,
      "hard": 6801,
      "hard</w>": 6802,
      "harek": 6803,
      "hareket": 6804,
      "hareket</w>": 6805,
      "harekete</w>": 6806,
      "hareketi</w>": 6807,
      "hareketin</w>": 6808,
      "hareketini</w>": 6809,
      "hareketinin</w>": 6810,
      "hareketleri</w>": 6811,
      "hareketli</w>": 6812,
      "harekâ": 6813,
      "harekât": 6814,
      "harekât</w>": 6815,
      "harekâtı</w>": 6816,
      "harf": 6817,
      "harfi</w>": 6818,
      "haric": 6819,
      "haricinde</w>": 6820,
      "harika</w>": 6821,
      "harit": 6822,
      "harita</w>": 6823,
      "hariç</w>": 6824,
      "harmon": 6825,
      "harp</w>": 6826,
      "harris": 6827,
      "harry</w>": 6828,
      "hart": 6829,
      "harvard": 6830,
      "harvard</w>": 6831,
      "has": 6832,
      "has</w>": 6833,
      "hasan</w>": 6834,
      "hasar": 6835,
      "hasar</w>": 6836,
      "hassas": 6837,
      "hassas</w>": 6838,
      "hast": 6839,
      "hasta</w>": 6840,
      "hastal": 6841,
      "hastalık": 6842,
      "hastalık</w>": 6843,
      "hastalıklar</w>": 6844,
      "hastalıkları</w>": 6845,
      "hastalığı</w>": 6846,
      "hastalığın</w>": 6847,
      "hastan": 6848,
      "hastanede</w>": 6849,
      "hastanesi</w>": 6850,
      "hastaneye</w>": 6851,
      "hasıl": 6852,
      "hasılat</w>": 6853,
      "hat": 6854,
      "hat</w>": 6855,
      "hata</w>": 6856,
      "hatları</w>": 6857,
      "hatt": 6858,
      "hatta</w>": 6859,
      "hattı</w>": 6860,
      "hattının</w>": 6861,
      "hatır": 6862,
      "hatırlat": 6863,
      "haus": 6864,
      "hav": 6865,
      "hava": 6866,
      "hava</w>": 6867,
      "havacılık</w>": 6868,
      "havada</w>": 6869,
      "havalim": 6870,
      "havaliman": 6871,
      "havalimanı</w>": 6872,
      "havay": 6873,
      "havaya</w>": 6874,
      "havayol": 6875,
      "havayolu</w>": 6876,
      "have</w>": 6877,
      "havz": 6878,
      "haw": 6879,
      "hawa": 6880,
      "hay": 6881,
      "hayal": 6882,
      "hayal</w>": 6883,
      "hayali</w>": 6884,
      "hayat": 6885,
      "hayat</w>": 6886,
      "hayata</w>": 6887,
      "hayatta</w>": 6888,
      "hayatı</w>": 6889,
      "hayatın</w>": 6890,
      "hayatına</w>": 6891,
      "hayatını</w>": 6892,
      "hayatının</w>": 6893,
      "haydar</w>": 6894,
      "hayr": 6895,
      "hayran": 6896,
      "hayran</w>": 6897,
      "hayv": 6898,
      "hayvan": 6899,
      "hayvan</w>": 6900,
      "hayvanc": 6901,
      "hayvanlar</w>": 6902,
      "hayvanları</w>": 6903,
      "hayvanların</w>": 6904,
      "hayır": 6905,
      "hayır</w>": 6906,
      "haz": 6907,
      "hazar</w>": 6908,
      "hazin": 6909,
      "hazir": 6910,
      "haziran'da</w>": 6911,
      "haziran</w>": 6912,
      "hazır": 6913,
      "hazır</w>": 6914,
      "hazırladı.</w>": 6915,
      "hazırladığı</w>": 6916,
      "hazırlan": 6917,
      "hazırlanan</w>": 6918,
      "hazırlanmış</w>": 6919,
      "hazırlık</w>": 6920,
      "haç": 6921,
      "haç</w>": 6922,
      "haçlı</w>": 6923,
      "haş": 6924,
      "hd": 6925,
      "hd</w>": 6926,
      "hdp</w>": 6927,
      "he": 6928,
      "he</w>": 6929,
      "head": 6930,
      "head</w>": 6931,
      "heart": 6932,
      "heart</w>": 6933,
      "heat": 6934,
      "heav": 6935,
      "heavy</w>": 6936,
      "heb": 6937,
      "hec": 6938,
      "hed": 6939,
      "hede": 6940,
      "hedef": 6941,
      "hedef</w>": 6942,
      "hedefi</w>": 6943,
      "hediy": 6944,
      "hediye</w>": 6945,
      "height": 6946,
      "heim": 6947,
      "heim</w>": 6948,
      "hein": 6949,
      "heinrich</w>": 6950,
      "hek": 6951,
      "hekim": 6952,
      "hel": 6953,
      "helen": 6954,
      "helen</w>": 6955,
      "helik": 6956,
      "helikopter": 6957,
      "hell": 6958,
      "hem": 6959,
      "hem</w>": 6960,
      "hemat": 6961,
      "hemen</w>": 6962,
      "hemşir": 6963,
      "hen": 6964,
      "hen</w>": 6965,
      "henri</w>": 6966,
      "henry</w>": 6967,
      "hent": 6968,
      "henüz</w>": 6969,
      "hep": 6970,
      "hep</w>": 6971,
      "heps": 6972,
      "hepsi</w>": 6973,
      "her": 6974,
      "her,</w>": 6975,
      "her</w>": 6976,
      "herak": 6977,
      "here</w>": 6978,
      "herhangi</w>": 6979,
      "herine</w>": 6980,
      "herk": 6981,
      "herkes</w>": 6982,
      "herkesin</w>": 6983,
      "hermann</w>": 6984,
      "herpet": 6985,
      "herpetolog.</w>": 6986,
      "hes": 6987,
      "hesab": 6988,
      "hesap": 6989,
      "hesap</w>": 6990,
      "hesaplam": 6991,
      "hesaplan": 6992,
      "heter": 6993,
      "hev": 6994,
      "hey": 6995,
      "heyec": 6996,
      "heyeti</w>": 6997,
      "heykel": 6998,
      "heykel</w>": 6999,
      "heykeli</w>": 7000,
      "heykeltır": 7001,
      "hi": 7002,
      "hi</w>": 7003,
      "hib": 7004,
      "hic": 7005,
      "hid": 7006,
      "hidro": 7007,
      "hidrojen</w>": 7008,
      "hidrol": 7009,
      "hig": 7010,
      "high": 7011,
      "high</w>": 7012,
      "hik": 7013,
      "hikay": 7014,
      "hikmet</w>": 7015,
      "hikâ": 7016,
      "hikây": 7017,
      "hikâye</w>": 7018,
      "hikâyesi</w>": 7019,
      "hil": 7020,
      "hil</w>": 7021,
      "hill": 7022,
      "hill</w>": 7023,
      "him": 7024,
      "himay": 7025,
      "hin": 7026,
      "hind": 7027,
      "hindistan": 7028,
      "hindistan'da</w>": 7029,
      "hindistan</w>": 7030,
      "hint-": 7031,
      "hint</w>": 7032,
      "hip": 7033,
      "hip</w>": 7034,
      "hiper": 7035,
      "hipot": 7036,
      "hipotez": 7037,
      "hir": 7038,
      "his": 7039,
      "his</w>": 7040,
      "hisar</w>": 7041,
      "hiss": 7042,
      "hist": 7043,
      "histor": 7044,
      "history</w>": 7045,
      "hit": 7046,
      "hit</w>": 7047,
      "hitap</w>": 7048,
      "hitit</w>": 7049,
      "hitler'in</w>": 7050,
      "hitler,</w>": 7051,
      "hitler</w>": 7052,
      "hiyer": 7053,
      "hiyerarş": 7054,
      "hiz": 7055,
      "hizmet": 7056,
      "hizmet</w>": 7057,
      "hizmete</w>": 7058,
      "hizmeti</w>": 7059,
      "hizmetler</w>": 7060,
      "hizmetleri</w>": 7061,
      "hiç": 7062,
      "hiç</w>": 7063,
      "hiçbir</w>": 7064,
      "hn": 7065,
      "ho": 7066,
      "ho,</w>": 7067,
      "ho</w>": 7068,
      "hoc": 7069,
      "hoca</w>": 7070,
      "hod": 7071,
      "hoff": 7072,
      "hok": 7073,
      "hol": 7074,
      "holding</w>": 7075,
      "hollan": 7076,
      "holland": 7077,
      "hollanda</w>": 7078,
      "hollandalı</w>": 7079,
      "holly": 7080,
      "hollywood</w>": 7081,
      "holm": 7082,
      "hom": 7083,
      "home</w>": 7084,
      "hon": 7085,
      "hone</w>": 7086,
      "hong</w>": 7087,
      "hop": 7088,
      "hop</w>": 7089,
      "hor": 7090,
      "horas": 7091,
      "hormon": 7092,
      "hort": 7093,
      "hos": 7094,
      "hot": 7095,
      "hot</w>": 7096,
      "hous": 7097,
      "house</w>": 7098,
      "houst": 7099,
      "houston</w>": 7100,
      "hov": 7101,
      "how</w>": 7102,
      "howard</w>": 7103,
      "hoş": 7104,
      "hoş</w>": 7105,
      "hp</w>": 7106,
      "hr": 7107,
      "hristiy": 7108,
      "hristiyan": 7109,
      "hristiyan</w>": 7110,
      "hristiyanlar</w>": 7111,
      "hristiyanlık</w>": 7112,
      "ht": 7113,
      "ht</w>": 7114,
      "hu": 7115,
      "hub": 7116,
      "hud": 7117,
      "hug": 7118,
      "hugo</w>": 7119,
      "huk": 7120,
      "hukuk": 7121,
      "hukuk</w>": 7122,
      "hukuki</w>": 7123,
      "hukuku</w>": 7124,
      "hul": 7125,
      "hum": 7126,
      "hum</w>": 7127,
      "human</w>": 7128,
      "hun": 7129,
      "hun</w>": 7130,
      "hur": 7131,
      "hur</w>": 7132,
      "hus": 7133,
      "hut": 7134,
      "huz": 7135,
      "huzur": 7136,
      "hy": 7137,
      "hâ": 7138,
      "hâkim": 7139,
      "hâl": 7140,
      "hâle</w>": 7141,
      "hâlen</w>": 7142,
      "hâlinde</w>": 7143,
      "hâline</w>": 7144,
      "hâlâ</w>": 7145,
      "hö": 7146,
      "höyü": 7147,
      "höyük": 7148,
      "hü": 7149,
      "hüc": 7150,
      "hücr": 7151,
      "hücre</w>": 7152,
      "hücreleri</w>": 7153,
      "hücres": 7154,
      "hücum": 7155,
      "hücum</w>": 7156,
      "hük": 7157,
      "hükm": 7158,
      "hükû": 7159,
      "hükûmet": 7160,
      "hükûmet</w>": 7161,
      "hükûmeti,</w>": 7162,
      "hükûmeti</w>": 7163,
      "hükûmetin</w>": 7164,
      "hükûmetinin</w>": 7165,
      "hüküm": 7166,
      "hüküm</w>": 7167,
      "hükümdar": 7168,
      "hükümdar</w>": 7169,
      "hükümdarı</w>": 7170,
      "hükümet": 7171,
      "hükümeti</w>": 7172,
      "hül": 7173,
      "hüm": 7174,
      "hür": 7175,
      "hürr": 7176,
      "hürriyet</w>": 7177,
      "hüs": 7178,
      "hüsey": 7179,
      "hüseyin</w>": 7180,
      "hüsn": 7181,
      "hır": 7182,
      "hırvat": 7183,
      "hırvat</w>": 7184,
      "hırvatistan</w>": 7185,
      "hız": 7186,
      "hız</w>": 7187,
      "hızla</w>": 7188,
      "hızlandır": 7189,
      "hızlı</w>": 7190,
      "hızı</w>": 7191,
      "i": 7192,
      "i\"": 7193,
      "i\",</w>": 7194,
      "i\"</w>": 7195,
      "i'": 7196,
      "i'</w>": 7197,
      "i'de</w>": 7198,
      "i'deki</w>": 7199,
      "i'den</w>": 7200,
      "i'm</w>": 7201,
      "i'n": 7202,
      "i'nde,</w>": 7203,
      "i'nde</w>": 7204,
      "i'ndeki</w>": 7205,
      "i'nden</w>": 7206,
      "i'ne</w>": 7207,
      "i'ni</w>": 7208,
      "i'nin</w>": 7209,
      "i'ye</w>": 7210,
      "i'yi</w>": 7211,
      "i),</w>": 7212,
      "i).</w>": 7213,
      "i)</w>": 7214,
      "i,": 7215,
      "i,</w>": 7216,
      "i-": 7217,
      "i.": 7218,
      "i.</w>": 7219,
      "i/": 7220,
      "i:": 7221,
      "i:</w>": 7222,
      "i;</w>": 7223,
      "i</w>": 7224,
      "ia": 7225,
      "ia'da</w>": 7226,
      "ia'nın</w>": 7227,
      "ia)</w>": 7228,
      "ia,</w>": 7229,
      "ia</w>": 7230,
      "iade</w>": 7231,
      "ial": 7232,
      "ial</w>": 7233,
      "ian": 7234,
      "ian,</w>": 7235,
      "ian</w>": 7236,
      "iana</w>": 7237,
      "iano</w>": 7238,
      "ias</w>": 7239,
      "iat": 7240,
      "iat</w>": 7241,
      "ib": 7242,
      "ib</w>": 7243,
      "ibar": 7244,
      "ibe</w>": 7245,
      "ibi</w>": 7246,
      "ibn</w>": 7247,
      "ic": 7248,
      "ic,</w>": 7249,
      "ic</w>": 7250,
      "ica</w>": 7251,
      "ical</w>": 7252,
      "icat</w>": 7253,
      "ice,</w>": 7254,
      "ice</w>": 7255,
      "ich": 7256,
      "ich</w>": 7257,
      "ichi</w>": 7258,
      "ici</w>": 7259,
      "iciler</w>": 7260,
      "ick": 7261,
      "ick</w>": 7262,
      "ico</w>": 7263,
      "icra</w>": 7264,
      "ics</w>": 7265,
      "icus</w>": 7266,
      "id": 7267,
      "id'in</w>": 7268,
      "id,</w>": 7269,
      "id-": 7270,
      "id</w>": 7271,
      "ida": 7272,
      "ida</w>": 7273,
      "idae</w>": 7274,
      "idam</w>": 7275,
      "idar": 7276,
      "idare</w>": 7277,
      "idaresi</w>": 7278,
      "idari</w>": 7279,
      "iddi": 7280,
      "iddia</w>": 7281,
      "ide": 7282,
      "ide,</w>": 7283,
      "ide</w>": 7284,
      "ideal": 7285,
      "ideal</w>": 7286,
      "ideki</w>": 7287,
      "iden</w>": 7288,
      "ideoloj": 7289,
      "ides</w>": 7290,
      "idi": 7291,
      "idi.</w>": 7292,
      "idi</w>": 7293,
      "idin</w>": 7294,
      "idir": 7295,
      "idir,</w>": 7296,
      "idir.</w>": 7297,
      "idir</w>": 7298,
      "ie": 7299,
      "ie,</w>": 7300,
      "ie</w>": 7301,
      "iel": 7302,
      "iel</w>": 7303,
      "ien": 7304,
      "ien</w>": 7305,
      "ier": 7306,
      "ier</w>": 7307,
      "ies": 7308,
      "ies</w>": 7309,
      "iet": 7310,
      "iev": 7311,
      "if": 7312,
      "if</w>": 7313,
      "ifad": 7314,
      "ifade</w>": 7315,
      "ifadesi</w>": 7316,
      "ife</w>": 7317,
      "ifik</w>": 7318,
      "ifor": 7319,
      "iforn": 7320,
      "ig": 7321,
      "ig</w>": 7322,
      "ight": 7323,
      "ight</w>": 7324,
      "ign": 7325,
      "ign</w>": 7326,
      "igo</w>": 7327,
      "igu": 7328,
      "ih": 7329,
      "ih</w>": 7330,
      "iha</w>": 7331,
      "ihan": 7332,
      "ihanet</w>": 7333,
      "ihl": 7334,
      "ihlal</w>": 7335,
      "ihr": 7336,
      "ihrac": 7337,
      "ihraç</w>": 7338,
      "ihtim": 7339,
      "ihtimal": 7340,
      "ihtiy": 7341,
      "ihtiyac": 7342,
      "ihtiyacı</w>": 7343,
      "ihtiyaç": 7344,
      "ihtiyaç</w>": 7345,
      "ii": 7346,
      "ii,</w>": 7347,
      "ii.</w>": 7348,
      "ii</w>": 7349,
      "iii.</w>": 7350,
      "iii</w>": 7351,
      "ij": 7352,
      "ik": 7353,
      "ik)</w>": 7354,
      "ik,</w>": 7355,
      "ik</w>": 7356,
      "ika</w>": 7357,
      "ikal</w>": 7358,
      "ikam": 7359,
      "ikamet</w>": 7360,
      "ikasyon</w>": 7361,
      "ikat": 7362,
      "ikat</w>": 7363,
      "ike</w>": 7364,
      "iken,</w>": 7365,
      "iken</w>": 7366,
      "iki</w>": 7367,
      "ikil": 7368,
      "ikili</w>": 7369,
      "ikinc": 7370,
      "ikinci</w>": 7371,
      "ikincil</w>": 7372,
      "ikincisi</w>": 7373,
      "ikisi</w>": 7374,
      "ikisinin</w>": 7375,
      "ikiye</w>": 7376,
      "ikl": 7377,
      "ikler,</w>": 7378,
      "ikler</w>": 7379,
      "iklere</w>": 7380,
      "ikleri</w>": 7381,
      "iklerin</w>": 7382,
      "iklerine</w>": 7383,
      "iklerini</w>": 7384,
      "iklerinin</w>": 7385,
      "ikli</w>": 7386,
      "iklim": 7387,
      "iklim</w>": 7388,
      "iklimi</w>": 7389,
      "ikna</w>": 7390,
      "iko</w>": 7391,
      "ikon": 7392,
      "iksel</w>": 7393,
      "ikte</w>": 7394,
      "ikten</w>": 7395,
      "ikti": 7396,
      "iktidar": 7397,
      "iktidar</w>": 7398,
      "iktidara</w>": 7399,
      "iktidarı</w>": 7400,
      "iktir.</w>": 7401,
      "iktis": 7402,
      "ikç": 7403,
      "ikçe</w>": 7404,
      "ikçi</w>": 7405,
      "il": 7406,
      "il'in</w>": 7407,
      "il)</w>": 7408,
      "il,</w>": 7409,
      "il</w>": 7410,
      "ila</w>": 7411,
      "ilah": 7412,
      "ilan": 7413,
      "ilan</w>": 7414,
      "ilave</w>": 7415,
      "ilaç": 7416,
      "ilaç</w>": 7417,
      "ildi.</w>": 7418,
      "ildi</w>": 7419,
      "ildiği</w>": 7420,
      "ile": 7421,
      "ile)</w>": 7422,
      "ile,</w>": 7423,
      "ile</w>": 7424,
      "ilebilir.</w>": 7425,
      "ilebilir</w>": 7426,
      "ilen</w>": 7427,
      "iler": 7428,
      "iler,</w>": 7429,
      "iler.</w>": 7430,
      "iler</w>": 7431,
      "ilerde</w>": 7432,
      "ilerden</w>": 7433,
      "ilere</w>": 7434,
      "ilerek</w>": 7435,
      "ileri,</w>": 7436,
      "ileri</w>": 7437,
      "ilerin</w>": 7438,
      "ilerinde</w>": 7439,
      "ilerinden</w>": 7440,
      "ilerine</w>": 7441,
      "ilerini</w>": 7442,
      "ilerinin</w>": 7443,
      "ileriyle</w>": 7444,
      "ilerle</w>": 7445,
      "ilerlem": 7446,
      "ilerley": 7447,
      "ilerleyen</w>": 7448,
      "ilet": 7449,
      "ilet</w>": 7450,
      "iletiş": 7451,
      "iletişim</w>": 7452,
      "iletken": 7453,
      "iletken</w>": 7454,
      "ileş": 7455,
      "ilg": 7456,
      "ilgi</w>": 7457,
      "ilgil": 7458,
      "ilgilen": 7459,
      "ilgili</w>": 7460,
      "ilgilidir.</w>": 7461,
      "ilginç</w>": 7462,
      "ilgisi</w>": 7463,
      "ilgisini</w>": 7464,
      "ilham</w>": 7465,
      "ili</w>": 7466,
      "ilik": 7467,
      "ilik,</w>": 7468,
      "ilik</w>": 7469,
      "ilin</w>": 7470,
      "ilinde</w>": 7471,
      "ilindeki</w>": 7472,
      "ilinin</w>": 7473,
      "ilip</w>": 7474,
      "ilir": 7475,
      "ilir.</w>": 7476,
      "ilir</w>": 7477,
      "iliğ": 7478,
      "iliğe</w>": 7479,
      "iliği</w>": 7480,
      "iliğin</w>": 7481,
      "iliğinden</w>": 7482,
      "iliğine</w>": 7483,
      "iliğini</w>": 7484,
      "iliş": 7485,
      "ilişk": 7486,
      "ilişki</w>": 7487,
      "ilişkil": 7488,
      "ilişkilendir": 7489,
      "ilişkiler</w>": 7490,
      "ilişkileri</w>": 7491,
      "ilişkilerini</w>": 7492,
      "ilişkili</w>": 7493,
      "ilişkin</w>": 7494,
      "ilişkisi</w>": 7495,
      "ilk": 7496,
      "ilk</w>": 7497,
      "ilkel</w>": 7498,
      "ilki</w>": 7499,
      "ill": 7500,
      "ill</w>": 7501,
      "illa</w>": 7502,
      "ille": 7503,
      "ille</w>": 7504,
      "iller</w>": 7505,
      "illeri</w>": 7506,
      "illerin</w>": 7507,
      "illi</w>": 7508,
      "illin": 7509,
      "ilm": 7510,
      "ilme</w>": 7511,
      "ilmek</w>": 7512,
      "ilmektedir.</w>": 7513,
      "ilmesi,</w>": 7514,
      "ilmesi</w>": 7515,
      "ilmesine</w>": 7516,
      "ilmesini</w>": 7517,
      "ilmesiyle</w>": 7518,
      "ilmeye</w>": 7519,
      "ilmez</w>": 7520,
      "ilmi</w>": 7521,
      "ilmiş,</w>": 7522,
      "ilmiş</w>": 7523,
      "ilmişti.</w>": 7524,
      "ilmiştir.</w>": 7525,
      "ilmiştir</w>": 7526,
      "ily</w>": 7527,
      "ilç": 7528,
      "ilçe</w>": 7529,
      "ilçenin</w>": 7530,
      "ilçesi</w>": 7531,
      "ilçesinde</w>": 7532,
      "ilçesine</w>": 7533,
      "ilçesinin</w>": 7534,
      "im": 7535,
      "im\"</w>": 7536,
      "im,</w>": 7537,
      "im.</w>": 7538,
      "im</w>": 7539,
      "ima</w>": 7540,
      "imag": 7541,
      "imal": 7542,
      "iman</w>": 7543,
      "imd": 7544,
      "imde</w>": 7545,
      "imden</w>": 7546,
      "ime</w>": 7547,
      "imha</w>": 7548,
      "imi,</w>": 7549,
      "imi</w>": 7550,
      "imin</w>": 7551,
      "iminde</w>": 7552,
      "iminden</w>": 7553,
      "imine</w>": 7554,
      "imini</w>": 7555,
      "iminin</w>": 7556,
      "imiz": 7557,
      "imiz</w>": 7558,
      "imizi</w>": 7559,
      "imkân": 7560,
      "imkânı</w>": 7561,
      "imler</w>": 7562,
      "imleri</w>": 7563,
      "imlerin</w>": 7564,
      "imlerini</w>": 7565,
      "imli</w>": 7566,
      "imparator": 7567,
      "imparator</w>": 7568,
      "imparatorluk</w>": 7569,
      "imparatoru</w>": 7570,
      "imper": 7571,
      "imtiy": 7572,
      "imz": 7573,
      "imza</w>": 7574,
      "imzal": 7575,
      "imzaladı.</w>": 7576,
      "imzalam": 7577,
      "imzalan": 7578,
      "imzalanan</w>": 7579,
      "imzalandı.</w>": 7580,
      "in": 7581,
      "in\"</w>": 7582,
      "in'e</w>": 7583,
      "in'in</w>": 7584,
      "in)</w>": 7585,
      "in,</w>": 7586,
      "in-": 7587,
      "in.</w>": 7588,
      "in:</w>": 7589,
      "in;</w>": 7590,
      "in</w>": 7591,
      "ina,</w>": 7592,
      "ina</w>": 7593,
      "inal": 7594,
      "inal</w>": 7595,
      "inamik</w>": 7596,
      "inan": 7597,
      "inanc": 7598,
      "inanç": 7599,
      "inanç</w>": 7600,
      "inc": 7601,
      "inc.</w>": 7602,
      "ince,</w>": 7603,
      "ince</w>": 7604,
      "incel": 7605,
      "incelem": 7606,
      "inceleme</w>": 7607,
      "incelen": 7608,
      "inceleyen</w>": 7609,
      "inci</w>": 7610,
      "ind": 7611,
      "inde": 7612,
      "inde)</w>": 7613,
      "inde,</w>": 7614,
      "inde</w>": 7615,
      "indedir.</w>": 7616,
      "indeki</w>": 7617,
      "inden,</w>": 7618,
      "inden</w>": 7619,
      "indendir.</w>": 7620,
      "indey": 7621,
      "indeydi.</w>": 7622,
      "indi": 7623,
      "indiana</w>": 7624,
      "indir": 7625,
      "indirm": 7626,
      "indu": 7627,
      "industr": 7628,
      "ine": 7629,
      "ine,</w>": 7630,
      "ine</w>": 7631,
      "inen</w>": 7632,
      "iner": 7633,
      "iner</w>": 7634,
      "inf": 7635,
      "inform": 7636,
      "ing": 7637,
      "ing\"</w>": 7638,
      "ing'in</w>": 7639,
      "ing,</w>": 7640,
      "ing</w>": 7641,
      "ingen</w>": 7642,
      "inger</w>": 7643,
      "ings</w>": 7644,
      "inhib": 7645,
      "ini\"</w>": 7646,
      "ini,</w>": 7647,
      "ini</w>": 7648,
      "inian": 7649,
      "inin,</w>": 7650,
      "inin</w>": 7651,
      "iniz</w>": 7652,
      "iniş</w>": 7653,
      "ink": 7654,
      "inler</w>": 7655,
      "inli</w>": 7656,
      "ino</w>": 7657,
      "ins</w>": 7658,
      "insan": 7659,
      "insan</w>": 7660,
      "insanlar</w>": 7661,
      "insanlara</w>": 7662,
      "insanları</w>": 7663,
      "insanların</w>": 7664,
      "insanı</w>": 7665,
      "insanın</w>": 7666,
      "instit": 7667,
      "institute</w>": 7668,
      "int": 7669,
      "int</w>": 7670,
      "integr": 7671,
      "intend": 7672,
      "inter": 7673,
      "intern": 7674,
      "international</w>": 7675,
      "internet</w>": 7676,
      "intihar</w>": 7677,
      "intik": 7678,
      "intikam</w>": 7679,
      "into</w>": 7680,
      "intro": 7681,
      "inus</w>": 7682,
      "inç": 7683,
      "inç</w>": 7684,
      "inş": 7685,
      "inşa": 7686,
      "inşa</w>": 7687,
      "inşaat": 7688,
      "inşaat</w>": 7689,
      "inşası</w>": 7690,
      "io": 7691,
      "io,</w>": 7692,
      "io</w>": 7693,
      "ion": 7694,
      "ion,</w>": 7695,
      "ion</w>": 7696,
      "ional</w>": 7697,
      "ions</w>": 7698,
      "ior": 7699,
      "ior</w>": 7700,
      "ios": 7701,
      "ios</w>": 7702,
      "ious</w>": 7703,
      "ip": 7704,
      "ip,</w>": 7705,
      "ip</w>": 7706,
      "iped": 7707,
      "iphone</w>": 7708,
      "ipler</w>": 7709,
      "ipleri</w>": 7710,
      "iptal</w>": 7711,
      "ique</w>": 7712,
      "ir": 7713,
      "ir'in</w>": 7714,
      "ir)</w>": 7715,
      "ir,</w>": 7716,
      "ir.": 7717,
      "ir.</w>": 7718,
      "ir:</w>": 7719,
      "ir;</w>": 7720,
      "ir</w>": 7721,
      "ira</w>": 7722,
      "irak": 7723,
      "irak</w>": 7724,
      "irdi.</w>": 7725,
      "ire</w>": 7726,
      "iri</w>": 7727,
      "irken,</w>": 7728,
      "irken</w>": 7729,
      "irler.</w>": 7730,
      "irler</w>": 7731,
      "irli</w>": 7732,
      "irm": 7733,
      "irme</w>": 7734,
      "iro</w>": 7735,
      "iron</w>": 7736,
      "irse</w>": 7737,
      "is": 7738,
      "is'in</w>": 7739,
      "is)</w>": 7740,
      "is,</w>": 7741,
      "is</w>": 7742,
      "isa": 7743,
      "isa</w>": 7744,
      "isab": 7745,
      "isar</w>": 7746,
      "isbn</w>": 7747,
      "ische</w>": 7748,
      "ise,</w>": 7749,
      "ise</w>": 7750,
      "isel</w>": 7751,
      "ish": 7752,
      "ish</w>": 7753,
      "isi": 7754,
      "isi\"</w>": 7755,
      "isi)</w>": 7756,
      "isi,</w>": 7757,
      "isi.</w>": 7758,
      "isi</w>": 7759,
      "isidir.</w>": 7760,
      "isim": 7761,
      "isim</w>": 7762,
      "isimlendir": 7763,
      "isimler</w>": 7764,
      "isimleri</w>": 7765,
      "isimli</w>": 7766,
      "isinde,</w>": 7767,
      "isinde</w>": 7768,
      "isindeki</w>": 7769,
      "isinden</w>": 7770,
      "isine</w>": 7771,
      "isini</w>": 7772,
      "isinin</w>": 7773,
      "ision": 7774,
      "ision</w>": 7775,
      "isiyle</w>": 7776,
      "isiz</w>": 7777,
      "iskel": 7778,
      "islam": 7779,
      "island</w>": 7780,
      "ism": 7781,
      "ism</w>": 7782,
      "ismi</w>": 7783,
      "ismin</w>": 7784,
      "ismini</w>": 7785,
      "isminin</w>": 7786,
      "ismiyle</w>": 7787,
      "ison</w>": 7788,
      "ispat": 7789,
      "ist": 7790,
      "ist,</w>": 7791,
      "ist</w>": 7792,
      "ista</w>": 7793,
      "istan": 7794,
      "istan'a</w>": 7795,
      "istan'da</w>": 7796,
      "istan'daki</w>": 7797,
      "istan'ı</w>": 7798,
      "istan'ın</w>": 7799,
      "istan,</w>": 7800,
      "istan</w>": 7801,
      "istanbul": 7802,
      "istasyon": 7803,
      "istasyonu</w>": 7804,
      "istatist": 7805,
      "istatistikleri</w>": 7806,
      "iste</w>": 7807,
      "isted": 7808,
      "istedi.</w>": 7809,
      "istediği</w>": 7810,
      "istediğini</w>": 7811,
      "istek": 7812,
      "istem": 7813,
      "isten": 7814,
      "istenen</w>": 7815,
      "ister": 7816,
      "ister.</w>": 7817,
      "ister</w>": 7818,
      "istey": 7819,
      "isteyen</w>": 7820,
      "isteği</w>": 7821,
      "isti": 7822,
      "isti</w>": 7823,
      "istif": 7824,
      "istifa</w>": 7825,
      "istih": 7826,
      "istihbarat</w>": 7827,
      "istik": 7828,
      "istik</w>": 7829,
      "istikrar": 7830,
      "istil": 7831,
      "istila</w>": 7832,
      "istis": 7833,
      "istiy": 7834,
      "istiyor": 7835,
      "istler</w>": 7836,
      "istleri</w>": 7837,
      "istlerin</w>": 7838,
      "isyan": 7839,
      "isyan</w>": 7840,
      "isyanc": 7841,
      "isyen": 7842,
      "isyen</w>": 7843,
      "isyon": 7844,
      "isyon</w>": 7845,
      "it": 7846,
      "it'in</w>": 7847,
      "it's</w>": 7848,
      "it,</w>": 7849,
      "it</w>": 7850,
      "ita</w>": 7851,
      "itab": 7852,
      "ital": 7853,
      "ital</w>": 7854,
      "itasyon</w>": 7855,
      "ite</w>": 7856,
      "iter": 7857,
      "iter</w>": 7858,
      "ith</w>": 7859,
      "iti</w>": 7860,
      "itibar": 7861,
      "itibaren,</w>": 7862,
      "itibaren</w>": 7863,
      "itibarıyla,</w>": 7864,
      "itibarıyla</w>": 7865,
      "itik</w>": 7866,
      "ition</w>": 7867,
      "itir": 7868,
      "itiraf</w>": 7869,
      "itler</w>": 7870,
      "itleri</w>": 7871,
      "itlerin</w>": 7872,
      "itli</w>": 7873,
      "ito</w>": 7874,
      "its</w>": 7875,
      "ittifak": 7876,
      "ittifak</w>": 7877,
      "itun": 7878,
      "ity</w>": 7879,
      "itz": 7880,
      "itz</w>": 7881,
      "ium": 7882,
      "ium</w>": 7883,
      "ius": 7884,
      "ius'un</w>": 7885,
      "ius,</w>": 7886,
      "ius</w>": 7887,
      "iv": 7888,
      "iv.</w>": 7889,
      "iv</w>": 7890,
      "ivan</w>": 7891,
      "ive</w>": 7892,
      "iver": 7893,
      "iversit": 7894,
      "iw": 7895,
      "ix": 7896,
      "ix</w>": 7897,
      "iy": 7898,
      "iy</w>": 7899,
      "iya</w>": 7900,
      "iyat": 7901,
      "iyat</w>": 7902,
      "iydi.</w>": 7903,
      "iydi</w>": 7904,
      "iye": 7905,
      "iye,</w>": 7906,
      "iye</w>": 7907,
      "iyel</w>": 7908,
      "iyeli</w>": 7909,
      "iyen</w>": 7910,
      "iyer": 7911,
      "iyet": 7912,
      "iyet</w>": 7913,
      "iyete</w>": 7914,
      "iyeti</w>": 7915,
      "iyetine</w>": 7916,
      "iyetini</w>": 7917,
      "iyi</w>": 7918,
      "iyice</w>": 7919,
      "iyileş": 7920,
      "iyileştir": 7921,
      "iyileştirm": 7922,
      "iyle,</w>": 7923,
      "iyle</w>": 7924,
      "iyon": 7925,
      "iyor": 7926,
      "iyor,</w>": 7927,
      "iyor.</w>": 7928,
      "iyor</w>": 7929,
      "iyordu.</w>": 7930,
      "iyordu</w>": 7931,
      "iyorlardı.</w>": 7932,
      "iyye</w>": 7933,
      "iz": 7934,
      "iz,</w>": 7935,
      "iz.</w>": 7936,
      "iz</w>": 7937,
      "izasyon</w>": 7938,
      "ize</w>": 7939,
      "izi</w>": 7940,
      "izin</w>": 7941,
      "izledi.</w>": 7942,
      "izlem": 7943,
      "izleme</w>": 7944,
      "izlen": 7945,
      "izler</w>": 7946,
      "izleyen</w>": 7947,
      "izleyic": 7948,
      "izm": 7949,
      "izm,</w>": 7950,
      "izm</w>": 7951,
      "izma</w>": 7952,
      "izme</w>": 7953,
      "izmi</w>": 7954,
      "izmin</w>": 7955,
      "izni</w>": 7956,
      "izole</w>": 7957,
      "izz": 7958,
      "iç": 7959,
      "iç,</w>": 7960,
      "iç</w>": 7961,
      "içe</w>": 7962,
      "içer": 7963,
      "içeren</w>": 7964,
      "içeri</w>": 7965,
      "içerik</w>": 7966,
      "içerir.</w>": 7967,
      "içerisinde</w>": 7968,
      "içerisindeki</w>": 7969,
      "içeriyordu.</w>": 7970,
      "içeriği</w>": 7971,
      "içermektedir.</w>": 7972,
      "içi</w>": 7973,
      "için": 7974,
      "için,</w>": 7975,
      "için</w>": 7976,
      "içinde,</w>": 7977,
      "içinde</w>": 7978,
      "içindeki</w>": 7979,
      "içinden</w>": 7980,
      "içine</w>": 7981,
      "ić": 7982,
      "ić,</w>": 7983,
      "ić</w>": 7984,
      "iğ": 7985,
      "iğe</w>": 7986,
      "iği,</w>": 7987,
      "iği</w>": 7988,
      "iğin</w>": 7989,
      "iğinde</w>": 7990,
      "iğinden</w>": 7991,
      "iğine</w>": 7992,
      "iğini</w>": 7993,
      "iğinin</w>": 7994,
      "iş": 7995,
      "iş,</w>": 7996,
      "iş</w>": 7997,
      "işaret": 7998,
      "işaret</w>": 7999,
      "işareti</w>": 8000,
      "işbirliğ": 8001,
      "işbirliği</w>": 8002,
      "işe</w>": 8003,
      "işgal": 8004,
      "işgal</w>": 8005,
      "işgali</w>": 8006,
      "işi</w>": 8007,
      "işim</w>": 8008,
      "işin</w>": 8009,
      "işine</w>": 8010,
      "işini</w>": 8011,
      "işit": 8012,
      "işken": 8013,
      "işkence</w>": 8014,
      "işl": 8015,
      "işlem": 8016,
      "işlem</w>": 8017,
      "işlemc": 8018,
      "işleme</w>": 8019,
      "işlemi</w>": 8020,
      "işlemleri</w>": 8021,
      "işlen": 8022,
      "işler</w>": 8023,
      "işlerdir.</w>": 8024,
      "işleri</w>": 8025,
      "işlerini</w>": 8026,
      "işlet": 8027,
      "işletim</w>": 8028,
      "işletm": 8029,
      "işletme</w>": 8030,
      "işlev": 8031,
      "işlev</w>": 8032,
      "işlevi</w>": 8033,
      "işley": 8034,
      "işli</w>": 8035,
      "işt": 8036,
      "işte</w>": 8037,
      "işten</w>": 8038,
      "işti.</w>": 8039,
      "işti</w>": 8040,
      "iştir": 8041,
      "iştir,</w>": 8042,
      "iştir.": 8043,
      "iştir.</w>": 8044,
      "iştir:</w>": 8045,
      "iştir</w>": 8046,
      "iştirm": 8047,
      "işç": 8048,
      "işçi</w>": 8049,
      "işık</w>": 8050,
      "i̇": 8051,
      "i̇</w>": 8052,
      "i̇b": 8053,
      "i̇bn": 8054,
      "i̇bn</w>": 8055,
      "i̇br": 8056,
      "i̇brah": 8057,
      "i̇brahim": 8058,
      "i̇brahim</w>": 8059,
      "i̇bran": 8060,
      "i̇branice</w>": 8061,
      "i̇d": 8062,
      "i̇dar": 8063,
      "i̇dare</w>": 8064,
      "i̇dari</w>": 8065,
      "i̇h": 8066,
      "i̇ha</w>": 8067,
      "i̇hsan": 8068,
      "i̇hsan</w>": 8069,
      "i̇ht": 8070,
      "i̇k": 8071,
      "i̇ki</w>": 8072,
      "i̇kili</w>": 8073,
      "i̇kinc": 8074,
      "i̇kinci</w>": 8075,
      "i̇klim</w>": 8076,
      "i̇ktis": 8077,
      "i̇ktisadi</w>": 8078,
      "i̇ktisat</w>": 8079,
      "i̇l": 8080,
      "i̇l</w>": 8081,
      "i̇ler": 8082,
      "i̇let": 8083,
      "i̇letişim</w>": 8084,
      "i̇lgili</w>": 8085,
      "i̇lhan</w>": 8086,
      "i̇liş": 8087,
      "i̇lişkiler</w>": 8088,
      "i̇lk": 8089,
      "i̇lk</w>": 8090,
      "i̇lköğretim</w>": 8091,
      "i̇lç": 8092,
      "i̇lçe</w>": 8093,
      "i̇lçenin</w>": 8094,
      "i̇m": 8095,
      "i̇mam": 8096,
      "i̇mam</w>": 8097,
      "i̇mparator": 8098,
      "i̇mparator</w>": 8099,
      "i̇mparatorluk</w>": 8100,
      "i̇mparatorluğ": 8101,
      "i̇mparatorluğu'na</w>": 8102,
      "i̇mparatorluğu'nda</w>": 8103,
      "i̇mparatorluğu'nun</w>": 8104,
      "i̇mparatorluğu</w>": 8105,
      "i̇mparatoru</w>": 8106,
      "i̇n": 8107,
      "i̇nan": 8108,
      "i̇nc": 8109,
      "i̇nce</w>": 8110,
      "i̇ncel": 8111,
      "i̇ncelen": 8112,
      "i̇ncelenmemiş</w>": 8113,
      "i̇ncil": 8114,
      "i̇ngil": 8115,
      "i̇ngiliz": 8116,
      "i̇ngiliz</w>": 8117,
      "i̇ngilizc": 8118,
      "i̇ngilizce</w>": 8119,
      "i̇ngilizler</w>": 8120,
      "i̇ngilter": 8121,
      "i̇ngiltere": 8122,
      "i̇ngiltere'de</w>": 8123,
      "i̇ngiltere'deki</w>": 8124,
      "i̇ngiltere'nin</w>": 8125,
      "i̇ngiltere'ye</w>": 8126,
      "i̇ngiltere,</w>": 8127,
      "i̇ngiltere</w>": 8128,
      "i̇nsan": 8129,
      "i̇nsan</w>": 8130,
      "i̇nsanlar</w>": 8131,
      "i̇ntern": 8132,
      "i̇nternet</w>": 8133,
      "i̇nşa": 8134,
      "i̇nşaat</w>": 8135,
      "i̇o": 8136,
      "i̇oann": 8137,
      "i̇oannis</w>": 8138,
      "i̇p": 8139,
      "i̇p</w>": 8140,
      "i̇pek</w>": 8141,
      "i̇r": 8142,
      "i̇ran": 8143,
      "i̇ran'ın</w>": 8144,
      "i̇ran</w>": 8145,
      "i̇ranlı</w>": 8146,
      "i̇rland": 8147,
      "i̇rlanda</w>": 8148,
      "i̇rlandalı</w>": 8149,
      "i̇s": 8150,
      "i̇sa": 8151,
      "i̇sa'nın</w>": 8152,
      "i̇sa</w>": 8153,
      "i̇skandin": 8154,
      "i̇skend": 8155,
      "i̇skender": 8156,
      "i̇skender</w>": 8157,
      "i̇skoç": 8158,
      "i̇skoç</w>": 8159,
      "i̇skoçya</w>": 8160,
      "i̇slam": 8161,
      "i̇slam</w>": 8162,
      "i̇slami</w>": 8163,
      "i̇slâ": 8164,
      "i̇slâm</w>": 8165,
      "i̇sma": 8166,
      "i̇smail</w>": 8167,
      "i̇smet</w>": 8168,
      "i̇span": 8169,
      "i̇spanya'da</w>": 8170,
      "i̇spanya'daki</w>": 8171,
      "i̇spanya'nın</w>": 8172,
      "i̇spanya</w>": 8173,
      "i̇spanyol": 8174,
      "i̇spanyol</w>": 8175,
      "i̇spanyolca</w>": 8176,
      "i̇srail": 8177,
      "i̇srail'in</w>": 8178,
      "i̇srail</w>": 8179,
      "i̇srailli</w>": 8180,
      "i̇st": 8181,
      "i̇stanbul": 8182,
      "i̇stanbul'a</w>": 8183,
      "i̇stanbul'da</w>": 8184,
      "i̇stanbul'daki</w>": 8185,
      "i̇stanbul'un</w>": 8186,
      "i̇stanbul),</w>": 8187,
      "i̇stanbul,</w>": 8188,
      "i̇stanbul:</w>": 8189,
      "i̇stanbul</w>": 8190,
      "i̇stanbul’da</w>": 8191,
      "i̇statist": 8192,
      "i̇statistikleri</w>": 8193,
      "i̇stih": 8194,
      "i̇stihbarat</w>": 8195,
      "i̇stikl": 8196,
      "i̇sv": 8197,
      "i̇sveç": 8198,
      "i̇sveç</w>": 8199,
      "i̇sveçli</w>": 8200,
      "i̇sviç": 8201,
      "i̇sviçre": 8202,
      "i̇sviçre</w>": 8203,
      "i̇sviçreli</w>": 8204,
      "i̇t": 8205,
      "i̇tal": 8206,
      "i̇talya'da</w>": 8207,
      "i̇talya'daki</w>": 8208,
      "i̇talya'nın</w>": 8209,
      "i̇talya'ya</w>": 8210,
      "i̇talya,</w>": 8211,
      "i̇talya</w>": 8212,
      "i̇talyan": 8213,
      "i̇talyan</w>": 8214,
      "i̇talyanc": 8215,
      "i̇talyanca</w>": 8216,
      "i̇ttifak": 8217,
      "i̇ttih": 8218,
      "i̇ttihat</w>": 8219,
      "i̇y": 8220,
      "i̇yi</w>": 8221,
      "i̇yi̇</w>": 8222,
      "i̇z": 8223,
      "i̇zm": 8224,
      "i̇zmir": 8225,
      "i̇zmir'de</w>": 8226,
      "i̇zmir</w>": 8227,
      "i̇zz": 8228,
      "i̇ç": 8229,
      "i̇ç</w>": 8230,
      "i̇çer": 8231,
      "i̇çin</w>": 8232,
      "i̇çişleri</w>": 8233,
      "i̇ş": 8234,
      "i̇ş</w>": 8235,
      "i̇şbirliği</w>": 8236,
      "i̇şl": 8237,
      "i̇şleri</w>": 8238,
      "i̇şletme</w>": 8239,
      "i̇şte</w>": 8240,
      "i̇şçi</w>": 8241,
      "i’n": 8242,
      "i’nde</w>": 8243,
      "i’nden</w>": 8244,
      "i’ne</w>": 8245,
      "i’nin</w>": 8246,
      "i”</w>": 8247,
      "j": 8248,
      "j.": 8249,
      "j.</w>": 8250,
      "j</w>": 8251,
      "ja": 8252,
      "ja</w>": 8253,
      "jac": 8254,
      "jack": 8255,
      "jack</w>": 8256,
      "jackson</w>": 8257,
      "jacob": 8258,
      "jacques</w>": 8259,
      "jak": 8260,
      "jam": 8261,
      "james</w>": 8262,
      "jan": 8263,
      "jan</w>": 8264,
      "jandar": 8265,
      "jandarma</w>": 8266,
      "jane</w>": 8267,
      "jap": 8268,
      "japon": 8269,
      "japon</w>": 8270,
      "japonya'da</w>": 8271,
      "japonya'nın</w>": 8272,
      "japonya</w>": 8273,
      "jar": 8274,
      "jas": 8275,
      "jason</w>": 8276,
      "jav": 8277,
      "jay</w>": 8278,
      "jaz": 8279,
      "je": 8280,
      "je</w>": 8281,
      "jean-": 8282,
      "jean</w>": 8283,
      "jef": 8284,
      "jeff</w>": 8285,
      "jel": 8286,
      "jen": 8287,
      "jen</w>": 8288,
      "jener": 8289,
      "jennif": 8290,
      "jennifer</w>": 8291,
      "jeolojik</w>": 8292,
      "jer": 8293,
      "jerry</w>": 8294,
      "jes": 8295,
      "jet</w>": 8296,
      "ji": 8297,
      "ji</w>": 8298,
      "jim": 8299,
      "jim</w>": 8300,
      "jimmy</w>": 8301,
      "jin": 8302,
      "jin</w>": 8303,
      "jo": 8304,
      "jo</w>": 8305,
      "joe</w>": 8306,
      "joh": 8307,
      "johan": 8308,
      "johann</w>": 8309,
      "john": 8310,
      "john</w>": 8311,
      "johnny</w>": 8312,
      "johnson</w>": 8313,
      "jok": 8314,
      "jon": 8315,
      "jon</w>": 8316,
      "jonathan</w>": 8317,
      "jones</w>": 8318,
      "jor": 8319,
      "jos": 8320,
      "josef</w>": 8321,
      "josep": 8322,
      "joseph</w>": 8323,
      "josé</w>": 8324,
      "journ": 8325,
      "journal</w>": 8326,
      "jov": 8327,
      "jr.</w>": 8328,
      "ju": 8329,
      "ju</w>": 8330,
      "juan</w>": 8331,
      "jud": 8332,
      "jul": 8333,
      "julia</w>": 8334,
      "julius</w>": 8335,
      "jum": 8336,
      "jun": 8337,
      "junior</w>": 8338,
      "jur": 8339,
      "just": 8340,
      "just</w>": 8341,
      "justin</w>": 8342,
      "juv": 8343,
      "juvent": 8344,
      "jüp": 8345,
      "jür": 8346,
      "jüri</w>": 8347,
      "k": 8348,
      "k'in</w>": 8349,
      "k)</w>": 8350,
      "k,</w>": 8351,
      "k-": 8352,
      "k.": 8353,
      "k.</w>": 8354,
      "k</w>": 8355,
      "ka": 8356,
      "ka,</w>": 8357,
      "ka</w>": 8358,
      "kab": 8359,
      "kaba</w>": 8360,
      "kabart": 8361,
      "kabil": 8362,
      "kabile</w>": 8363,
      "kabin": 8364,
      "kablos": 8365,
      "kabul": 8366,
      "kabul</w>": 8367,
      "kad": 8368,
      "kadar": 8369,
      "kadar,</w>": 8370,
      "kadar</w>": 8371,
      "kadem": 8372,
      "kader": 8373,
      "kadir</w>": 8374,
      "kadro": 8375,
      "kadro</w>": 8376,
      "kadros": 8377,
      "kadrosu</w>": 8378,
      "kadrosuna</w>": 8379,
      "kadrosunda</w>": 8380,
      "kadroya</w>": 8381,
      "kadık": 8382,
      "kadıköy</w>": 8383,
      "kadın": 8384,
      "kadın</w>": 8385,
      "kadınlar</w>": 8386,
      "kadınlara</w>": 8387,
      "kadınları</w>": 8388,
      "kadınların</w>": 8389,
      "kadını</w>": 8390,
      "kadının</w>": 8391,
      "kaf": 8392,
      "kafa</w>": 8393,
      "kafkas": 8394,
      "kafkas</w>": 8395,
      "kafkasya</w>": 8396,
      "kah": 8397,
      "kahir": 8398,
      "kahram": 8399,
      "kahraman": 8400,
      "kahraman</w>": 8401,
      "kahramanmar": 8402,
      "kahramanı</w>": 8403,
      "kahv": 8404,
      "kahve</w>": 8405,
      "kahver": 8406,
      "kahverengi</w>": 8407,
      "kak": 8408,
      "kal": 8409,
      "kal</w>": 8410,
      "kala</w>": 8411,
      "kalab": 8412,
      "kalabalık</w>": 8413,
      "kalan": 8414,
      "kalan</w>": 8415,
      "kalarak</w>": 8416,
      "kalb": 8417,
      "kald": 8418,
      "kaldı.</w>": 8419,
      "kaldı</w>": 8420,
      "kaldıktan</w>": 8421,
      "kaldılar.</w>": 8422,
      "kaldır": 8423,
      "kaldırıl": 8424,
      "kaldırıldı.</w>": 8425,
      "kaldığı</w>": 8426,
      "kale</w>": 8427,
      "kalec": 8428,
      "kaleci</w>": 8429,
      "kalem": 8430,
      "kaleme</w>": 8431,
      "kalenin</w>": 8432,
      "kalesi</w>": 8433,
      "kaliforn": 8434,
      "kaliforniy": 8435,
      "kaliforniya'da</w>": 8436,
      "kaliforniya</w>": 8437,
      "kalit": 8438,
      "kalite</w>": 8439,
      "kaliteli</w>": 8440,
      "kalk": 8441,
      "kalkın": 8442,
      "kalkınma</w>": 8443,
      "kalma</w>": 8444,
      "kalması</w>": 8445,
      "kalmış</w>": 8446,
      "kalmıştır.</w>": 8447,
      "kalp": 8448,
      "kalp</w>": 8449,
      "kalsiy": 8450,
      "kalıcı</w>": 8451,
      "kalın": 8452,
      "kalın</w>": 8453,
      "kalınt": 8454,
      "kalıntıları</w>": 8455,
      "kalıp": 8456,
      "kalıp</w>": 8457,
      "kalır.</w>": 8458,
      "kalıt": 8459,
      "kam": 8460,
      "kamer": 8461,
      "kamera</w>": 8462,
      "kamp": 8463,
      "kamp</w>": 8464,
      "kampan": 8465,
      "kamu": 8466,
      "kamu</w>": 8467,
      "kan": 8468,
      "kan,</w>": 8469,
      "kan</w>": 8470,
      "kanad": 8471,
      "kanada'da</w>": 8472,
      "kanada</w>": 8473,
      "kanadalı</w>": 8474,
      "kanal": 8475,
      "kanal</w>": 8476,
      "kanalları</w>": 8477,
      "kanalı</w>": 8478,
      "kanalında</w>": 8479,
[...]
