{
  "version": "1.0",
  "model": {
    "type": "custom_bpe",
    "vocab_size": 15985,
    "vocab": {
      "<pad>": 0,
      "<unk>": 1,
      "<bos>": 2,
      "<eos>": 3,
      "!": 4,
      "!\"</w>": 5,
      "!</w>": 6,
      "\"": 7,
      "\")</w>": 8,
      "\",</w>": 9,
      "\".</w>": 10,
      "\"</w>": 11,
      "\"bir</w>": 12,
      "\"bu</w>": 13,
      "\"en</w>": 14,
      "\"n": 15,
      "\"the</w>": 16,
      "\"|": 17,
      "#": 18,
      "$": 19,
      "$</w>": 20,
      "%": 21,
      "%0,": 22,
      "%1,": 23,
      "%10": 24,
      "%2": 25,
      "%20": 26,
      "%3": 27,
      "%4": 28,
      "%5": 29,
      "%6": 30,
      "%7": 31,
      "%8": 32,
      "%9": 33,
      "%</w>": 34,
      "&": 35,
      "&</w>": 36,
      "'": 37,
      "''": 38,
      "''</w>": 39,
      "',</w>": 40,
      "'</w>": 41,
      "'a,</w>": 42,
      "'a</w>": 43,
      "'da,</w>": 44,
      "'da</w>": 45,
      "'daki</w>": 46,
      "'dan</w>": 47,
      "'de,</w>": 48,
      "'de</w>": 49,
      "'deki</w>": 50,
      "'den</w>": 51,
      "'dir.</w>": 52,
      "'dir</w>": 53,
      "'dur.</w>": 54,
      "'dır.</w>": 55,
      "'e,</w>": 56,
      "'e</w>": 57,
      "'i</w>": 58,
      "'in,</w>": 59,
      "'in</w>": 60,
      "'inde</w>": 61,
      "'ini</w>": 62,
      "'l-": 63,
      "'la</w>": 64,
      "'lar</w>": 65,
      "'le</w>": 66,
      "'ler</w>": 67,
      "'lerde</w>": 68,
      "'lerin</w>": 69,
      "'li</w>": 70,
      "'lik</w>": 71,
      "'n": 72,
      "'na</w>": 73,
      "'nda</w>": 74,
      "'nin</w>": 75,
      "'nun</w>": 76,
      "'nün</w>": 77,
      "'nın</w>": 78,
      "'s": 79,
      "'s</w>": 80,
      "'si</w>": 81,
      "'sini</w>": 82,
      "'sı</w>": 83,
      "'ta</w>": 84,
      "'taki</w>": 85,
      "'tan</w>": 86,
      "'te,</w>": 87,
      "'te</w>": 88,
      "'teki</w>": 89,
      "'ten</w>": 90,
      "'tir.</w>": 91,
      "'u</w>": 92,
      "'un</w>": 93,
      "'y": 94,
      "'ya</w>": 95,
      "'ye</w>": 96,
      "'yi</w>": 97,
      "'yla</w>": 98,
      "'yle</w>": 99,
      "'yu</w>": 100,
      "'yı</w>": 101,
      "'ü</w>": 102,
      "'ün</w>": 103,
      "'ı</w>": 104,
      "'ın,</w>": 105,
      "'ın</w>": 106,
      "'ında</w>": 107,
      "(": 108,
      "(\"": 109,
      "(%": 110,
      "(),</w>": 111,
      "()</w>": 112,
      "(,</w>": 113,
      "(-": 114,
      "(1": 115,
      "(10": 116,
      "(17": 117,
      "(183": 118,
      "(184": 119,
      "(185": 120,
      "(186": 121,
      "(187": 122,
      "(188": 123,
      "(189": 124,
      "(19": 125,
      "(190": 126,
      "(192": 127,
      "(193": 128,
      "(194": 129,
      "(195": 130,
      "(196": 131,
      "(197": 132,
      "(198": 133,
      "(199": 134,
      "(2": 135,
      "(200": 136,
      "(201": 137,
      "(3": 138,
      "(4": 139,
      "(5": 140,
      "(6": 141,
      "(9": 142,
      "(</w>": 143,
      "(a": 144,
      "(ab": 145,
      "(ac": 146,
      "(al": 147,
      "(b": 148,
      "(b.</w>": 149,
      "(bir</w>": 150,
      "(bu</w>": 151,
      "(c": 152,
      "(d": 153,
      "(d.": 154,
      "(d.</w>": 155,
      "(daha</w>": 156,
      "(de-": 157,
      "(doğ": 158,
      "(erkek</w>": 159,
      "(eski</w>": 160,
      "(f": 161,
      "(g": 162,
      "(h": 163,
      "(in": 164,
      "(i̇ngilizc": 165,
      "(i̇ngilizce": 166,
      "(i̇ngilizce)</w>": 167,
      "(i̇ngilizce:</w>": 168,
      "(j": 169,
      "(k": 170,
      "(l": 171,
      "(m": 172,
      "(msc": 173,
      "(msc-": 174,
      "(mö</w>": 175,
      "(n": 176,
      "(p": 177,
      "(r": 178,
      "(s": 179,
      "(t": 180,
      "(the</w>": 181,
      "(türkç": 182,
      "(v": 183,
      "(ve</w>": 184,
      "(veya</w>": 185,
      "(x": 186,
      "(y": 187,
      "(ya</w>": 188,
      "(yani</w>": 189,
      "(ö.</w>": 190,
      "(örneğin</w>": 191,
      "(özellikle</w>": 192,
      ")": 193,
      ")\"</w>": 194,
      "))</w>": 195,
      "),</w>": 196,
      ").</w>": 197,
      "):</w>": 198,
      ");</w>": 199,
      ")</w>": 200,
      "*": 201,
      "*</w>": 202,
      "+": 203,
      "+</w>": 204,
      ",": 205,
      ",</w>": 206,
      "-": 207,
      "--": 208,
      "--</w>": 209,
      "-</w>": 210,
      "-amerikalı</w>": 211,
      "-i</w>": 212,
      "-ı</w>": 213,
      ".": 214,
      ".\"</w>": 215,
      ".)</w>": 216,
      ".,</w>": 217,
      "..": 218,
      "...": 219,
      "....": 220,
      "...</w>": 221,
      "..</w>": 222,
      ".0": 223,
      ".00": 224,
      ".000": 225,
      ".000'den</w>": 226,
      ".000.000</w>": 227,
      ".000</w>": 228,
      ".</w>": 229,
      ".com": 230,
      ".com/": 231,
      ".com</w>": 232,
      ".”</w>": 233,
      "/": 234,
      "//</w>": 235,
      "/</w>": 236,
      "/kadın</w>": 237,
      "0": 238,
      "0'": 239,
      "0'da</w>": 240,
      "0'de</w>": 241,
      "0'den</w>": 242,
      "0'i</w>": 243,
      "0'ler</w>": 244,
      "0'lerde</w>": 245,
      "0'lerin</w>": 246,
      "0'li</w>": 247,
      "0'te</w>": 248,
      "0'ı</w>": 249,
      "0),</w>": 250,
      "0)</w>": 251,
      "0,": 252,
      "0,</w>": 253,
      "0-": 254,
      "0.": 255,
      "0.</w>": 256,
      "00": 257,
      "0000": 258,
      "000</w>": 259,
      "00</w>": 260,
      "0:</w>": 261,
      "0</w>": 262,
      "0’": 263,
      "1": 264,
      "1'de</w>": 265,
      "1'den</w>": 266,
      "1'e</w>": 267,
      "1'i</w>": 268,
      "1),</w>": 269,
      "1).</w>": 270,
      "1)</w>": 271,
      "1,": 272,
      "1,5</w>": 273,
      "1,</w>": 274,
      "1-": 275,
      "1-0</w>": 276,
      "1.": 277,
      "1.0": 278,
      "1.000</w>": 279,
      "1.</w>": 280,
      "1/": 281,
      "10": 282,
      "10)</w>": 283,
      "10-": 284,
      "10.": 285,
      "10.000</w>": 286,
      "10.</w>": 287,
      "100": 288,
      "1000</w>": 289,
      "100</w>": 290,
      "107": 291,
      "10</w>": 292,
      "11": 293,
      "11.": 294,
      "11.</w>": 295,
      "110": 296,
      "117": 297,
      "118": 298,
      "11</w>": 299,
      "12": 300,
      "12-": 301,
      "12.": 302,
      "12.</w>": 303,
      "120": 304,
      "120</w>": 305,
      "125": 306,
      "127": 307,
      "128": 308,
      "12</w>": 309,
      "13": 310,
      "13.": 311,
      "13.</w>": 312,
      "130": 313,
      "138": 314,
      "139": 315,
      "13</w>": 316,
      "14": 317,
      "14.": 318,
      "14.</w>": 319,
      "140": 320,
      "144": 321,
      "145": 322,
      "146": 323,
      "147": 324,
      "148": 325,
      "149": 326,
      "14</w>": 327,
      "15": 328,
      "15)</w>": 329,
      "15-": 330,
      "15.</w>": 331,
      "150": 332,
      "1500</w>": 333,
      "150</w>": 334,
      "152": 335,
      "153": 336,
      "154": 337,
      "155": 338,
      "156": 339,
      "157": 340,
      "158": 341,
      "159": 342,
      "15</w>": 343,
      "16": 344,
      "16)</w>": 345,
      "16-": 346,
      "16.": 347,
      "16.</w>": 348,
      "160": 349,
      "162": 350,
      "163": 351,
      "164": 352,
      "165": 353,
      "166": 354,
      "167": 355,
      "168": 356,
      "169": 357,
      "16</w>": 358,
      "17": 359,
      "17)</w>": 360,
      "17.</w>": 361,
      "170": 362,
      "172": 363,
      "173": 364,
      "174": 365,
      "175": 366,
      "176": 367,
      "177": 368,
      "178": 369,
      "179": 370,
      "17</w>": 371,
      "18": 372,
      "18'de</w>": 373,
      "18)</w>": 374,
      "18-": 375,
      "18.</w>": 376,
      "180": 377,
      "1800": 378,
      "181": 379,
      "182": 380,
      "183": 381,
      "184": 382,
      "1848</w>": 383,
      "185": 384,
      "1856</w>": 385,
      "1859</w>": 386,
      "186": 387,
      "1861</w>": 388,
      "1863</w>": 389,
      "1864</w>": 390,
      "1865</w>": 391,
      "1867</w>": 392,
      "1868</w>": 393,
      "1869</w>": 394,
      "187": 395,
      "1870</w>": 396,
      "1871</w>": 397,
      "1872</w>": 398,
      "1873)</w>": 399,
      "1873</w>": 400,
      "1874)</w>": 401,
      "1874</w>": 402,
      "1875</w>": 403,
      "1876)</w>": 404,
      "1876</w>": 405,
      "1877)</w>": 406,
      "1877</w>": 407,
      "1878)</w>": 408,
      "1878</w>": 409,
      "1879)</w>": 410,
      "1879</w>": 411,
      "188": 412,
      "1880)</w>": 413,
      "1880</w>": 414,
      "1881)</w>": 415,
      "1881</w>": 416,
      "1882)</w>": 417,
      "1882</w>": 418,
      "1883)</w>": 419,
      "1883</w>": 420,
      "1884)</w>": 421,
      "1884</w>": 422,
      "1885)</w>": 423,
      "1885</w>": 424,
      "1886)</w>": 425,
      "1886</w>": 426,
      "1887)</w>": 427,
      "1887</w>": 428,
      "1888)</w>": 429,
      "1888</w>": 430,
      "1889)</w>": 431,
      "1889</w>": 432,
      "189": 433,
      "1890)</w>": 434,
      "1890</w>": 435,
      "1891)</w>": 436,
      "1891</w>": 437,
      "1892)</w>": 438,
      "1892</w>": 439,
      "1893)</w>": 440,
      "1893</w>": 441,
      "1894)</w>": 442,
      "1894</w>": 443,
      "1895)</w>": 444,
      "1895</w>": 445,
      "1896)</w>": 446,
      "1896</w>": 447,
      "1897)</w>": 448,
      "1897</w>": 449,
      "1898)</w>": 450,
      "1898</w>": 451,
      "1899)</w>": 452,
      "1899</w>": 453,
      "18</w>": 454,
      "19": 455,
      "19'da</w>": 456,
      "19)</w>": 457,
      "19-": 458,
      "19.": 459,
      "19.</w>": 460,
      "190": 461,
      "1900": 462,
      "1900)</w>": 463,
      "1900</w>": 464,
      "1901)</w>": 465,
      "1901</w>": 466,
      "1902)</w>": 467,
      "1902</w>": 468,
      "1903)</w>": 469,
      "1903</w>": 470,
      "1904)</w>": 471,
      "1904</w>": 472,
      "1905)</w>": 473,
      "1905</w>": 474,
      "1906)</w>": 475,
      "1906</w>": 476,
      "1907)</w>": 477,
      "1907</w>": 478,
      "1908)</w>": 479,
      "1908</w>": 480,
      "1909)</w>": 481,
      "1909</w>": 482,
      "191": 483,
      "1910)</w>": 484,
      "1910</w>": 485,
      "1911)</w>": 486,
      "1911</w>": 487,
      "1912)</w>": 488,
      "1912</w>": 489,
      "1913)</w>": 490,
      "1913</w>": 491,
      "1914": 492,
      "1914)</w>": 493,
      "1914</w>": 494,
      "1915": 495,
      "1915)</w>": 496,
      "1915</w>": 497,
      "1916)</w>": 498,
      "1916</w>": 499,
      "1917": 500,
      "1917)</w>": 501,
      "1917</w>": 502,
      "1918'de</w>": 503,
      "1918)</w>": 504,
      "1918</w>": 505,
      "1919'da</w>": 506,
      "1919)</w>": 507,
      "1919</w>": 508,
      "192": 509,
      "1920": 510,
      "1920'de</w>": 511,
      "1920)</w>": 512,
      "1920</w>": 513,
      "1921'de</w>": 514,
      "1921)</w>": 515,
      "1921</w>": 516,
      "1922'de</w>": 517,
      "1922)</w>": 518,
      "1922</w>": 519,
      "1923'te</w>": 520,
      "1923)</w>": 521,
      "1923</w>": 522,
      "1924)</w>": 523,
      "1924</w>": 524,
      "1925)</w>": 525,
      "1925</w>": 526,
      "1926)</w>": 527,
      "1926</w>": 528,
      "1927)</w>": 529,
      "1927</w>": 530,
      "1928)</w>": 531,
      "1928</w>": 532,
      "1929)</w>": 533,
      "1929</w>": 534,
      "193": 535,
      "1930'": 536,
      "1930)</w>": 537,
      "1930</w>": 538,
      "1931)</w>": 539,
      "1931</w>": 540,
      "1932)</w>": 541,
      "1932</w>": 542,
      "1933)</w>": 543,
      "1933</w>": 544,
      "1934)</w>": 545,
      "1934</w>": 546,
      "1935)</w>": 547,
      "1935</w>": 548,
      "1936)</w>": 549,
      "1936</w>": 550,
      "1937)</w>": 551,
      "1937</w>": 552,
      "1938)</w>": 553,
      "1938</w>": 554,
      "1939'da</w>": 555,
      "1939)</w>": 556,
      "1939</w>": 557,
      "194": 558,
      "1940'": 559,
      "1940)</w>": 560,
      "1940</w>": 561,
      "1941)</w>": 562,
      "1941</w>": 563,
      "1942)</w>": 564,
      "1942</w>": 565,
      "1943)</w>": 566,
      "1943</w>": 567,
      "1944)</w>": 568,
      "1944</w>": 569,
      "1945'te</w>": 570,
      "1945)</w>": 571,
      "1945</w>": 572,
      "1946)</w>": 573,
      "1946</w>": 574,
      "1947)</w>": 575,
      "1947</w>": 576,
      "1948)</w>": 577,
      "1948</w>": 578,
      "1949)</w>": 579,
      "1949</w>": 580,
      "195": 581,
      "1950)</w>": 582,
      "1950</w>": 583,
      "1951)</w>": 584,
      "1951</w>": 585,
      "1952)</w>": 586,
      "1952</w>": 587,
      "1953)</w>": 588,
      "1953</w>": 589,
      "1954)</w>": 590,
      "1954</w>": 591,
      "1955)</w>": 592,
      "1955</w>": 593,
      "1956)</w>": 594,
      "1956</w>": 595,
      "1957)</w>": 596,
      "1957</w>": 597,
      "1958)</w>": 598,
      "1958</w>": 599,
      "1959)</w>": 600,
      "1959</w>": 601,
      "196": 602,
      "1960'": 603,
      "1960)</w>": 604,
      "1960</w>": 605,
      "1961)</w>": 606,
      "1961</w>": 607,
      "1962)</w>": 608,
      "1962</w>": 609,
      "1963)</w>": 610,
      "1963</w>": 611,
      "1964)</w>": 612,
      "1964</w>": 613,
      "1965)</w>": 614,
      "1965</w>": 615,
      "1966)</w>": 616,
      "1966</w>": 617,
      "1967)</w>": 618,
      "1967</w>": 619,
      "1968)</w>": 620,
      "1968</w>": 621,
      "1969)</w>": 622,
      "1969</w>": 623,
      "197": 624,
      "1970'li</w>": 625,
      "1970)</w>": 626,
      "1970</w>": 627,
      "1971)</w>": 628,
      "1971</w>": 629,
      "1972)</w>": 630,
      "1972</w>": 631,
      "1973)</w>": 632,
      "1973</w>": 633,
      "1974)</w>": 634,
      "1974</w>": 635,
      "1975)</w>": 636,
      "1975</w>": 637,
      "1976)</w>": 638,
      "1976</w>": 639,
      "1977)</w>": 640,
      "1977</w>": 641,
      "1978)</w>": 642,
      "1978</w>": 643,
      "1979)</w>": 644,
      "1979</w>": 645,
      "198": 646,
      "1980'de</w>": 647,
      "1980'li</w>": 648,
      "1980)</w>": 649,
      "1980</w>": 650,
      "1981)</w>": 651,
      "1981</w>": 652,
      "1982)</w>": 653,
      "1982</w>": 654,
      "1983)</w>": 655,
      "1983</w>": 656,
      "1984)</w>": 657,
      "1984</w>": 658,
      "1985)</w>": 659,
      "1985</w>": 660,
      "1986)</w>": 661,
      "1986</w>": 662,
      "1987)</w>": 663,
      "1987</w>": 664,
      "1988)</w>": 665,
      "1988</w>": 666,
      "1989)</w>": 667,
      "1989</w>": 668,
      "199": 669,
      "1990'": 670,
      "1990'da</w>": 671,
      "1990'ların</w>": 672,
      "1990)</w>": 673,
      "1990</w>": 674,
      "1991'de</w>": 675,
      "1991)</w>": 676,
      "1991</w>": 677,
      "1992'de</w>": 678,
      "1992)</w>": 679,
      "1992</w>": 680,
      "1993'te</w>": 681,
      "1993)</w>": 682,
      "1993</w>": 683,
      "1994'te</w>": 684,
      "1994)</w>": 685,
      "1994</w>": 686,
      "1995'te</w>": 687,
      "1995)</w>": 688,
      "1995</w>": 689,
      "1996'da</w>": 690,
      "1996)</w>": 691,
      "1996</w>": 692,
      "1997'de</w>": 693,
      "1997)</w>": 694,
      "1997</w>": 695,
      "1998'de</w>": 696,
      "1998)</w>": 697,
      "1998</w>": 698,
      "1999'da</w>": 699,
      "1999)</w>": 700,
      "1999</w>": 701,
      "19</w>": 702,
      "1:</w>": 703,
      "1</w>": 704,
      "1–": 705,
      "1’de</w>": 706,
      "1⁄": 707,
      "2": 708,
      "2'de</w>": 709,
      "2'den</w>": 710,
      "2'si</w>": 711,
      "2'ye</w>": 712,
      "2),</w>": 713,
      "2).</w>": 714,
      "2)</w>": 715,
      "2,": 716,
      "2,5</w>": 717,
      "2,</w>": 718,
      "2-": 719,
      "2.": 720,
      "2.</w>": 721,
      "20": 722,
      "20)</w>": 723,
      "20.</w>": 724,
      "200": 725,
      "2000)</w>": 726,
      "2000</w>": 727,
      "2001'de</w>": 728,
      "2001)</w>": 729,
      "2001</w>": 730,
      "2002'de</w>": 731,
      "2002)</w>": 732,
      "2002</w>": 733,
      "2003)</w>": 734,
      "2003</w>": 735,
      "2004'te</w>": 736,
      "2004)</w>": 737,
      "2004</w>": 738,
      "2005'te</w>": 739,
      "2005)</w>": 740,
      "2005</w>": 741,
      "2006'da</w>": 742,
      "2006)</w>": 743,
      "2006</w>": 744,
      "2007'de</w>": 745,
      "2007)</w>": 746,
      "2007</w>": 747,
      "2008'de</w>": 748,
      "2008)</w>": 749,
      "2008</w>": 750,
      "2009'da</w>": 751,
      "2009)</w>": 752,
      "2009</w>": 753,
      "200</w>": 754,
      "201": 755,
      "2010'da</w>": 756,
      "2010)</w>": 757,
      "2010</w>": 758,
      "2011'de</w>": 759,
      "2011)</w>": 760,
      "2011</w>": 761,
      "2012'de</w>": 762,
      "2012)</w>": 763,
      "2012</w>": 764,
      "2013'te</w>": 765,
      "2013)</w>": 766,
      "2013</w>": 767,
      "2014'te</w>": 768,
      "2014)</w>": 769,
      "2014</w>": 770,
      "2015'te</w>": 771,
      "2015)</w>": 772,
      "2015</w>": 773,
      "2016'da</w>": 774,
      "2016)</w>": 775,
      "2016</w>": 776,
      "2017'de</w>": 777,
      "2017)</w>": 778,
      "2017</w>": 779,
      "2018'de</w>": 780,
      "2018)</w>": 781,
      "2018</w>": 782,
      "2019'da</w>": 783,
      "2019)</w>": 784,
      "2019</w>": 785,
      "202": 786,
      "2020": 787,
      "2020'de</w>": 788,
      "2020)</w>": 789,
      "2020</w>": 790,
      "2021)</w>": 791,
      "2021</w>": 792,
      "2022)</w>": 793,
      "2022</w>": 794,
      "2023)</w>": 795,
      "2023</w>": 796,
      "20</w>": 797,
      "21": 798,
      "21.</w>": 799,
      "21</w>": 800,
      "22": 801,
      "22</w>": 802,
      "23": 803,
      "23</w>": 804,
      "24": 805,
      "24</w>": 806,
      "25": 807,
      "25-": 808,
      "250</w>": 809,
      "25</w>": 810,
      "26": 811,
      "26</w>": 812,
      "27": 813,
      "27</w>": 814,
      "28": 815,
      "28</w>": 816,
      "29": 817,
      "29</w>": 818,
      "2:</w>": 819,
      "2</w>": 820,
      "2–": 821,
      "2’de</w>": 822,
      "3": 823,
      "3'": 824,
      "3'e</w>": 825,
      "3'te</w>": 826,
      "3'ten</w>": 827,
      "3'ü</w>": 828,
      "3),</w>": 829,
      "3).</w>": 830,
      "3)</w>": 831,
      "3,": 832,
      "3,</w>": 833,
      "3-": 834,
      "3.": 835,
      "3.</w>": 836,
      "3/": 837,
      "30": 838,
      "300": 839,
      "3000</w>": 840,
      "300</w>": 841,
      "30</w>": 842,
      "31</w>": 843,
      "32": 844,
      "32</w>": 845,
      "33": 846,
      "33</w>": 847,
      "34": 848,
      "34</w>": 849,
      "35": 850,
      "35</w>": 851,
      "36": 852,
      "36</w>": 853,
      "37": 854,
      "37</w>": 855,
      "38": 856,
      "38</w>": 857,
      "39": 858,
      "39</w>": 859,
      "3:</w>": 860,
      "3</w>": 861,
      "3–": 862,
      "3’te</w>": 863,
      "4": 864,
      "4'": 865,
      "4'e</w>": 866,
      "4'te</w>": 867,
      "4'ten</w>": 868,
      "4'ü</w>": 869,
      "4),</w>": 870,
      "4).</w>": 871,
      "4)</w>": 872,
      "4,": 873,
      "4,</w>": 874,
      "4-": 875,
      "4.": 876,
      "4.</w>": 877,
      "40": 878,
      "400": 879,
      "400</w>": 880,
      "40</w>": 881,
      "41</w>": 882,
      "42": 883,
      "42</w>": 884,
      "43": 885,
      "43</w>": 886,
      "44</w>": 887,
      "45": 888,
      "45</w>": 889,
      "46": 890,
      "46</w>": 891,
      "47": 892,
      "47</w>": 893,
      "48": 894,
      "48</w>": 895,
      "49": 896,
      "49</w>": 897,
      "4:</w>": 898,
      "4</w>": 899,
      "4–": 900,
      "4’te</w>": 901,
      "5": 902,
      "5'e</w>": 903,
      "5'i</w>": 904,
      "5'te</w>": 905,
      "5'ten</w>": 906,
      "5),</w>": 907,
      "5).</w>": 908,
      "5)</w>": 909,
      "5,": 910,
      "5,</w>": 911,
      "5-": 912,
      "5.": 913,
      "5.</w>": 914,
      "50": 915,
      "50.000</w>": 916,
      "500": 917,
      "500</w>": 918,
      "50</w>": 919,
      "51</w>": 920,
      "52</w>": 921,
      "53</w>": 922,
      "54</w>": 923,
      "55": 924,
      "55</w>": 925,
      "56": 926,
      "56</w>": 927,
      "57": 928,
      "57</w>": 929,
      "58": 930,
      "5:</w>": 931,
      "5</w>": 932,
      "5–": 933,
      "5’te</w>": 934,
      "6": 935,
      "6'da</w>": 936,
      "6'dan</w>": 937,
      "6'sı</w>": 938,
      "6),</w>": 939,
      "6).</w>": 940,
      "6)</w>": 941,
      "6,": 942,
      "6,</w>": 943,
      "6-": 944,
      "6.": 945,
      "6.</w>": 946,
      "60": 947,
      "600": 948,
      "600</w>": 949,
      "60</w>": 950,
      "61</w>": 951,
      "62</w>": 952,
      "63": 953,
      "63</w>": 954,
      "64": 955,
      "64</w>": 956,
      "65": 957,
      "65</w>": 958,
      "66": 959,
      "66</w>": 960,
      "67": 961,
      "67</w>": 962,
      "68": 963,
      "68</w>": 964,
      "69</w>": 965,
      "6:</w>": 966,
      "6</w>": 967,
      "6–": 968,
      "6’da</w>": 969,
      "7": 970,
      "7'de</w>": 971,
      "7'den</w>": 972,
      "7),</w>": 973,
      "7).</w>": 974,
      "7)</w>": 975,
      "7,": 976,
      "7,</w>": 977,
      "7-": 978,
      "7.": 979,
      "7.</w>": 980,
      "70": 981,
      "700": 982,
      "700</w>": 983,
      "70</w>": 984,
      "72</w>": 985,
      "75": 986,
      "75</w>": 987,
      "77": 988,
      "78": 989,
      "78</w>": 990,
      "7:</w>": 991,
      "7</w>": 992,
      "7–": 993,
      "7’de</w>": 994,
      "8": 995,
      "8'de</w>": 996,
      "8'den</w>": 997,
      "8),</w>": 998,
      "8).</w>": 999,
      "8)</w>": 1000,
      "8,": 1001,
      "8,</w>": 1002,
      "8-": 1003,
      "8.": 1004,
      "8.</w>": 1005,
      "80": 1006,
      "800": 1007,
      "800</w>": 1008,
      "80</w>": 1009,
      "81</w>": 1010,
      "85": 1011,
      "85</w>": 1012,
      "86</w>": 1013,
      "87": 1014,
      "88": 1015,
      "88</w>": 1016,
      "8:</w>": 1017,
      "8</w>": 1018,
      "8–": 1019,
      "8’de</w>": 1020,
      "9": 1021,
      "9'da</w>": 1022,
      "9'dan</w>": 1023,
      "9),</w>": 1024,
      "9).</w>": 1025,
      "9)</w>": 1026,
      "9,": 1027,
      "9,</w>": 1028,
      "9-": 1029,
      "9.": 1030,
      "9.</w>": 1031,
      "90": 1032,
      "90</w>": 1033,
      "91</w>": 1034,
      "92</w>": 1035,
      "93</w>": 1036,
      "95": 1037,
      "95</w>": 1038,
      "96": 1039,
      "96</w>": 1040,
      "97": 1041,
      "975-": 1042,
      "978-": 1043,
      "97</w>": 1044,
      "98": 1045,
      "98</w>": 1046,
      "99": 1047,
      "99</w>": 1048,
      "9:</w>": 1049,
      "9</w>": 1050,
      "9–": 1051,
      "9’da</w>": 1052,
      ":": 1053,
      ":#": 1054,
      ":/": 1055,
      "://": 1056,
      ":2": 1057,
      ":</w>": 1058,
      ";": 1059,
      ";\"</w>": 1060,
      ";\"|": 1061,
      ";</w>": 1062,
      "<": 1063,
      "</": 1064,
      "</w>": 1065,
      "=": 1066,
      "=\"": 1067,
      "=</w>": 1068,
      ">": 1069,
      "></w>": 1070,
      "?": 1071,
      "?\"</w>": 1072,
      "?)</w>": 1073,
      "?</w>": 1074,
      "@": 1075,
      "[": 1076,
      "\\": 1077,
      "]": 1078,
      "]</w>": 1079,
      "^": 1080,
      "_": 1081,
      "`": 1082,
      "a": 1083,
      "a\"</w>": 1084,
      "a'": 1085,
      "a'</w>": 1086,
      "a'da,</w>": 1087,
      "a'da</w>": 1088,
      "a'daki</w>": 1089,
      "a'dan</w>": 1090,
      "a'dır.</w>": 1091,
      "a'nın</w>": 1092,
      "a'ya</w>": 1093,
      "a'yı</w>": 1094,
      "a),</w>": 1095,
      "a)</w>": 1096,
      "a,</w>": 1097,
      "a-": 1098,
      "a-her": 1099,
      "a-i</w>": 1100,
      "a.": 1101,
      "a.</w>": 1102,
      "a:</w>": 1103,
      "a;</w>": 1104,
      "a</w>": 1105,
      "aat": 1106,
      "aat</w>": 1107,
      "ab": 1108,
      "ab</w>": 1109,
      "abah": 1110,
      "abak": 1111,
      "abbas": 1112,
      "abd": 1113,
      "abd'de</w>": 1114,
      "abd'nin</w>": 1115,
      "abd'ye</w>": 1116,
      "abd,</w>": 1117,
      "abd</w>": 1118,
      "abdullah</w>": 1119,
      "abdur": 1120,
      "abdül": 1121,
      "abdülaziz</w>": 1122,
      "abdülham": 1123,
      "abdülhamid": 1124,
      "abdülhamid'in</w>": 1125,
      "abdülhamid</w>": 1126,
      "abdülmec": 1127,
      "abel</w>": 1128,
      "abet": 1129,
      "abet</w>": 1130,
      "abeth</w>": 1131,
      "abil": 1132,
      "abildiği</w>": 1133,
      "abilecek</w>": 1134,
      "abileceğ": 1135,
      "abileceği</w>": 1136,
      "abileceğini</w>": 1137,
      "abilen</w>": 1138,
      "abilir": 1139,
      "abilir,</w>": 1140,
      "abilir.</w>": 1141,
      "abilir</w>": 1142,
      "abilirler.</w>": 1143,
      "abilm": 1144,
      "abilmek</w>": 1145,
      "abilmektedir.</w>": 1146,
      "abilmesi</w>": 1147,
      "abilmiştir.</w>": 1148,
      "abol": 1149,
      "abrah": 1150,
      "abı</w>": 1151,
      "ac": 1152,
      "ac</w>": 1153,
      "aca</w>": 1154,
      "acak": 1155,
      "acak,</w>": 1156,
      "acak</w>": 1157,
      "acakt": 1158,
      "acaktı.</w>": 1159,
      "acaktır.</w>": 1160,
      "acağ": 1161,
      "acağı</w>": 1162,
      "acağına</w>": 1163,
      "acağını</w>": 1164,
      "ace": 1165,
      "ace</w>": 1166,
      "ach": 1167,
      "acil</w>": 1168,
      "ack": 1169,
      "ack</w>": 1170,
      "acı,</w>": 1171,
      "acı</w>": 1172,
      "acılık</w>": 1173,
      "ad": 1174,
      "ad,</w>": 1175,
      "ad</w>": 1176,
      "ada,</w>": 1177,
      "ada</w>": 1178,
      "adac": 1179,
      "adada</w>": 1180,
      "adaki</w>": 1181,
      "adal": 1182,
      "adalar": 1183,
      "adalar</w>": 1184,
      "adaları</w>": 1185,
      "adalet</w>": 1186,
      "adam": 1187,
      "adam</w>": 1188,
      "adamları</w>": 1189,
      "adams,</w>": 1190,
      "adamı,</w>": 1191,
      "adamı</w>": 1192,
      "adan": 1193,
      "adan</w>": 1194,
      "adana</w>": 1195,
      "adanın</w>": 1196,
      "adap": 1197,
      "adası</w>": 1198,
      "aday": 1199,
      "aday</w>": 1200,
      "adaya</w>": 1201,
      "adayı</w>": 1202,
      "ade": 1203,
      "ade,</w>": 1204,
      "ade</w>": 1205,
      "adel": 1206,
      "adem": 1207,
      "aden": 1208,
      "adet": 1209,
      "adet</w>": 1210,
      "adi</w>": 1211,
      "adig": 1212,
      "adil</w>": 1213,
      "adlandır": 1214,
      "adlandırıl": 1215,
      "adlandırılan</w>": 1216,
      "adlandırılır.</w>": 1217,
      "adları</w>": 1218,
      "adlı</w>": 1219,
      "adnan</w>": 1220,
      "ado</w>": 1221,
      "adok": 1222,
      "adol": 1223,
      "adolf</w>": 1224,
      "adr": 1225,
      "adres": 1226,
      "adres</w>": 1227,
      "adresi</w>": 1228,
      "adri": 1229,
      "adı": 1230,
      "adı,</w>": 1231,
      "adı.</w>": 1232,
      "adı:</w>": 1233,
      "adı</w>": 1234,
      "adılar.</w>": 1235,
      "adım": 1236,
      "adım</w>": 1237,
      "adına</w>": 1238,
      "adında</w>": 1239,
      "adındaki</w>": 1240,
      "adından</w>": 1241,
      "adını</w>": 1242,
      "adının</w>": 1243,
      "adır": 1244,
      "adır,</w>": 1245,
      "adır.</w>": 1246,
      "adır</w>": 1247,
      "adırlar.</w>": 1248,
      "adıy": 1249,
      "adıyam": 1250,
      "adıyla</w>": 1251,
      "adığı</w>": 1252,
      "ae": 1253,
      "ae)</w>": 1254,
      "ae</w>": 1255,
      "ael</w>": 1256,
      "aer": 1257,
      "af": 1258,
      "af</w>": 1259,
      "aff": 1260,
      "afgan": 1261,
      "afganistan</w>": 1262,
      "afrik": 1263,
      "afrika'da</w>": 1264,
      "afrika'nın</w>": 1265,
      "afrika</w>": 1266,
      "afrikalı</w>": 1267,
      "afyon": 1268,
      "afyonkarahis": 1269,
      "ag": 1270,
      "ag</w>": 1271,
      "age</w>": 1272,
      "ago</w>": 1273,
      "agon": 1274,
      "agor": 1275,
      "agr": 1276,
      "agu": 1277,
      "ah": 1278,
      "ah,</w>": 1279,
      "ah</w>": 1280,
      "aha</w>": 1281,
      "aham": 1282,
      "aham</w>": 1283,
      "ahat": 1284,
      "ahat</w>": 1285,
      "ahattin</w>": 1286,
      "ahi</w>": 1287,
      "ahit</w>": 1288,
      "ahl": 1289,
      "ahlak": 1290,
      "ahlaki</w>": 1291,
      "ahmed": 1292,
      "ahmed</w>": 1293,
      "ahmet</w>": 1294,
      "ahş": 1295,
      "ahşap</w>": 1296,
      "ai": 1297,
      "ai,</w>": 1298,
      "ai</w>": 1299,
      "aid": 1300,
      "aids</w>": 1301,
      "ail": 1302,
      "ail</w>": 1303,
      "aile</w>": 1304,
      "ailenin</w>": 1305,
      "ailesi</w>": 1306,
      "ailesine</w>": 1307,
      "ailesinin</w>": 1308,
      "ain": 1309,
      "ain</w>": 1310,
      "air": 1311,
      "air</w>": 1312,
      "ait": 1313,
      "ait</w>": 1314,
      "aittir.</w>": 1315,
      "aj": 1316,
      "aj</w>": 1317,
      "ajda</w>": 1318,
      "ajı</w>": 1319,
      "ak": 1320,
      "ak,</w>": 1321,
      "ak</w>": 1322,
      "aka,</w>": 1323,
      "aka</w>": 1324,
      "akab": 1325,
      "akadem": 1326,
      "akademi</w>": 1327,
      "akademik</w>": 1328,
      "akademis": 1329,
      "akademisi</w>": 1330,
      "akademisyen": 1331,
      "akademisyen,</w>": 1332,
      "akademisyen</w>": 1333,
      "akan</w>": 1334,
      "akar": 1335,
      "akarsu": 1336,
      "akarsu</w>": 1337,
      "akat</w>": 1338,
      "akciğ": 1339,
      "akciğer</w>": 1340,
      "akdeniz": 1341,
      "akdeniz</w>": 1342,
      "aker": 1343,
      "aki</w>": 1344,
      "akk": 1345,
      "akkoyun": 1346,
      "akl": 1347,
      "akla</w>": 1348,
      "aklar</w>": 1349,
      "akları</w>": 1350,
      "aklı</w>": 1351,
      "akrab": 1352,
      "aks": 1353,
      "aksi</w>": 1354,
      "aksine,</w>": 1355,
      "aksine</w>": 1356,
      "aksiy": 1357,
      "aksiyom": 1358,
      "akt": 1359,
      "akta</w>": 1360,
      "aktadır.</w>": 1361,
      "aktaki</w>": 1362,
      "aktan</w>": 1363,
      "aktar": 1364,
      "akter": 1365,
      "aktif</w>": 1366,
      "aktiv": 1367,
      "aktivist</w>": 1368,
      "aktivisti</w>": 1369,
      "aktivit": 1370,
      "aktris,</w>": 1371,
      "aktris</w>": 1372,
      "aktör": 1373,
      "aktör,</w>": 1374,
      "aktör</w>": 1375,
      "aktır.</w>": 1376,
      "akut</w>": 1377,
      "akç": 1378,
      "akça": 1379,
      "akıl": 1380,
      "akıl</w>": 1381,
      "akıllı</w>": 1382,
      "akım": 1383,
      "akım</w>": 1384,
      "akımı</w>": 1385,
      "akımın</w>": 1386,
      "akımının</w>": 1387,
      "akın": 1388,
      "akınt": 1389,
      "akış": 1390,
      "akşam</w>": 1391,
      "al": 1392,
      "al'ın</w>": 1393,
      "al)</w>": 1394,
      "al,</w>": 1395,
      "al-": 1396,
      "al</w>": 1397,
      "ala": 1398,
      "ala</w>": 1399,
      "alab": 1400,
      "alabam": 1401,
      "alabama</w>": 1402,
      "alacak</w>": 1403,
      "alak": 1404,
      "alam": 1405,
      "alama</w>": 1406,
      "alan": 1407,
      "alan,</w>": 1408,
      "alan</w>": 1409,
      "alana</w>": 1410,
      "alanan</w>": 1411,
      "aland": 1412,
      "alanda</w>": 1413,
      "alandı.</w>": 1414,
      "alandır": 1415,
      "alanlar</w>": 1416,
      "alanlarda</w>": 1417,
      "alanları</w>": 1418,
      "alanların</w>": 1419,
      "alanlarında</w>": 1420,
      "alanlarının</w>": 1421,
      "alanı,</w>": 1422,
      "alanı</w>": 1423,
      "alanın</w>": 1424,
      "alanına</w>": 1425,
      "alanında</w>": 1426,
      "alanındaki</w>": 1427,
      "alanını</w>": 1428,
      "alanının</w>": 1429,
      "alar": 1430,
      "alar,</w>": 1431,
      "alar</w>": 1432,
      "alara</w>": 1433,
      "alarak</w>": 1434,
      "alarda</w>": 1435,
      "alardaki</w>": 1436,
      "alardan</w>": 1437,
      "alarla</w>": 1438,
      "aları,</w>": 1439,
      "aları</w>": 1440,
      "alarıdır.</w>": 1441,
      "aların</w>": 1442,
      "alarına</w>": 1443,
      "alarında</w>": 1444,
      "alarındaki</w>": 1445,
      "alarından</w>": 1446,
      "alarını</w>": 1447,
      "alarının</w>": 1448,
      "alarıyla</w>": 1449,
      "alask": 1450,
      "alaska</w>": 1451,
      "alay": 1452,
      "alay</w>": 1453,
      "alaş": 1454,
      "alb": 1455,
      "albay</w>": 1456,
      "albert</w>": 1457,
      "albüm": 1458,
      "albüm</w>": 1459,
      "albümde</w>": 1460,
      "albümleri</w>": 1461,
      "albümü</w>": 1462,
      "albümün</w>": 1463,
      "albümünü</w>": 1464,
      "alc": 1465,
      "ald": 1466,
      "ald</w>": 1467,
      "aldı.</w>": 1468,
      "aldı</w>": 1469,
      "aldıkları</w>": 1470,
      "aldılar.</w>": 1471,
      "aldığı</w>": 1472,
      "ale": 1473,
      "ale</w>": 1474,
      "alek": 1475,
      "aleksandr": 1476,
      "aleksandr</w>": 1477,
      "alem": 1478,
      "ales": 1479,
      "alet": 1480,
      "alet</w>": 1481,
      "alev": 1482,
      "alex": 1483,
      "alexand": 1484,
      "alexander</w>": 1485,
      "aley": 1486,
      "aleyh": 1487,
      "alfab": 1488,
      "alfabesi</w>": 1489,
      "alfred</w>": 1490,
      "alg": 1491,
      "algorit": 1492,
      "algıl": 1493,
      "algılan": 1494,
      "ali": 1495,
      "ali'nin</w>": 1496,
      "ali,</w>": 1497,
      "ali</w>": 1498,
      "align": 1499,
      "align=": 1500,
      "align=\"": 1501,
      "align=\"center": 1502,
      "alim": 1503,
      "alin</w>": 1504,
      "alist</w>": 1505,
      "alizm</w>": 1506,
      "alkol": 1507,
      "all": 1508,
      "all</w>": 1509,
      "allah": 1510,
      "allah'ın</w>": 1511,
      "allah</w>": 1512,
      "allen": 1513,
      "alli</w>": 1514,
      "alma</w>": 1515,
      "almak</w>": 1516,
      "almaktadır.</w>": 1517,
      "alman": 1518,
      "alman</w>": 1519,
      "almanca</w>": 1520,
      "almanya'da</w>": 1521,
      "almanya'nın</w>": 1522,
      "almanya'ya</w>": 1523,
      "almanya,</w>": 1524,
      "almanya</w>": 1525,
      "almanyas": 1526,
      "alması</w>": 1527,
      "almasına</w>": 1528,
      "almaya</w>": 1529,
      "almış</w>": 1530,
      "almıştır.</w>": 1531,
      "alp": 1532,
      "alp</w>": 1533,
      "alt": 1534,
      "alt</w>": 1535,
      "alter": 1536,
      "alternat": 1537,
      "alternatif</w>": 1538,
      "altyapı</w>": 1539,
      "altı</w>": 1540,
      "altın": 1541,
      "altın,</w>": 1542,
      "altın</w>": 1543,
      "altına</w>": 1544,
      "altıncı</w>": 1545,
      "altında</w>": 1546,
      "altındadır.</w>": 1547,
      "altındaki</w>": 1548,
      "alç": 1549,
      "alçak</w>": 1550,
      "alüm": 1551,
      "alümin": 1552,
      "alı,</w>": 1553,
      "alı-": 1554,
      "alı</w>": 1555,
      "alıc": 1556,
      "alıcı</w>": 1557,
      "alıdır.</w>": 1558,
      "alık": 1559,
      "alık</w>": 1560,
      "alılar</w>": 1561,
      "alıların</w>": 1562,
      "alım</w>": 1563,
      "alın": 1564,
      "alınan</w>": 1565,
      "alınarak</w>": 1566,
      "alınd": 1567,
      "alındı.</w>": 1568,
      "alınması</w>": 1569,
      "alınmış</w>": 1570,
      "alınmıştır.</w>": 1571,
      "alınır.</w>": 1572,
      "alıp</w>": 1573,
      "alır.</w>": 1574,
      "alır</w>": 1575,
      "alıyordu.</w>": 1576,
      "alış": 1577,
      "alışver": 1578,
      "alışveriş</w>": 1579,
      "am": 1580,
      "am,</w>": 1581,
      "am</w>": 1582,
      "ama,</w>": 1583,
      "ama</w>": 1584,
      "amac": 1585,
      "amacı,</w>": 1586,
      "amacı</w>": 1587,
      "amacıyla</w>": 1588,
      "amad": 1589,
      "amadı.</w>": 1590,
      "amadığı</w>": 1591,
      "amak</w>": 1592,
      "amam": 1593,
      "amamıştır.</w>": 1594,
      "amas": 1595,
      "amasya</w>": 1596,
      "aması</w>": 1597,
      "amatör</w>": 1598,
      "amay": 1599,
      "amaya</w>": 1600,
      "amayacağı</w>": 1601,
      "amayan</w>": 1602,
      "amaz": 1603,
      "amaz.</w>": 1604,
      "amaz</w>": 1605,
      "amaç": 1606,
      "amaç</w>": 1607,
      "amaçla</w>": 1608,
      "amaçlayan</w>": 1609,
      "amaçlı</w>": 1610,
      "ambar": 1611,
      "amc": 1612,
      "ame</w>": 1613,
      "amel": 1614,
      "amer": 1615,
      "americ": 1616,
      "american</w>": 1617,
      "amerik": 1618,
      "amerika'da</w>": 1619,
      "amerika'nın</w>": 1620,
      "amerika</w>": 1621,
      "amerikalı</w>": 1622,
      "amerikalılar</w>": 1623,
      "amerikan</w>": 1624,
      "amet": 1625,
      "amet</w>": 1626,
      "ami</w>": 1627,
      "amino</w>": 1628,
      "amir": 1629,
      "amiral</w>": 1630,
      "amon": 1631,
      "amor": 1632,
      "amp": 1633,
      "amster": 1634,
      "amı</w>": 1635,
      "amış</w>": 1636,
      "an": 1637,
      "an\"</w>": 1638,
      "an'a</w>": 1639,
      "an'da</w>": 1640,
      "an'ı</w>": 1641,
      "an'ın</w>": 1642,
      "an)</w>": 1643,
      "an,</w>": 1644,
      "an-": 1645,
      "an</w>": 1646,
      "ana,</w>": 1647,
      "ana</w>": 1648,
      "anad": 1649,
      "anadol": 1650,
      "anadolu": 1651,
      "anadolu'da</w>": 1652,
      "anadolu'daki</w>": 1653,
      "anadolu'nun</w>": 1654,
      "anadolu'ya</w>": 1655,
      "anadolu</w>": 1656,
      "anaf": 1657,
      "anah": 1658,
      "anahtar": 1659,
      "anahtar</w>": 1660,
      "anak": 1661,
      "anal": 1662,
      "analitik</w>": 1663,
      "analiz": 1664,
      "analiz</w>": 1665,
      "analizi</w>": 1666,
      "anan</w>": 1667,
      "anarş": 1668,
      "anas": 1669,
      "anat": 1670,
      "anatom": 1671,
      "anav": 1672,
      "anayas": 1673,
      "anayasa</w>": 1674,
      "anayasal</w>": 1675,
      "anayasası</w>": 1676,
      "anbul": 1677,
      "anc": 1678,
      "anca</w>": 1679,
      "ancak,</w>": 1680,
      "ancak</w>": 1681,
      "ance</w>": 1682,
      "ancı</w>": 1683,
      "and": 1684,
      "and,</w>": 1685,
      "and</w>": 1686,
      "anda,</w>": 1687,
      "anda</w>": 1688,
      "andan</w>": 1689,
      "andar": 1690,
      "ander": 1691,
      "ando</w>": 1692,
      "andr": 1693,
      "andre": 1694,
      "andrea</w>": 1695,
      "andrew</w>": 1696,
      "andro": 1697,
      "andré</w>": 1698,
      "andy</w>": 1699,
      "andı</w>": 1700,
      "andır": 1701,
      "andır.</w>": 1702,
      "andığı</w>": 1703,
      "andığını</w>": 1704,
      "ane</w>": 1705,
      "anet</w>": 1706,
      "ang": 1707,
      "angel": 1708,
      "angol": 1709,
      "ani,</w>": 1710,
      "ani</w>": 1711,
      "anim": 1712,
      "ank": 1713,
      "ankar": 1714,
      "ankara'da</w>": 1715,
      "ankara'ya</w>": 1716,
      "ankara,</w>": 1717,
      "ankara</w>": 1718,
      "anla</w>": 1719,
      "anlam": 1720,
      "anlam</w>": 1721,
      "anlama</w>": 1722,
      "anlamak</w>": 1723,
      "anlamda</w>": 1724,
      "anlamlı</w>": 1725,
      "anlamı</w>": 1726,
      "anlamına</w>": 1727,
      "anlamında</w>": 1728,
      "anlamıyla</w>": 1729,
      "anlar,</w>": 1730,
      "anlar</w>": 1731,
      "anlara</w>": 1732,
      "anlardan</w>": 1733,
      "anları</w>": 1734,
      "anların</w>": 1735,
      "anlat": 1736,
      "anlatan</w>": 1737,
      "anlatır.</w>": 1738,
      "anlay": 1739,
      "anlayış": 1740,
      "anlayışı</w>": 1741,
      "anlaş": 1742,
      "anlaşma</w>": 1743,
      "anlaşması</w>": 1744,
      "anlaşmaz": 1745,
      "anlaşıl": 1746,
      "anlı</w>": 1747,
      "anlık</w>": 1748,
      "anma</w>": 1749,
      "ann": 1750,
      "ann</w>": 1751,
      "anna</w>": 1752,
      "anne</w>": 1753,
      "annesi</w>": 1754,
      "annesinin</w>": 1755,
      "anni</w>": 1756,
      "ano,</w>": 1757,
      "ano</w>": 1758,
      "anos</w>": 1759,
      "ans": 1760,
      "ans,</w>": 1761,
      "ans</w>": 1762,
      "ansa</w>": 1763,
      "ansal</w>": 1764,
      "ansikl": 1765,
      "ansikloped": 1766,
      "ansiy": 1767,
      "ansiyel</w>": 1768,
      "ansiyon": 1769,
      "ansiyon</w>": 1770,
      "ansı</w>": 1771,
      "ant": 1772,
      "ant</w>": 1773,
      "antak": 1774,
      "antal": 1775,
      "antalya</w>": 1776,
      "antark": 1777,
      "antarktik": 1778,
      "antarktika</w>": 1779,
      "anth": 1780,
      "anthony</w>": 1781,
      "anti": 1782,
      "anti-": 1783,
      "anti</w>": 1784,
      "antik": 1785,
      "antik</w>": 1786,
      "antin": 1787,
      "antin</w>": 1788,
      "antlaş": 1789,
      "antlaşma</w>": 1790,
      "antlaşmas": 1791,
      "antlaşması</w>": 1792,
      "anto": 1793,
      "anto</w>": 1794,
      "antoine</w>": 1795,
      "anton": 1796,
      "anton</w>": 1797,
      "antonio</w>": 1798,
      "antren": 1799,
      "antrop": 1800,
      "antum</w>": 1801,
      "anz": 1802,
      "anı</w>": 1803,
      "anıl": 1804,
      "anılan</w>": 1805,
      "anılır.</w>": 1806,
      "anın</w>": 1807,
      "anında</w>": 1808,
      "anısına</w>": 1809,
      "anıt": 1810,
      "anıt</w>": 1811,
      "anıtka": 1812,
      "anıtkabir": 1813,
      "ao</w>": 1814,
      "ap": 1815,
      "ap,</w>": 1816,
      "ap</w>": 1817,
      "apart": 1818,
      "apol": 1819,
      "app": 1820,
      "apple</w>": 1821,
      "aqu": 1822,
      "ar": 1823,
      "ar'ın</w>": 1824,
      "ar,</w>": 1825,
      "ar.</w>": 1826,
      "ar</w>": 1827,
      "ara": 1828,
      "ara,</w>": 1829,
      "ara</w>": 1830,
      "arab": 1831,
      "araba</w>": 1832,
      "arac": 1833,
      "aracı</w>": 1834,
      "aracılığ": 1835,
      "aracılığıyla</w>": 1836,
      "arada</w>": 1837,
      "aradan</w>": 1838,
      "arak,</w>": 1839,
      "arak</w>": 1840,
      "aral": 1841,
      "aralarında</w>": 1842,
      "aralık": 1843,
      "aralık</w>": 1844,
      "aram": 1845,
      "arama</w>": 1846,
      "aran": 1847,
      "aranj": 1848,
      "arap": 1849,
      "arap</w>": 1850,
      "arapç": 1851,
      "arapça</w>": 1852,
      "aras": 1853,
      "arası</w>": 1854,
      "arasına</w>": 1855,
      "arasında,</w>": 1856,
      "arasında</w>": 1857,
      "arasındadır.</w>": 1858,
      "arasındaki</w>": 1859,
      "arasından</w>": 1860,
      "aray": 1861,
      "araya</w>": 1862,
      "arayüz": 1863,
      "araz": 1864,
      "arazi</w>": 1865,
      "araç": 1866,
      "araç</w>": 1867,
      "araçları</w>": 1868,
      "araştır": 1869,
      "araştırma</w>": 1870,
      "araştırmac": 1871,
      "araştırmacı</w>": 1872,
      "araştırmacılar</w>": 1873,
      "araştırmalar": 1874,
      "araştırmalar</w>": 1875,
      "araştırmaları</w>": 1876,
      "araştırmaya</w>": 1877,
      "arc": 1878,
      "arch": 1879,
      "archiv": 1880,
      "ard": 1881,
      "ard,</w>": 1882,
      "ard</w>": 1883,
      "arda</w>": 1884,
      "ardah": 1885,
      "ardahan</w>": 1886,
      "ardo</w>": 1887,
      "ardı</w>": 1888,
      "ardından,</w>": 1889,
      "ardından</w>": 1890,
      "ardır.</w>": 1891,
      "are</w>": 1892,
      "aren": 1893,
      "aret": 1894,
      "aret</w>": 1895,
      "areti</w>": 1896,
      "argüm": 1897,
      "arhav": 1898,
      "ari": 1899,
      "ari</w>": 1900,
      "arif</w>": 1901,
      "aris": 1902,
      "aristo": 1903,
      "aristokr": 1904,
      "aristotel": 1905,
      "arit": 1906,
      "aritmet": 1907,
      "ariz": 1908,
      "arj": 1909,
      "arjantin": 1910,
      "arjantin</w>": 1911,
      "arjantinli</w>": 1912,
      "ark": 1913,
      "arka</w>": 1914,
      "arkad": 1915,
      "arkadaş": 1916,
      "arkadaşları</w>": 1917,
      "arkadaşı</w>": 1918,
      "arkasında</w>": 1919,
      "arke": 1920,
      "arken</w>": 1921,
      "arkeolog</w>": 1922,
      "arkeoloji</w>": 1923,
      "arkeolojik</w>": 1924,
      "arlar.</w>": 1925,
      "arlar</w>": 1926,
      "arm": 1927,
      "armağ": 1928,
      "arn": 1929,
      "arnavut": 1930,
      "arnavut</w>": 1931,
      "arnavutluk</w>": 1932,
      "arr": 1933,
      "ars": 1934,
      "art": 1935,
      "art,</w>": 1936,
      "art</w>": 1937,
      "artan</w>": 1938,
      "artar": 1939,
      "artar.</w>": 1940,
      "artesi</w>": 1941,
      "arth": 1942,
      "arthur</w>": 1943,
      "artması</w>": 1944,
      "artmıştır.</w>": 1945,
      "arttı.</w>": 1946,
      "arttır": 1947,
      "artvin</w>": 1948,
      "artık</w>": 1949,
      "artır": 1950,
      "artış": 1951,
      "artış</w>": 1952,
      "artışı</w>": 1953,
      "ary</w>": 1954,
      "arz": 1955,
      "arz</w>": 1956,
      "arı</w>": 1957,
      "arş": 1958,
      "arşiv": 1959,
      "as": 1960,
      "as'ın</w>": 1961,
      "as,</w>": 1962,
      "as</w>": 1963,
      "asa</w>": 1964,
      "asal</w>": 1965,
      "asar": 1966,
      "ase</w>": 1967,
      "aset</w>": 1968,
      "ash": 1969,
      "ash</w>": 1970,
      "asi</w>": 1971,
      "asim": 1972,
      "asit": 1973,
      "asit</w>": 1974,
      "ask": 1975,
      "asker": 1976,
      "asker,</w>": 1977,
      "asker</w>": 1978,
      "askeri</w>": 1979,
      "askerler</w>": 1980,
      "askerleri</w>": 1981,
      "askerlik</w>": 1982,
      "askerî</w>": 1983,
      "askor": 1984,
      "asl": 1985,
      "asla</w>": 1986,
      "aslan": 1987,
      "aslan</w>": 1988,
      "aslında</w>": 1989,
      "ass": 1990,
      "ast": 1991,
      "ast</w>": 1992,
      "aster": 1993,
      "astero": 1994,
      "asti": 1995,
      "astik</w>": 1996,
      "astr": 1997,
      "astro": 1998,
      "astron": 1999,
      "astronom": 2000,
      "astronom</w>": 2001,
      "astronomi</w>": 2002,
      "asur": 2003,
      "asur</w>": 2004,
      "asya'da</w>": 2005,
      "asya'nın</w>": 2006,
      "asya</w>": 2007,
      "asyon": 2008,
      "asyon,</w>": 2009,
      "asyon</w>": 2010,
      "asyonlar</w>": 2011,
      "asyonu</w>": 2012,
      "ası": 2013,
      "ası\"</w>": 2014,
      "ası'na</w>": 2015,
      "ası'nda</w>": 2016,
      "ası'nı</w>": 2017,
      "ası'nın</w>": 2018,
      "ası)</w>": 2019,
      "ası,</w>": 2020,
      "ası:</w>": 2021,
      "ası</w>": 2022,
      "asıdır.</w>": 2023,
      "asıl": 2024,
      "asıl</w>": 2025,
      "asıllı</w>": 2026,
      "asına</w>": 2027,
      "asında,</w>": 2028,
      "asında</w>": 2029,
      "asındaki</w>": 2030,
      "asından</w>": 2031,
      "asını</w>": 2032,
      "asının</w>": 2033,
      "asıyla</w>": 2034,
      "asız</w>": 2035,
      "at": 2036,
      "at'ta</w>": 2037,
      "at'ın</w>": 2038,
      "at,</w>": 2039,
      "at</w>": 2040,
      "ata</w>": 2041,
      "atam": 2042,
      "atan": 2043,
      "atan</w>": 2044,
      "atanan</w>": 2045,
      "atandı.</w>": 2046,
      "atanmıştır.</w>": 2047,
      "atas": 2048,
      "atasöz": 2049,
      "atatür": 2050,
      "atatürk": 2051,
      "atatürk'ün</w>": 2052,
      "atatürk</w>": 2053,
      "atay</w>": 2054,
      "ate": 2055,
      "ate</w>": 2056,
      "ater": 2057,
      "ates</w>": 2058,
      "ateş": 2059,
      "ateş</w>": 2060,
      "ateşkes</w>": 2061,
      "atf": 2062,
      "ath": 2063,
      "athen": 2064,
      "ati</w>": 2065,
      "atif</w>": 2066,
      "atik</w>": 2067,
      "atin": 2068,
      "atina</w>": 2069,
      "ation": 2070,
      "ation</w>": 2071,
      "ations</w>": 2072,
      "atlant": 2073,
      "atlantik</w>": 2074,
      "atlar</w>": 2075,
      "atları</w>": 2076,
      "atlas</w>": 2077,
      "atlet": 2078,
      "atlet</w>": 2079,
      "atlı</w>": 2080,
      "atma</w>": 2081,
      "atmos": 2082,
      "atmosfer": 2083,
      "atmosfer</w>": 2084,
      "atmıştır.</w>": 2085,
      "atom": 2086,
      "atom</w>": 2087,
      "atomik</w>": 2088,
      "ator": 2089,
      "ator</w>": 2090,
      "att": 2091,
      "attan</w>": 2092,
      "attı.</w>": 2093,
      "attığı</w>": 2094,
      "atçı</w>": 2095,
      "atöly": 2096,
      "atör": 2097,
      "atör</w>": 2098,
      "atörü</w>": 2099,
      "atür": 2100,
      "atı</w>": 2101,
      "atıf": 2102,
      "atıfta</w>": 2103,
      "atık</w>": 2104,
      "atıl": 2105,
      "atılan</w>": 2106,
      "atıldı.</w>": 2107,
      "atın</w>": 2108,
      "atının</w>": 2109,
      "au": 2110,
      "au,</w>": 2111,
      "au</w>": 2112,
      "auch": 2113,
      "aug": 2114,
      "augus": 2115,
      "august": 2116,
      "august</w>": 2117,
      "aul": 2118,
      "aur": 2119,
      "aus": 2120,
      "aus</w>": 2121,
      "aut": 2122,
      "av": 2123,
      "av</w>": 2124,
      "ava</w>": 2125,
      "avant": 2126,
      "avantaj": 2127,
      "avc": 2128,
      "ave</w>": 2129,
      "aver": 2130,
      "avi</w>": 2131,
      "avni</w>": 2132,
      "avr": 2133,
      "avrup": 2134,
      "avrupa'da</w>": 2135,
      "avrupa'daki</w>": 2136,
      "avrupa'nın</w>": 2137,
      "avrupa'ya</w>": 2138,
      "avrupa</w>": 2139,
      "avrupalı</w>": 2140,
      "avuk": 2141,
      "avukat</w>": 2142,
      "avus": 2143,
      "avustral": 2144,
      "avustralya</w>": 2145,
      "avustralyalı</w>": 2146,
      "avustur": 2147,
      "avusturya-": 2148,
      "avusturya-macaristan</w>": 2149,
      "avusturya</w>": 2150,
      "avusturyalı</w>": 2151,
      "avv": 2152,
      "aw": 2153,
      "aw</w>": 2154,
      "awa</w>": 2155,
      "ax": 2156,
      "ay": 2157,
      "ay'a</w>": 2158,
      "ay'ın</w>": 2159,
      "ay,</w>": 2160,
      "ay</w>": 2161,
      "aya</w>": 2162,
      "ayak": 2163,
      "ayak</w>": 2164,
      "ayaklan": 2165,
      "ayaklanma</w>": 2166,
      "ayakta</w>": 2167,
      "ayan</w>": 2168,
      "ayar": 2169,
      "ayarak</w>": 2170,
      "ayas": 2171,
      "ayasof": 2172,
      "ayaz": 2173,
      "ayd": 2174,
      "ayda</w>": 2175,
      "aydı.</w>": 2176,
      "aydın": 2177,
      "aydın</w>": 2178,
      "aydınlanma</w>": 2179,
      "aydınlat": 2180,
      "ayet": 2181,
      "ayet</w>": 2182,
      "ayeti</w>": 2183,
      "ayg": 2184,
      "aygıt": 2185,
      "aykırı</w>": 2186,
      "ayla</w>": 2187,
      "aylar</w>": 2188,
      "ayları</w>": 2189,
      "aylarında</w>": 2190,
      "aylı</w>": 2191,
      "aylık</w>": 2192,
      "ayn": 2193,
      "aynı</w>": 2194,
      "ayr": 2195,
      "ayrı</w>": 2196,
      "ayrıc": 2197,
      "ayrıca,</w>": 2198,
      "ayrıca</w>": 2199,
      "ayrıl": 2200,
      "ayrılan</w>": 2201,
      "ayrılarak</w>": 2202,
      "ayrıldı.</w>": 2203,
      "ayrılmış</w>": 2204,
      "ayrılmıştır.</w>": 2205,
      "ayrılık": 2206,
      "ayrılır.</w>": 2207,
      "ayrım</w>": 2208,
      "ayrımc": 2209,
      "ayrınt": 2210,
      "ayrıntılı</w>": 2211,
      "ayı</w>": 2212,
      "ayıc": 2213,
      "ayıcı</w>": 2214,
      "ayın</w>": 2215,
      "ayında</w>": 2216,
      "ayının</w>": 2217,
      "ayıp</w>": 2218,
      "ayır": 2219,
      "ayıran</w>": 2220,
      "ayırt</w>": 2221,
      "ayşe</w>": 2222,
      "az": 2223,
      "az,</w>": 2224,
      "az</w>": 2225,
      "aza</w>": 2226,
      "azal": 2227,
      "azalt": 2228,
      "azdır.</w>": 2229,
      "azer": 2230,
      "azerbay": 2231,
      "azerbaycan": 2232,
      "azerbaycan</w>": 2233,
      "azeri</w>": 2234,
      "azi</w>": 2235,
      "aziz": 2236,
      "aziz</w>": 2237,
      "azz": 2238,
      "azı</w>": 2239,
      "azın": 2240,
      "azından</w>": 2241,
      "azınlık</w>": 2242,
      "aç": 2243,
      "aç</w>": 2244,
      "açan</w>": 2245,
      "açar.</w>": 2246,
      "açmıştır.</w>": 2247,
      "açtı.</w>": 2248,
      "açtığı</w>": 2249,
      "açı</w>": 2250,
      "açıdan</w>": 2251,
      "açık": 2252,
      "açık</w>": 2253,
      "açıkladı.</w>": 2254,
      "açıklam": 2255,
      "açıklama</w>": 2256,
      "açıklaması</w>": 2257,
      "açıklamıştır.</w>": 2258,
      "açıklan": 2259,
      "açıklandı.</w>": 2260,
      "açıkça</w>": 2261,
      "açıl": 2262,
      "açılan</w>": 2263,
      "açıldı.</w>": 2264,
      "açılması</w>": 2265,
      "açılmıştır.</w>": 2266,
      "açılış</w>": 2267,
      "açısından</w>": 2268,
      "açığa</w>": 2269,
      "aüstü</w>": 2270,
      "ağ": 2271,
      "ağ</w>": 2272,
      "ağa</w>": 2273,
      "ağab": 2274,
      "ağac": 2275,
      "ağacı</w>": 2276,
      "ağan</w>": 2277,
      "ağaç": 2278,
      "ağaç</w>": 2279,
      "ağaçları</w>": 2280,
      "ağlar</w>": 2281,
      "ağları</w>": 2282,
      "ağr": 2283,
      "ağrı</w>": 2284,
      "ağusto": 2285,
      "ağustos": 2286,
      "ağustos'ta</w>": 2287,
      "ağustos</w>": 2288,
      "ağz": 2289,
      "ağı,</w>": 2290,
      "ağı</w>": 2291,
      "ağın</w>": 2292,
      "ağına</w>": 2293,
      "ağında</w>": 2294,
      "ağını</w>": 2295,
      "ağının</w>": 2296,
      "ağır": 2297,
      "ağır</w>": 2298,
      "ağırlık</w>": 2299,
      "ağırlıklı</w>": 2300,
      "ağırlığı</w>": 2301,
      "ağız": 2302,
      "ağız</w>": 2303,
      "aş": 2304,
      "aş,</w>": 2305,
      "aş</w>": 2306,
      "aşam": 2307,
      "aşan</w>": 2308,
      "aşağ": 2309,
      "aşağı</w>": 2310,
      "aşağıda</w>": 2311,
      "aşağıdaki</w>": 2312,
      "aşir": 2313,
      "aşk": 2314,
      "aşk</w>": 2315,
      "aşkın</w>": 2316,
      "aştır": 2317,
      "aşı</w>": 2318,
      "aşık</w>": 2319,
      "aşır": 2320,
      "aşırı</w>": 2321,
      "a’": 2322,
      "a’da</w>": 2323,
      "a’daki</w>": 2324,
      "a’nın</w>": 2325,
      "a’ya</w>": 2326,
      "a’yı</w>": 2327,
      "a”</w>": 2328,
      "b": 2329,
      "b)</w>": 2330,
      "b,</w>": 2331,
      "b-": 2332,
      "b.</w>": 2333,
      "b</w>": 2334,
      "ba": 2335,
      "ba</w>": 2336,
      "bab": 2337,
      "baba</w>": 2338,
      "babası</w>": 2339,
      "babasının</w>": 2340,
      "babil": 2341,
      "babil</w>": 2342,
      "bac": 2343,
      "bach": 2344,
      "bach</w>": 2345,
      "back": 2346,
      "background": 2347,
      "bad": 2348,
      "bag": 2349,
      "bah": 2350,
      "bahar": 2351,
      "bahar</w>": 2352,
      "baharında</w>": 2353,
      "bahr": 2354,
      "bahs": 2355,
      "bahç": 2356,
      "bahçe</w>": 2357,
      "bak": 2358,
      "bakan": 2359,
      "bakan</w>": 2360,
      "bakanlar</w>": 2361,
      "bakanlığı</w>": 2362,
      "bakanı</w>": 2363,
      "bakt": 2364,
      "bakter": 2365,
      "bakteri</w>": 2366,
      "bakteriler</w>": 2367,
      "bakü": 2368,
      "bakıldığında</w>": 2369,
      "bakım": 2370,
      "bakım</w>": 2371,
      "bakımdan</w>": 2372,
      "bakımından</w>": 2373,
      "bakın": 2374,
      "bakınız</w>": 2375,
      "bakır": 2376,
      "bakır,</w>": 2377,
      "bakır</w>": 2378,
      "bakış</w>": 2379,
      "bal": 2380,
      "bal</w>": 2381,
      "balkan": 2382,
      "balkan</w>": 2383,
      "balt": 2384,
      "baltık</w>": 2385,
      "balık": 2386,
      "balık</w>": 2387,
      "balıkesir</w>": 2388,
      "balıkç": 2389,
      "balıkçılık</w>": 2390,
      "ban": 2391,
      "ban</w>": 2392,
      "bana</w>": 2393,
      "band": 2394,
      "bandır": 2395,
      "bang": 2396,
      "bangladeş": 2397,
      "bank": 2398,
      "bank</w>": 2399,
      "banka</w>": 2400,
      "bankacılık</w>": 2401,
      "bankas": 2402,
      "bankası</w>": 2403,
      "banliy": 2404,
      "bant": 2405,
      "bant</w>": 2406,
      "bap": 2407,
      "bapt": 2408,
      "bar": 2409,
      "bar</w>": 2410,
      "baraj": 2411,
      "baraj</w>": 2412,
      "barajı</w>": 2413,
      "barat</w>": 2414,
      "barbar": 2415,
      "barbara</w>": 2416,
      "bard": 2417,
      "barok</w>": 2418,
      "barr": 2419,
      "bart": 2420,
      "barındır": 2421,
      "barındıran</w>": 2422,
      "barındırır.</w>": 2423,
      "barış": 2424,
      "barış</w>": 2425,
      "bas": 2426,
      "bas</w>": 2427,
      "basam": 2428,
      "basit": 2429,
      "basit</w>": 2430,
      "bask": 2431,
      "basket": 2432,
      "basketbol": 2433,
      "basketbol</w>": 2434,
      "basketbolcu</w>": 2435,
      "baskı</w>": 2436,
      "baskın": 2437,
      "baskın</w>": 2438,
      "baskısı</w>": 2439,
      "bastır": 2440,
      "basılan</w>": 2441,
      "basıldı.</w>": 2442,
      "basın": 2443,
      "basın</w>": 2444,
      "basınc": 2445,
      "basıncı</w>": 2446,
      "basınç</w>": 2447,
      "bat": 2448,
      "batak": 2449,
      "batt": 2450,
      "batum</w>": 2451,
      "batı": 2452,
      "batı</w>": 2453,
      "batıda</w>": 2454,
      "batıdan</w>": 2455,
      "batılı</w>": 2456,
      "batısında</w>": 2457,
      "batısındaki</w>": 2458,
      "batıya</w>": 2459,
      "bau": 2460,
      "bay": 2461,
      "bay</w>": 2462,
      "baybur": 2463,
      "bayez": 2464,
      "bayezid'in</w>": 2465,
      "bayezid</w>": 2466,
      "bayr": 2467,
      "bayrak</w>": 2468,
      "bayram": 2469,
      "bayram</w>": 2470,
      "bayramı</w>": 2471,
      "bayrağı</w>": 2472,
      "baz": 2473,
      "baz</w>": 2474,
      "bazen</w>": 2475,
      "bazı</w>": 2476,
      "bazılar": 2477,
      "bazıları</w>": 2478,
      "bağ": 2479,
      "bağ</w>": 2480,
      "bağd": 2481,
      "bağdat</w>": 2482,
      "bağl": 2483,
      "bağlam": 2484,
      "bağlamda</w>": 2485,
      "bağlan": 2486,
      "bağlandı.</w>": 2487,
      "bağlanmıştır.</w>": 2488,
      "bağlant": 2489,
      "bağlantı</w>": 2490,
      "bağlantılar</w>": 2491,
      "bağlantılı</w>": 2492,
      "bağlantısı</w>": 2493,
      "bağlayan</w>": 2494,
      "bağlı</w>": 2495,
      "bağlıdır.</w>": 2496,
      "bağım": 2497,
      "bağıml": 2498,
      "bağımlı</w>": 2499,
      "bağımsız": 2500,
      "bağımsız</w>": 2501,
      "bağımsızlık</w>": 2502,
      "bağımsızlığını</w>": 2503,
      "bağır": 2504,
      "bağış": 2505,
      "bağışıklık</w>": 2506,
      "baş": 2507,
      "baş</w>": 2508,
      "başa</w>": 2509,
      "başar": 2510,
      "başardı.</w>": 2511,
      "başarı</w>": 2512,
      "başarılı</w>": 2513,
      "başarıs": 2514,
      "başarısı</w>": 2515,
      "başarısız": 2516,
      "başarısız</w>": 2517,
      "başarıyla</w>": 2518,
      "başbak": 2519,
      "başbakan": 2520,
      "başbakan</w>": 2521,
      "başbakanlık</w>": 2522,
      "başbakanı</w>": 2523,
      "başk": 2524,
      "başka</w>": 2525,
      "başkan": 2526,
      "başkan</w>": 2527,
      "başkanları</w>": 2528,
      "başkanlık</w>": 2529,
      "başkanlığ": 2530,
      "başkanlığı</w>": 2531,
      "başkanlığına</w>": 2532,
      "başkanlığında</w>": 2533,
      "başkanlığını</w>": 2534,
      "başkanı,</w>": 2535,
      "başkanı</w>": 2536,
      "başkent": 2537,
      "başkent</w>": 2538,
      "başkenti</w>": 2539,
      "başl": 2540,
      "başlad": 2541,
      "başladı.</w>": 2542,
      "başladı</w>": 2543,
      "başladılar.</w>": 2544,
      "başladığı</w>": 2545,
      "başlam": 2546,
      "başlaması</w>": 2547,
      "başlamış</w>": 2548,
      "başlamıştı.</w>": 2549,
      "başlamıştır.</w>": 2550,
      "başlan": 2551,
      "başlandı.</w>": 2552,
      "başlang": 2553,
      "başlangıc": 2554,
      "başlangıcı</w>": 2555,
      "başlangıç": 2556,
      "başlangıç</w>": 2557,
      "başlangıçta</w>": 2558,
      "başlanmıştır.</w>": 2559,
      "başlar.</w>": 2560,
      "başlar</w>": 2561,
      "başlarına</w>": 2562,
      "başlarında</w>": 2563,
      "başlat": 2564,
      "başlattı.</w>": 2565,
      "başlatılan</w>": 2566,
      "başlay": 2567,
      "başlayan</w>": 2568,
      "başlayarak</w>": 2569,
      "başlayıp</w>": 2570,
      "başlı</w>": 2571,
      "başlıca</w>": 2572,
      "başlık</w>": 2573,
      "başlıklı</w>": 2574,
      "başta</w>": 2575,
      "başvur": 2576,
      "başı</w>": 2577,
      "başına</w>": 2578,
      "başında</w>": 2579,
      "başından</w>": 2580,
      "bb": 2581,
      "be": 2582,
      "be,</w>": 2583,
      "be</w>": 2584,
      "beat": 2585,
      "beatles</w>": 2586,
      "beb": 2587,
      "bebek</w>": 2588,
      "bec": 2589,
      "becer": 2590,
      "beck": 2591,
      "bed": 2592,
      "beden": 2593,
      "beden</w>": 2594,
      "beg": 2595,
      "beh": 2596,
      "bek": 2597,
      "bek</w>": 2598,
      "bekir</w>": 2599,
      "beklen": 2600,
      "beklenen</w>": 2601,
      "bekt": 2602,
      "bektâş": 2603,
      "bel": 2604,
      "belar": 2605,
      "beled": 2606,
      "belediy": 2607,
      "belediye,</w>": 2608,
      "belediye</w>": 2609,
      "belediyesi</w>": 2610,
      "beler</w>": 2611,
      "beleri</w>": 2612,
      "belg": 2613,
      "belge</w>": 2614,
      "belgeler": 2615,
      "belges": 2616,
      "belgesel</w>": 2617,
      "beli</w>": 2618,
      "belir": 2619,
      "belirgin": 2620,
      "belirgin</w>": 2621,
      "belirlem": 2622,
      "belirlemek</w>": 2623,
      "belirlen": 2624,
      "belirlenen</w>": 2625,
      "belirlenmiştir.</w>": 2626,
      "belirler.</w>": 2627,
      "belirleyen</w>": 2628,
      "belirli</w>": 2629,
      "belirsiz": 2630,
      "belirt": 2631,
      "belirten</w>": 2632,
      "belirtilen</w>": 2633,
      "belirtilm": 2634,
      "belirtilmiştir.</w>": 2635,
      "belirtir.</w>": 2636,
      "belirtmiştir.</w>": 2637,
      "belirtti.</w>": 2638,
      "belki</w>": 2639,
      "bell": 2640,
      "bellek</w>": 2641,
      "belli</w>": 2642,
      "belçik": 2643,
      "belçika</w>": 2644,
      "belçikalı</w>": 2645,
      "ben": 2646,
      "ben</w>": 2647,
      "beni</w>": 2648,
      "benim": 2649,
      "benim</w>": 2650,
      "benimsem": 2651,
      "benimsen": 2652,
      "benin</w>": 2653,
      "benjam": 2654,
      "benjamin</w>": 2655,
      "benz": 2656,
      "benzer": 2657,
      "benzer</w>": 2658,
      "benzeri</w>": 2659,
      "benzeyen</w>": 2660,
      "ber": 2661,
      "ber</w>": 2662,
      "berab": 2663,
      "beraber": 2664,
      "beraber,</w>": 2665,
      "beraber</w>": 2666,
      "berek": 2667,
      "berg": 2668,
      "berg,</w>": 2669,
      "berg</w>": 2670,
      "beri</w>": 2671,
      "berk": 2672,
      "berlin": 2673,
      "berlin</w>": 2674,
      "bern": 2675,
      "bernard</w>": 2676,
      "bert": 2677,
      "bert,</w>": 2678,
      "bert</w>": 2679,
      "berto</w>": 2680,
      "bes": 2681,
      "besi</w>": 2682,
      "besin</w>": 2683,
      "beslen": 2684,
      "beslenme</w>": 2685,
      "best": 2686,
      "best</w>": 2687,
      "bestec": 2688,
      "besteci,</w>": 2689,
      "besteci</w>": 2690,
      "bestecileri</w>": 2691,
      "bestecisi</w>": 2692,
      "bestek": 2693,
      "bet": 2694,
      "bet</w>": 2695,
      "betim": 2696,
      "bey": 2697,
      "bey'in</w>": 2698,
      "bey,</w>": 2699,
      "bey</w>": 2700,
      "beyaz": 2701,
      "beyaz</w>": 2702,
      "beyi</w>": 2703,
      "beyin</w>": 2704,
      "beyler": 2705,
      "beyliğ": 2706,
      "beyliği</w>": 2707,
      "beyoğlu</w>": 2708,
      "beyz": 2709,
      "bez": 2710,
      "beğ": 2711,
      "beğen": 2712,
      "beş": 2713,
      "beş</w>": 2714,
      "beşik": 2715,
      "beşiktaş": 2716,
      "beşiktaş</w>": 2717,
      "beşinci</w>": 2718,
      "bi": 2719,
      "bi</w>": 2720,
      "bib": 2721,
      "big": 2722,
      "bik</w>": 2723,
      "bil": 2724,
      "bildir": 2725,
      "bildirdi.</w>": 2726,
      "bile,</w>": 2727,
      "bile</w>": 2728,
      "bilec": 2729,
      "bilen</w>": 2730,
      "bileş": 2731,
      "bileşen": 2732,
      "bileşik</w>": 2733,
      "bilg": 2734,
      "bilge</w>": 2735,
      "bilgi</w>": 2736,
      "bilgil": 2737,
      "bilgiler</w>": 2738,
      "bilgileri</w>": 2739,
      "bilginin</w>": 2740,
      "bilgis": 2741,
      "bilgisay": 2742,
      "bilgisayar": 2743,
      "bilgisayar</w>": 2744,
      "bilgisayarlar</w>": 2745,
      "bilgisi</w>": 2746,
      "bilgiye</w>": 2747,
      "bilim": 2748,
      "bilim,</w>": 2749,
      "bilim</w>": 2750,
      "bilimc": 2751,
      "bilimci,</w>": 2752,
      "bilimci</w>": 2753,
      "bilimi</w>": 2754,
      "bilimin</w>": 2755,
      "biliminin</w>": 2756,
      "bilimkurgu</w>": 2757,
      "bilimler</w>": 2758,
      "bilimleri</w>": 2759,
      "bilimsel</w>": 2760,
      "bilin": 2761,
      "bilinen</w>": 2762,
      "bilinir.</w>": 2763,
      "bilinmektedir.</w>": 2764,
      "bilinmemektedir.</w>": 2765,
      "bilinmey": 2766,
      "bilinmeyen</w>": 2767,
      "bilinmeyenler</w>": 2768,
      "bilinç": 2769,
      "biliş": 2770,
      "bilişim</w>": 2771,
      "bilişsel</w>": 2772,
      "bilkent</w>": 2773,
      "bill</w>": 2774,
      "bin": 2775,
      "bin</w>": 2776,
      "bina</w>": 2777,
      "binası</w>": 2778,
      "bine</w>": 2779,
      "binlerce</w>": 2780,
      "bir": 2781,
      "bir</w>": 2782,
      "biraz</w>": 2783,
      "birbir": 2784,
      "birbirinden</w>": 2785,
      "birbirine</w>": 2786,
      "birbirini</w>": 2787,
      "birbiriyle</w>": 2788,
      "birbirlerine</w>": 2789,
      "birbirleriyle</w>": 2790,
      "birden</w>": 2791,
      "birer</w>": 2792,
      "birey": 2793,
      "bireyin</w>": 2794,
      "bireylerin</w>": 2795,
      "bireysel</w>": 2796,
      "biri,</w>": 2797,
      "biri</w>": 2798,
      "biridir.</w>": 2799,
      "birik": 2800,
      "birim": 2801,
      "birim</w>": 2802,
      "birimi</w>": 2803,
      "birimleri</w>": 2804,
      "birinc": 2805,
      "birinci</w>": 2806,
      "birincil</w>": 2807,
      "birinde</w>": 2808,
      "birine</w>": 2809,
      "birini</w>": 2810,
      "birinin</w>": 2811,
      "birisi</w>": 2812,
      "birisidir.</w>": 2813,
      "biriydi.</w>": 2814,
      "birk": 2815,
      "birkaç</w>": 2816,
      "birleş": 2817,
      "birleşerek</w>": 2818,
      "birleşik</w>": 2819,
      "birleşmiş</w>": 2820,
      "birleştir": 2821,
      "birlik": 2822,
      "birlik</w>": 2823,
      "birlikleri</w>": 2824,
      "birliklerinin</w>": 2825,
      "birlikte,</w>": 2826,
      "birlikte</w>": 2827,
      "birliğ": 2828,
      "birliği'ne</w>": 2829,
      "birliği'nin</w>": 2830,
      "birliği,</w>": 2831,
      "birliği</w>": 2832,
      "birliğini</w>": 2833,
      "birtakım</w>": 2834,
      "birçok</w>": 2835,
      "birçoğu</w>": 2836,
      "bis": 2837,
      "bisik": 2838,
      "bisiklet": 2839,
      "bisiklet</w>": 2840,
      "bit": 2841,
      "bit</w>": 2842,
      "bitir": 2843,
      "bitirdi.</w>": 2844,
      "bitiş": 2845,
      "bitk": 2846,
      "bitki</w>": 2847,
      "bitkiler</w>": 2848,
      "bitkilerin</w>": 2849,
      "biy": 2850,
      "biyo": 2851,
      "biyograf": 2852,
      "biyografi</w>": 2853,
      "biyokim": 2854,
      "biyokimyacı</w>": 2855,
      "biyolog</w>": 2856,
      "biyoloji</w>": 2857,
      "biyolojik</w>": 2858,
      "biyot": 2859,
      "biz": 2860,
      "biz</w>": 2861,
      "bizans": 2862,
      "bizans</w>": 2863,
      "bize</w>": 2864,
      "bizim</w>": 2865,
      "bizzat</w>": 2866,
      "biç": 2867,
      "biçim": 2868,
      "biçim</w>": 2869,
      "biçimde</w>": 2870,
      "biçimi</w>": 2871,
      "biçiminde</w>": 2872,
      "biçimleri</w>": 2873,
      "bj": 2874,
      "bl": 2875,
      "black": 2876,
      "blem": 2877,
      "blo": 2878,
      "blok": 2879,
      "blu": 2880,
      "blues</w>": 2881,
      "bm": 2882,
      "bm</w>": 2883,
      "bn</w>": 2884,
      "bo": 2885,
      "bo</w>": 2886,
      "bob": 2887,
      "bob</w>": 2888,
      "bod": 2889,
      "bok": 2890,
      "boks": 2891,
      "boksör</w>": 2892,
      "bol": 2893,
      "bol</w>": 2894,
      "bolcu</w>": 2895,
      "boliv": 2896,
      "bolu</w>": 2897,
      "bolşev": 2898,
      "bolşevik</w>": 2899,
      "bom": 2900,
      "bomb": 2901,
      "bomba</w>": 2902,
      "bombal": 2903,
      "bombard": 2904,
      "bon": 2905,
      "bon</w>": 2906,
      "book": 2907,
      "book</w>": 2908,
      "bor": 2909,
      "borg": 2910,
      "boris</w>": 2911,
      "boru</w>": 2912,
      "borç": 2913,
      "borç</w>": 2914,
      "bos": 2915,
      "bosn": 2916,
      "bosna-her": 2917,
      "bosna</w>": 2918,
      "bost": 2919,
      "bot": 2920,
      "botan": 2921,
      "botanikçi</w>": 2922,
      "bour": 2923,
      "boy": 2924,
      "boy</w>": 2925,
      "boya</w>": 2926,
      "boylam": 2927,
      "boyn": 2928,
      "boyu</w>": 2929,
      "boyun": 2930,
      "boyunc": 2931,
      "boyunca,</w>": 2932,
      "boyunca</w>": 2933,
      "boyut": 2934,
      "boyutlu</w>": 2935,
      "boz": 2936,
      "bozuk": 2937,
      "bozukluk": 2938,
      "bozul": 2939,
      "boğ": 2940,
      "boğaz": 2941,
      "boğaziçi</w>": 2942,
      "boğazı</w>": 2943,
      "boş": 2944,
      "boş</w>": 2945,
      "boşalt": 2946,
      "br": 2947,
      "brah": 2948,
      "bran": 2949,
      "brand": 2950,
      "bre": 2951,
      "brech": 2952,
      "brezil": 2953,
      "brezilya'nın</w>": 2954,
      "brezilya</w>": 2955,
      "brezilyalı</w>": 2956,
      "brian</w>": 2957,
      "brid": 2958,
      "brit": 2959,
      "britan": 2960,
      "britanya</w>": 2961,
      "britanyalı</w>": 2962,
      "briy": 2963,
      "bro": 2964,
      "bron": 2965,
      "bronz</w>": 2966,
      "brow": 2967,
      "brown,</w>": 2968,
      "bru": 2969,
      "brun": 2970,
      "brük": 2971,
      "bu": 2972,
      "bu,</w>": 2973,
      "bu</w>": 2974,
      "buc": 2975,
      "bud": 2976,
      "budist</w>": 2977,
      "budiz": 2978,
      "buenos</w>": 2979,
      "bugün": 2980,
      "bugün</w>": 2981,
      "bugüne</w>": 2982,
      "bugünkü</w>": 2983,
      "buhar": 2984,
      "bul": 2985,
      "bulan</w>": 2986,
      "bulaş": 2987,
      "buldu.</w>": 2988,
      "bulduğu</w>": 2989,
      "bulgar": 2990,
      "bulgar</w>": 2991,
      "bulgaristan</w>": 2992,
      "bulgu": 2993,
      "bulgular</w>": 2994,
      "bulmak</w>": 2995,
      "bulmuştur.</w>": 2996,
      "bulun": 2997,
      "bulunabilir.</w>": 2998,
      "bulunan,</w>": 2999,
      "bulunan</w>": 3000,
      "bulundu.</w>": 3001,
      "bulundur": 3002,
      "bulunduğ": 3003,
      "bulunduğu</w>": 3004,
      "bulunduğunu</w>": 3005,
      "bulunmaktadır.</w>": 3006,
      "bulunmaktaydı.</w>": 3007,
      "bulunmamaktadır.</w>": 3008,
      "bulunması</w>": 3009,
      "bulunmayan</w>": 3010,
      "bulunmuş</w>": 3011,
      "bulunmuştur.</w>": 3012,
      "buluntu": 3013,
      "bulunur": 3014,
      "bulunur.</w>": 3015,
      "bulunur</w>": 3016,
      "bulunuyordu.</w>": 3017,
      "bulut": 3018,
      "bulut</w>": 3019,
      "buluş": 3020,
      "bun": 3021,
      "buna</w>": 3022,
      "bunda</w>": 3023,
      "bundan</w>": 3024,
      "bunlar,</w>": 3025,
      "bunlar</w>": 3026,
      "bunlara</w>": 3027,
      "bunlardan</w>": 3028,
      "bunları</w>": 3029,
      "bunların</w>": 3030,
      "bunu</w>": 3031,
      "bunun</w>": 3032,
      "bununla</w>": 3033,
      "bur": 3034,
      "burada</w>": 3035,
      "buradaki</w>": 3036,
      "buradan</w>": 3037,
      "buraya</w>": 3038,
      "burg": 3039,
      "burg,</w>": 3040,
      "burg</w>": 3041,
      "burj": 3042,
      "burk": 3043,
      "burkina</w>": 3044,
      "burn": 3045,
      "burnu</w>": 3046,
      "bursa": 3047,
      "bursa</w>": 3048,
      "burun": 3049,
      "burun</w>": 3050,
      "bus": 3051,
      "but": 3052,
      "buyr": 3053,
      "buz": 3054,
      "buz</w>": 3055,
      "buzul": 3056,
      "buğ": 3057,
      "buğday</w>": 3058,
      "by": 3059,
      "by,</w>": 3060,
      "by</w>": 3061,
      "bâ": 3062,
      "bâzı</w>": 3063,
      "bö": 3064,
      "böbr": 3065,
      "böc": 3066,
      "böcek": 3067,
      "böcek</w>": 3068,
      "böl": 3069,
      "bölg": 3070,
      "bölge,</w>": 3071,
      "bölge</w>": 3072,
      "bölgede</w>": 3073,
      "bölgedeki</w>": 3074,
      "bölgeden</w>": 3075,
      "bölgel": 3076,
      "bölgeler": 3077,
      "bölgeler</w>": 3078,
      "bölgelerde</w>": 3079,
      "bölgelere</w>": 3080,
      "bölgeleri</w>": 3081,
      "bölgelerin</w>": 3082,
      "bölgelerinde</w>": 3083,
      "bölgelerine</w>": 3084,
      "bölgenin</w>": 3085,
      "bölges": 3086,
      "bölgesel</w>": 3087,
      "bölgesi'nde</w>": 3088,
      "bölgesi'nin</w>": 3089,
      "bölgesi,</w>": 3090,
      "bölgesi</w>": 3091,
      "bölgesinde</w>": 3092,
      "bölgesindeki</w>": 3093,
      "bölgesine</w>": 3094,
      "bölgesini</w>": 3095,
      "bölgesinin</w>": 3096,
      "bölgeye</w>": 3097,
      "bölgeyi</w>": 3098,
      "bölüm": 3099,
      "bölüm</w>": 3100,
      "bölümler</w>": 3101,
      "bölümleri</w>": 3102,
      "bölümü</w>": 3103,
      "bölümünde</w>": 3104,
      "bölümünü</w>": 3105,
      "bölümünün</w>": 3106,
      "bölün": 3107,
      "böy": 3108,
      "böyl": 3109,
      "böyle</w>": 3110,
      "böylece,</w>": 3111,
      "böylece</w>": 3112,
      "böylelikle</w>": 3113,
      "bü": 3114,
      "bül": 3115,
      "bülent</w>": 3116,
      "bün": 3117,
      "büny": 3118,
      "bünyesinde</w>": 3119,
      "bür": 3120,
      "bürokr": 3121,
      "bürokrat</w>": 3122,
      "büt": 3123,
      "bütç": 3124,
      "bütün": 3125,
      "bütün</w>": 3126,
      "büy": 3127,
      "büyü": 3128,
      "büyük": 3129,
      "büyük</w>": 3130,
      "büyükel": 3131,
      "büyükelç": 3132,
      "büyükl": 3133,
      "büyüklük": 3134,
      "büyüklüğ": 3135,
      "büyüklüğü</w>": 3136,
      "büyüklüğünde</w>": 3137,
      "büyükşehir</w>": 3138,
      "büyüm": 3139,
      "büyüme</w>": 3140,
      "büyüyen</w>": 3141,
      "büyüğ": 3142,
      "bır": 3143,
      "bırak": 3144,
      "bırakarak</w>": 3145,
      "bırakmıştır.</w>": 3146,
      "bırakt": 3147,
      "bıraktı.</w>": 3148,
      "bırakıl": 3149,
      "bırakıldı.</w>": 3150,
      "bıç": 3151,
      "c": 3152,
      "c)</w>": 3153,
      "c,</w>": 3154,
      "c-": 3155,
      "c.": 3156,
      "c.</w>": 3157,
      "c</w>": 3158,
      "ca": 3159,
      "ca,</w>": 3160,
      "ca:</w>": 3161,
      "ca</w>": 3162,
      "cab": 3163,
      "cad": 3164,
      "caddesi</w>": 3165,
      "caf": 3166,
      "cahit</w>": 3167,
      "cal": 3168,
      "cal</w>": 3169,
      "cam": 3170,
      "cam</w>": 3171,
      "cambrid": 3172,
      "cambridge</w>": 3173,
      "cami": 3174,
      "cami</w>": 3175,
      "camii,</w>": 3176,
      "camii</w>": 3177,
      "caminin</w>": 3178,
      "can": 3179,
      "can,</w>": 3180,
      "can</w>": 3181,
      "canl": 3182,
      "canlandır": 3183,
      "canlı</w>": 3184,
      "canlıların</w>": 3185,
      "cant": 3186,
      "cap": 3187,
      "car": 3188,
      "car</w>": 3189,
      "carl": 3190,
      "carl</w>": 3191,
      "carlo</w>": 3192,
      "carlos</w>": 3193,
      "carol": 3194,
      "cart": 3195,
      "cas": 3196,
      "cast": 3197,
      "cat": 3198,
      "cauch": 3199,
      "cav": 3200,
      "caz": 3201,
      "caz</w>": 3202,
      "cc": 3203,
      "cd": 3204,
      "cd</w>": 3205,
      "ce": 3206,
      "ce,</w>": 3207,
      "ce</w>": 3208,
      "ceb": 3209,
      "cebir": 3210,
      "cebirsel</w>": 3211,
      "ced": 3212,
      "ceh": 3213,
      "cel": 3214,
      "cel</w>": 3215,
      "celal</w>": 3216,
      "cem": 3217,
      "cem</w>": 3218,
      "cemaat": 3219,
      "cemal</w>": 3220,
      "cemil</w>": 3221,
      "cemiyet": 3222,
      "cemiyeti</w>": 3223,
      "cen": 3224,
      "cenaz": 3225,
      "cenaze</w>": 3226,
      "cenev": 3227,
      "cenevre</w>": 3228,
      "ceng": 3229,
      "cengiz</w>": 3230,
      "center": 3231,
      "cep": 3232,
      "cep</w>": 3233,
      "ceph": 3234,
      "cephe</w>": 3235,
      "cephes": 3236,
      "cephesi</w>": 3237,
      "cer": 3238,
      "cermen</w>": 3239,
      "cerrah": 3240,
      "cerrahi</w>": 3241,
      "ces": 3242,
      "cev": 3243,
      "cevap</w>": 3244,
      "cevdet</w>": 3245,
      "ceviz": 3246,
      "cey": 3247,
      "cez": 3248,
      "ceza": 3249,
      "ceza</w>": 3250,
      "cezaev": 3251,
      "cezalandır": 3252,
      "cezası</w>": 3253,
      "cezasına</w>": 3254,
      "cezay": 3255,
      "cezayir": 3256,
      "cezayir</w>": 3257,
      "ch": 3258,
      "ch,</w>": 3259,
      "ch</w>": 3260,
      "cham": 3261,
      "chan": 3262,
      "chap": 3263,
      "char": 3264,
      "charles</w>": 3265,
      "chic": 3266,
      "chil": 3267,
      "chom": 3268,
      "chp": 3269,
      "chp</w>": 3270,
      "chr": 3271,
      "chris": 3272,
      "chris</w>": 3273,
      "christ": 3274,
      "christi": 3275,
      "christian</w>": 3276,
      "christop": 3277,
      "christopher</w>": 3278,
      "chur": 3279,
      "ci": 3280,
      "ci,</w>": 3281,
      "ci</w>": 3282,
      "cia</w>": 3283,
      "cid": 3284,
      "ciddi</w>": 3285,
      "cih": 3286,
      "cihaz": 3287,
      "cil": 3288,
      "cil</w>": 3289,
      "ciler</w>": 3290,
      "cilerin</w>": 3291,
      "cilik</w>": 3292,
      "cilt": 3293,
      "cilt</w>": 3294,
      "cin": 3295,
      "cinayet": 3296,
      "cins": 3297,
      "cins</w>": 3298,
      "cinsel": 3299,
      "cinsel</w>": 3300,
      "cinsiy": 3301,
      "cinsiyet</w>": 3302,
      "cir": 3303,
      "cis": 3304,
      "cisi</w>": 3305,
      "cisim": 3306,
      "cisim</w>": 3307,
      "cism": 3308,
      "cismin</w>": 3309,
      "cit": 3310,
      "civ": 3311,
      "civar": 3312,
      "civarında</w>": 3313,
      "civarındadır.</w>": 3314,
      "ciz": 3315,
      "ciğ": 3316,
      "cl": 3317,
      "cla": 3318,
      "clar": 3319,
      "class": 3320,
      "clau": 3321,
      "claude</w>": 3322,
      "clem": 3323,
      "cm": 3324,
      "cm</w>": 3325,
      "co": 3326,
      "co</w>": 3327,
      "cob": 3328,
      "coc": 3329,
      "col": 3330,
      "coll": 3331,
      "color": 3332,
      "columb": 3333,
      "com": 3334,
      "compan": 3335,
      "comput": 3336,
      "con": 3337,
      "const": 3338,
      "cop": 3339,
      "cor": 3340,
      "corn": 3341,
      "cos": 3342,
      "cot": 3343,
      "coun": 3344,
      "country</w>": 3345,
      "cour": 3346,
      "cov": 3347,
      "coğraf": 3348,
      "coğrafi</w>": 3349,
      "coğrafy": 3350,
      "coğrafya</w>": 3351,
      "coş": 3352,
      "cr": 3353,
      "cre": 3354,
      "crip": 3355,
      "cro": 3356,
      "cu": 3357,
      "cu,</w>": 3358,
      "cu</w>": 3359,
      "cul": 3360,
      "cular</w>": 3361,
      "cum": 3362,
      "cuma</w>": 3363,
      "cumhur": 3364,
      "cumhurbaşkan": 3365,
      "cumhurbaşkanlığı</w>": 3366,
      "cumhurbaşkanı</w>": 3367,
      "cumhuriyet": 3368,
      "cumhuriyet</w>": 3369,
      "cumhuriyeti'nde</w>": 3370,
      "cumhuriyeti'nin</w>": 3371,
      "cumhuriyeti,</w>": 3372,
      "cumhuriyeti</w>": 3373,
      "cumhuriyetin</w>": 3374,
      "cumhuriyetler</w>": 3375,
      "cumhuriyetçi</w>": 3376,
      "cun": 3377,
      "cur": 3378,
      "cusu</w>": 3379,
      "cy": 3380,
      "cz": 3381,
      "cé": 3382,
      "cü": 3383,
      "cü</w>": 3384,
      "cüce</w>": 3385,
      "cüm": 3386,
      "cüml": 3387,
      "cün": 3388,
      "cı": 3389,
      "cı,</w>": 3390,
      "cı</w>": 3391,
      "cık</w>": 3392,
      "cılar</w>": 3393,
      "cılık</w>": 3394,
      "cısı</w>": 3395,
      "d": 3396,
      "d'": 3397,
      "d'un</w>": 3398,
      "d)</w>": 3399,
      "d,</w>": 3400,
      "d-": 3401,
      "d.</w>": 3402,
      "d</w>": 3403,
      "da": 3404,
      "da)</w>": 3405,
      "da,</w>": 3406,
      "da;</w>": 3407,
      "da</w>": 3408,
      "dadır.</w>": 3409,
      "dah": 3410,
      "daha</w>": 3411,
      "dahi</w>": 3412,
      "dahil": 3413,
      "dahil</w>": 3414,
      "daima</w>": 3415,
      "daimi</w>": 3416,
      "dair": 3417,
      "dair</w>": 3418,
      "daire</w>": 3419,
      "dak": 3420,
      "dak</w>": 3421,
      "daki</w>": 3422,
      "dakik": 3423,
      "dakika</w>": 3424,
      "dal": 3425,
      "dal</w>": 3426,
      "dalg": 3427,
      "dalga</w>": 3428,
      "dalları</w>": 3429,
      "dalı</w>": 3430,
      "dalıdır.</w>": 3431,
      "dalında</w>": 3432,
      "dam": 3433,
      "dam</w>": 3434,
      "damar": 3435,
      "damar</w>": 3436,
      "dan": 3437,
      "dan,</w>": 3438,
      "dan</w>": 3439,
      "dani": 3440,
      "daniel</w>": 3441,
      "danimark": 3442,
      "danimarka</w>": 3443,
      "danimarkalı</w>": 3444,
      "dans": 3445,
      "dans</w>": 3446,
      "dansçı</w>": 3447,
      "danış": 3448,
      "danışman": 3449,
      "dar": 3450,
      "dar</w>": 3451,
      "darb": 3452,
      "darbe</w>": 3453,
      "darbes": 3454,
      "darbesi</w>": 3455,
      "darwin": 3456,
      "darül": 3457,
      "dat": 3458,
      "dav": 3459,
      "dava</w>": 3460,
      "davası</w>": 3461,
      "davet</w>": 3462,
      "david</w>": 3463,
      "davr": 3464,
      "davran": 3465,
      "davranış": 3466,
      "davranış</w>": 3467,
      "davul": 3468,
      "davul</w>": 3469,
      "day": 3470,
      "day,</w>": 3471,
      "day</w>": 3472,
      "dayalı</w>": 3473,
      "dayan": 3474,
      "dayanan</w>": 3475,
      "dayanarak</w>": 3476,
      "dayandır": 3477,
      "dayanmaktadır.</w>": 3478,
      "dayanık": 3479,
      "dayanır.</w>": 3480,
      "daydı.</w>": 3481,
      "dağ": 3482,
      "dağ</w>": 3483,
      "dağlar</w>": 3484,
      "dağları</w>": 3485,
      "dağlık</w>": 3486,
      "dağı</w>": 3487,
      "dağıl": 3488,
      "dağılımı</w>": 3489,
      "dağıt": 3490,
      "dd": 3491,
      "de": 3492,
      "de)</w>": 3493,
      "de,</w>": 3494,
      "de-": 3495,
      "de;</w>": 3496,
      "de</w>": 3497,
      "deb": 3498,
      "dec": 3499,
      "ded": 3500,
      "dede": 3501,
      "dede</w>": 3502,
      "dedi.</w>": 3503,
      "dedir.</w>": 3504,
      "dediği</w>": 3505,
      "def": 3506,
      "defa</w>": 3507,
      "defn": 3508,
      "defnedildi.</w>": 3509,
      "defnedilenler</w>": 3510,
      "defter": 3511,
      "dek": 3512,
      "dek</w>": 3513,
      "deki</w>": 3514,
      "deks": 3515,
      "del": 3516,
      "del</w>": 3517,
      "deli</w>": 3518,
      "delik</w>": 3519,
      "dem": 3520,
      "dem</w>": 3521,
      "demektir.</w>": 3522,
      "demir": 3523,
      "demir,</w>": 3524,
      "demir</w>": 3525,
      "demirel</w>": 3526,
      "demiryol": 3527,
      "demiryolu</w>": 3528,
      "demiştir.</w>": 3529,
      "demografi</w>": 3530,
      "demokr": 3531,
      "demokras": 3532,
      "demokrasi</w>": 3533,
      "demokrat": 3534,
      "demokrat</w>": 3535,
      "demokratik</w>": 3536,
      "den": 3537,
      "den,</w>": 3538,
      "den</w>": 3539,
      "dendir.</w>": 3540,
      "denem": 3541,
      "deneme</w>": 3542,
      "denen</w>": 3543,
      "denet": 3544,
      "denetim</w>": 3545,
      "deney": 3546,
      "deney</w>": 3547,
      "deneyim": 3548,
      "deneysel</w>": 3549,
      "deng": 3550,
      "denge</w>": 3551,
      "dengel": 3552,
      "denilen</w>": 3553,
      "denin</w>": 3554,
      "denir.</w>": 3555,
      "deniz": 3556,
      "deniz</w>": 3557,
      "denizalt": 3558,
      "denizci</w>": 3559,
      "denizden</w>": 3560,
      "denize</w>": 3561,
      "denizi</w>": 3562,
      "denizli</w>": 3563,
      "denk": 3564,
      "denk</w>": 3565,
      "denklem": 3566,
      "dep": 3567,
      "depol": 3568,
      "depolama</w>": 3569,
      "depr": 3570,
      "deprem": 3571,
      "deprem</w>": 3572,
      "depremde</w>": 3573,
      "der": 3574,
      "der,</w>": 3575,
      "der.</w>": 3576,
      "der</w>": 3577,
      "dere</w>": 3578,
      "derec": 3579,
      "derece</w>": 3580,
      "derecede</w>": 3581,
      "derecesi</w>": 3582,
      "deresi</w>": 3583,
      "derg": 3584,
      "dergi</w>": 3585,
      "dergisi</w>": 3586,
      "dergisinde</w>": 3587,
      "dergisinin</w>": 3588,
      "deri</w>": 3589,
      "derin": 3590,
      "derin</w>": 3591,
      "dern": 3592,
      "derneğ": 3593,
      "derneği</w>": 3594,
      "ders": 3595,
      "ders</w>": 3596,
      "dersler</w>": 3597,
      "dersleri</w>": 3598,
      "derv": 3599,
      "des": 3600,
      "des</w>": 3601,
      "descart": 3602,
      "desi</w>": 3603,
      "dest": 3604,
      "destan": 3605,
      "destek": 3606,
      "destek</w>": 3607,
      "desteklem": 3608,
      "desteklen": 3609,
      "desteklenen</w>": 3610,
      "destekleyen</w>": 3611,
      "desteği</w>": 3612,
      "desteğini</w>": 3613,
      "desteğiyle</w>": 3614,
      "det": 3615,
      "det</w>": 3616,
      "deut": 3617,
      "dev": 3618,
      "dev</w>": 3619,
      "devam": 3620,
      "devam</w>": 3621,
      "devamlı</w>": 3622,
      "devamı</w>": 3623,
      "devir": 3624,
      "devlet": 3625,
      "devlet</w>": 3626,
      "devlete</w>": 3627,
      "devleti'ne</w>": 3628,
      "devleti'nin</w>": 3629,
      "devleti,</w>": 3630,
      "devleti</w>": 3631,
      "devletin</w>": 3632,
      "devletinin</w>": 3633,
      "devletler": 3634,
      "devletler</w>": 3635,
      "devletleri'nde</w>": 3636,
      "devletleri'nin</w>": 3637,
      "devletleri,</w>": 3638,
      "devletleri</w>": 3639,
      "devletlerin</w>": 3640,
      "devr": 3641,
      "devre</w>": 3642,
      "devri</w>": 3643,
      "devrim": 3644,
      "devrim</w>": 3645,
      "devrimci</w>": 3646,
      "devrimi</w>": 3647,
      "devrinde</w>": 3648,
      "dey": 3649,
      "deyiş": 3650,
      "dez": 3651,
      "değ": 3652,
      "değer": 3653,
      "değer</w>": 3654,
      "değeri</w>": 3655,
      "değerini</w>": 3656,
      "değerlendir": 3657,
      "değerler</w>": 3658,
      "değerleri</w>": 3659,
      "değerli</w>": 3660,
      "değil": 3661,
      "değil,</w>": 3662,
      "değil</w>": 3663,
      "değildi.</w>": 3664,
      "değildir,</w>": 3665,
      "değildir.</w>": 3666,
      "değildir</w>": 3667,
      "değin": 3668,
      "değin</w>": 3669,
      "değir": 3670,
      "değiş": 3671,
      "değişen</w>": 3672,
      "değişik": 3673,
      "değişik</w>": 3674,
      "değişiklik": 3675,
      "değişiklik</w>": 3676,
      "değişiklikler</w>": 3677,
      "değişikliği</w>": 3678,
      "değişim": 3679,
      "değişim</w>": 3680,
      "değişimi</w>": 3681,
      "değişir.</w>": 3682,
      "değişken": 3683,
      "değişken</w>": 3684,
      "değiştir": 3685,
      "değiştirdi.</w>": 3686,
      "değiştirildi.</w>": 3687,
      "değiştirilmiştir.</w>": 3688,
      "deş": 3689,
      "dh": 3690,
      "di": 3691,
      "di'nin</w>": 3692,
      "di,</w>": 3693,
      "di.": 3694,
      "di.</w>": 3695,
      "di:</w>": 3696,
      "di;</w>": 3697,
      "di</w>": 3698,
      "dia</w>": 3699,
      "dic": 3700,
      "die</w>": 3701,
      "difer": 3702,
      "diferansiyel</w>": 3703,
      "digit": 3704,
      "dijit": 3705,
      "dijital</w>": 3706,
      "dik": 3707,
      "dik</w>": 3708,
      "dikdört": 3709,
      "dikdörtgen</w>": 3710,
      "dikkat": 3711,
      "dikkat</w>": 3712,
      "dikkate</w>": 3713,
      "dikleri</w>": 3714,
      "diktat": 3715,
      "diktatör": 3716,
      "dikten</w>": 3717,
      "dil": 3718,
      "dil,</w>": 3719,
      "dil</w>": 3720,
      "dilbilimci</w>": 3721,
      "dilde</w>": 3722,
      "dile</w>": 3723,
      "diler.</w>": 3724,
      "diler</w>": 3725,
      "dili</w>": 3726,
      "dilin</w>": 3727,
      "dilinde</w>": 3728,
      "dilini</w>": 3729,
      "dilinin</w>": 3730,
      "diller</w>": 3731,
      "dillerde</w>": 3732,
      "dilleri</w>": 3733,
      "dillerin</w>": 3734,
      "dim": 3735,
      "dimit": 3736,
      "din": 3737,
      "din,</w>": 3738,
      "din</w>": 3739,
      "dinam": 3740,
      "dinamik</w>": 3741,
      "dine</w>": 3742,
      "ding": 3743,
      "ding</w>": 3744,
      "dini</w>": 3745,
      "dinin</w>": 3746,
      "dinler</w>": 3747,
      "dinoz": 3748,
      "dinsel</w>": 3749,
      "dinî</w>": 3750,
      "dip": 3751,
      "dip</w>": 3752,
      "dipl": 3753,
      "diplo": 3754,
      "diplom": 3755,
      "diplomat</w>": 3756,
      "diplomatik</w>": 3757,
      "dir": 3758,
      "dir,</w>": 3759,
      "dir.</w>": 3760,
      "dir:</w>": 3761,
      "dir;</w>": 3762,
      "dir</w>": 3763,
      "direk": 3764,
      "direkt</w>": 3765,
      "direktör": 3766,
      "direktör</w>": 3767,
      "diren": 3768,
      "direniş": 3769,
      "direniş</w>": 3770,
      "dirich": 3771,
      "dis": 3772,
      "disip": 3773,
      "disiplin": 3774,
      "disk": 3775,
      "disk</w>": 3776,
      "div": 3777,
      "divan": 3778,
      "divan</w>": 3779,
      "diy": 3780,
      "diyal": 3781,
      "diyar": 3782,
      "diyarbakır": 3783,
      "diyarbakır</w>": 3784,
      "diye</w>": 3785,
      "diyerek</w>": 3786,
      "diz": 3787,
      "dizi</w>": 3788,
      "dizil": 3789,
      "dizisi</w>": 3790,
      "diğ": 3791,
      "diğer": 3792,
      "diğer</w>": 3793,
      "diğeri</w>": 3794,
      "diğerleri</w>": 3795,
      "diği,</w>": 3796,
      "diği</w>": 3797,
      "diğinde,</w>": 3798,
      "diğinde</w>": 3799,
      "diğinden</w>": 3800,
      "diğine</w>": 3801,
      "diğini</w>": 3802,
      "diş": 3803,
      "diş</w>": 3804,
      "dişi</w>": 3805,
      "dj</w>": 3806,
      "dn": 3807,
      "dna</w>": 3808,
      "dns</w>": 3809,
      "do": 3810,
      "do</w>": 3811,
      "dok": 3812,
      "doktor": 3813,
      "doktor</w>": 3814,
      "doktora</w>": 3815,
      "doktoru</w>": 3816,
      "doku": 3817,
      "doku</w>": 3818,
      "dokum": 3819,
      "dokun": 3820,
      "dokuz</w>": 3821,
      "dokuzun": 3822,
      "dokuzuncu</w>": 3823,
      "dol": 3824,
      "dolar": 3825,
      "dolar</w>": 3826,
      "dolarlık</w>": 3827,
      "doları</w>": 3828,
      "dolay": 3829,
      "dolaylı</w>": 3830,
      "dolayı,</w>": 3831,
      "dolayı</w>": 3832,
      "dolayısıyla</w>": 3833,
      "dolaş": 3834,
      "doldur": 3835,
      "dolm": 3836,
      "dolmabah": 3837,
      "dolmabahçe</w>": 3838,
      "dolu</w>": 3839,
      "dom": 3840,
      "domin": 3841,
      "don": 3842,
      "don</w>": 3843,
      "donald</w>": 3844,
      "donan": 3845,
      "donanma</w>": 3846,
      "donanmas": 3847,
      "donanması</w>": 3848,
      "donanım</w>": 3849,
      "donat": 3850,
      "dor": 3851,
      "dos": 3852,
      "dos</w>": 3853,
      "dost": 3854,
      "dosy": 3855,
      "dosya</w>": 3856,
      "dou": 3857,
      "doug": 3858,
      "douglas</w>": 3859,
      "dow": 3860,
      "doy": 3861,
      "doç": 3862,
      "doğ": 3863,
      "doğa</w>": 3864,
      "doğada</w>": 3865,
      "doğal</w>": 3866,
      "doğan</w>": 3867,
      "doğası</w>": 3868,
      "doğdu.</w>": 3869,
      "doğduğu</w>": 3870,
      "doğmuştur.</w>": 3871,
      "doğr": 3872,
      "doğru": 3873,
      "doğru</w>": 3874,
      "doğrudan</w>": 3875,
      "doğrul": 3876,
      "doğrulan": 3877,
      "doğrult": 3878,
      "doğrultusunda</w>": 3879,
      "doğrusal</w>": 3880,
      "doğu": 3881,
      "doğu</w>": 3882,
      "doğuda</w>": 3883,
      "doğudan</w>": 3884,
      "doğum": 3885,
      "doğum</w>": 3886,
      "doğumlar</w>": 3887,
      "doğumlu</w>": 3888,
      "doğumlular</w>": 3889,
      "doğur": 3890,
      "doğus": 3891,
      "doğusunda</w>": 3892,
      "doğusundaki</w>": 3893,
      "doğuya</w>": 3894,
      "doğuş": 3895,
      "dp": 3896,
      "dp</w>": 3897,
      "dr": 3898,
      "dr.</w>": 3899,
      "dram": 3900,
      "dre": 3901,
      "dren": 3902,
      "dro": 3903,
      "ds": 3904,
      "ds</w>": 3905,
      "du": 3906,
      "du,</w>": 3907,
      "du.</w>": 3908,
      "du:</w>": 3909,
      "du;</w>": 3910,
      "du</w>": 3911,
      "dua</w>": 3912,
      "dub": 3913,
      "dubl": 3914,
      "duc": 3915,
      "duk": 3916,
      "dukları</w>": 3917,
      "duktan</w>": 3918,
      "dul": 3919,
      "dular.</w>": 3920,
      "dum": 3921,
      "dum</w>": 3922,
      "dun": 3923,
      "dun</w>": 3924,
      "dur": 3925,
      "dur,</w>": 3926,
      "dur.</w>": 3927,
      "dur</w>": 3928,
      "duran</w>": 3929,
      "durdur": 3930,
      "durdurul": 3931,
      "durum": 3932,
      "durum,</w>": 3933,
      "durum</w>": 3934,
      "duruma</w>": 3935,
      "durumda</w>": 3936,
      "durumdadır.</w>": 3937,
      "durumlarda</w>": 3938,
      "durumu</w>": 3939,
      "durumun</w>": 3940,
      "durumuna</w>": 3941,
      "durumunda</w>": 3942,
      "durumunu</w>": 3943,
      "duruş": 3944,
      "dus</w>": 3945,
      "duvar": 3946,
      "duvar</w>": 3947,
      "duy": 3948,
      "duyar": 3949,
      "duyarlı</w>": 3950,
      "duyduğu</w>": 3951,
      "duygu": 3952,
      "duygusal</w>": 3953,
      "duyu</w>": 3954,
      "duyul": 3955,
      "duyulan</w>": 3956,
      "duyur": 3957,
      "duyurdu.</w>": 3958,
      "duğ": 3959,
      "duğu</w>": 3960,
      "duğunda</w>": 3961,
      "duğunu</w>": 3962,
      "dv": 3963,
      "dw": 3964,
      "dy": 3965,
      "dy</w>": 3966,
      "dâ": 3967,
      "dâh": 3968,
      "dâhil</w>": 3969,
      "dé": 3970,
      "dî": 3971,
      "dö": 3972,
      "dök": 3973,
      "dökül": 3974,
      "dön": 3975,
      "döndü.</w>": 3976,
      "döndü</w>": 3977,
      "döndür": 3978,
      "dönem": 3979,
      "dönem</w>": 3980,
      "dönemde,</w>": 3981,
      "dönemde</w>": 3982,
      "dönemden</w>": 3983,
      "döneme</w>": 3984,
      "dönemi</w>": 3985,
      "dönemin</w>": 3986,
      "döneminde,</w>": 3987,
      "döneminde</w>": 3988,
      "dönemindeki</w>": 3989,
      "döneminden</w>": 3990,
      "dönemine</w>": 3991,
      "döneminin</w>": 3992,
      "dönemlerde</w>": 3993,
      "dönemlerinde</w>": 3994,
      "dönen</w>": 3995,
      "döng": 3996,
      "dönme</w>": 3997,
      "dönüm": 3998,
      "dönüm</w>": 3999,
      "dönümü</w>": 4000,
      "dönüş": 4001,
      "dönüş</w>": 4002,
      "dönüştü.</w>": 4003,
      "dönüştür": 4004,
      "dönüştürül": 4005,
      "dönüşüm": 4006,
      "dönüşüm</w>": 4007,
      "dönüşür.</w>": 4008,
      "dör": 4009,
      "dördün": 4010,
      "dördüncü</w>": 4011,
      "dört": 4012,
      "dört</w>": 4013,
      "döv": 4014,
      "döviz</w>": 4015,
      "dü": 4016,
      "dü,</w>": 4017,
      "dü.</w>": 4018,
      "dü</w>": 4019,
      "dük": 4020,
      "dükkân": 4021,
      "dükleri</w>": 4022,
      "dükten</w>": 4023,
      "dükü</w>": 4024,
      "dül": 4025,
      "düler.</w>": 4026,
      "düm": 4027,
      "dün": 4028,
      "düny": 4029,
      "dünya": 4030,
      "dünya'nın</w>": 4031,
      "dünya</w>": 4032,
      "dünyaca</w>": 4033,
      "dünyada</w>": 4034,
      "dünyadaki</w>": 4035,
      "dünyanın</w>": 4036,
      "dünyas": 4037,
      "dünyası</w>": 4038,
      "dünyasında</w>": 4039,
      "dünyasının</w>": 4040,
      "dünyaya</w>": 4041,
      "dünyayı</w>": 4042,
      "dür": 4043,
      "dür.</w>": 4044,
      "dür</w>": 4045,
      "düs": 4046,
      "düz": 4047,
      "düz</w>": 4048,
      "düzelt": 4049,
      "düzen": 4050,
      "düzen</w>": 4051,
      "düzeni</w>": 4052,
      "düzenine</w>": 4053,
      "düzenledi.</w>": 4054,
      "düzenlediği</w>": 4055,
      "düzenlem": 4056,
      "düzenlen": 4057,
      "düzenlendi.</w>": 4058,
      "düzenlenen</w>": 4059,
      "düzenlenmektedir.</w>": 4060,
      "düzenleyen</w>": 4061,
      "düzenli</w>": 4062,
      "düzensiz</w>": 4063,
      "düzey": 4064,
      "düzey</w>": 4065,
      "düzeyde</w>": 4066,
      "düzeyinde</w>": 4067,
      "düzeyindedir.</w>": 4068,
      "düzgün</w>": 4069,
      "düzlem": 4070,
      "düzlük": 4071,
      "düğ": 4072,
      "düğü</w>": 4073,
      "düğünde</w>": 4074,
      "düğünü</w>": 4075,
      "düş": 4076,
      "düşen</w>": 4077,
      "düşer.</w>": 4078,
      "düşman": 4079,
      "düşman</w>": 4080,
      "düşmektedir.</w>": 4081,
      "düşmüştür.</w>": 4082,
      "düşt": 4083,
      "düştü": 4084,
      "düştü.</w>": 4085,
      "düşük": 4086,
      "düşük</w>": 4087,
      "düşün": 4088,
      "düşünc": 4089,
      "düşünce</w>": 4090,
      "düşüncesi</w>": 4091,
      "düşünül": 4092,
      "düşünülen</w>": 4093,
      "düşünülmektedir.</w>": 4094,
      "düşünür": 4095,
      "düşünür</w>": 4096,
      "düşür": 4097,
      "düşürül": 4098,
      "düşüş": 4099,
      "dı,</w>": 4100,
      "dı.</w>": 4101,
      "dı</w>": 4102,
      "dıkları</w>": 4103,
      "dıktan</w>": 4104,
      "dılar.</w>": 4105,
      "dır": 4106,
      "dır,</w>": 4107,
      "dır.</w>": 4108,
      "dır</w>": 4109,
      "dığı</w>": 4110,
      "dığını</w>": 4111,
      "dış": 4112,
      "dış</w>": 4113,
      "dışa</w>": 4114,
      "dışar": 4115,
      "dışarı</w>": 4116,
      "dışarıdan</w>": 4117,
      "dışişleri</w>": 4118,
      "dışı</w>": 4119,
      "dışına</w>": 4120,
      "dışında,</w>": 4121,
      "dışında</w>": 4122,
      "dışındaki</w>": 4123,
      "e": 4124,
      "e\"</w>": 4125,
      "e'de</w>": 4126,
      "e'deki</w>": 4127,
      "e'den</w>": 4128,
      "e'in</w>": 4129,
      "e'nin</w>": 4130,
      "e'un</w>": 4131,
      "e'ye</w>": 4132,
      "e'yi</w>": 4133,
      "e),</w>": 4134,
      "e)</w>": 4135,
      "e,</w>": 4136,
      "e-": 4137,
      "e-i</w>": 4138,
      "e-posta</w>": 4139,
      "e.": 4140,
      "e.</w>": 4141,
      "e/": 4142,
      "e:</w>": 4143,
      "e;</w>": 4144,
      "e</w>": 4145,
      "ea</w>": 4146,
      "ean</w>": 4147,
      "ear": 4148,
      "eb": 4149,
      "eb</w>": 4150,
      "ebe</w>": 4151,
      "ebev": 4152,
      "ebi</w>": 4153,
      "ebil": 4154,
      "ebilecek</w>": 4155,
      "ebileceği</w>": 4156,
      "ebilen</w>": 4157,
      "ebilir": 4158,
      "ebilir,</w>": 4159,
      "ebilir.</w>": 4160,
      "ebilir</w>": 4161,
      "ebilirler.</w>": 4162,
      "ebilmek</w>": 4163,
      "ebilmektedir.</w>": 4164,
      "ebilmesi</w>": 4165,
      "ebu</w>": 4166,
      "ec": 4167,
      "ec</w>": 4168,
      "ece,</w>": 4169,
      "ece</w>": 4170,
      "ecek": 4171,
      "ecek,</w>": 4172,
      "ecek</w>": 4173,
      "ecekleri</w>": 4174,
      "ecekti.</w>": 4175,
      "ecektir.</w>": 4176,
      "ecev": 4177,
      "eceğ": 4178,
      "eceği</w>": 4179,
      "eceğine</w>": 4180,
      "eceğini</w>": 4181,
      "ech": 4182,
      "eci</w>": 4183,
      "ecz": 4184,
      "ed": 4185,
      "ed,</w>": 4186,
      "ed.</w>": 4187,
      "ed</w>": 4188,
      "eddin</w>": 4189,
      "ede": 4190,
      "ede,</w>": 4191,
      "ede</w>": 4192,
      "edeb": 4193,
      "edebi</w>": 4194,
      "edebil": 4195,
      "edebilir.</w>": 4196,
      "edebiy": 4197,
      "edebiyat": 4198,
      "edebiyat</w>": 4199,
      "edebiyatı</w>": 4200,
      "edebiyatında</w>": 4201,
      "edebiyatının</w>": 4202,
      "edec": 4203,
      "edecek</w>": 4204,
      "edeki</w>": 4205,
      "edem": 4206,
      "eden": 4207,
      "eden,</w>": 4208,
      "eden</w>": 4209,
      "eder": 4210,
      "eder,</w>": 4211,
      "eder.</w>": 4212,
      "eder</w>": 4213,
      "ederek,</w>": 4214,
      "ederek</w>": 4215,
      "ederken,</w>": 4216,
      "ederken</w>": 4217,
      "ederler.</w>": 4218,
      "edey": 4219,
      "edi": 4220,
      "edi.</w>": 4221,
      "edi</w>": 4222,
      "edici</w>": 4223,
      "edil": 4224,
      "edildi.</w>": 4225,
      "edildi</w>": 4226,
      "edildiği</w>": 4227,
      "edilebil": 4228,
      "edilebilir.</w>": 4229,
      "edilebilir</w>": 4230,
      "edilem": 4231,
      "edilen</w>": 4232,
      "edilenler</w>": 4233,
      "edilerek</w>": 4234,
      "edilir.</w>": 4235,
      "edilir</w>": 4236,
      "edilm": 4237,
      "edilmektedir.</w>": 4238,
      "edilmesi</w>": 4239,
      "edilmesine</w>": 4240,
      "edilmesini</w>": 4241,
      "edilmiş,</w>": 4242,
      "edilmiş</w>": 4243,
      "edilmişti.</w>": 4244,
      "edilmiştir.</w>": 4245,
      "edin": 4246,
      "edip</w>": 4247,
      "edir": 4248,
      "edir,</w>": 4249,
      "edir.</w>": 4250,
      "edir</w>": 4251,
      "edirler.</w>": 4252,
      "edirne": 4253,
      "edirne</w>": 4254,
      "edit": 4255,
      "ediyor": 4256,
      "ediyor.</w>": 4257,
      "ediyordu.</w>": 4258,
      "ediği</w>": 4259,
      "ediğini</w>": 4260,
      "edr": 4261,
      "edu": 4262,
      "edw": 4263,
      "edward</w>": 4264,
      "ee": 4265,
      "ee</w>": 4266,
      "ef": 4267,
      "ef</w>": 4268,
      "efa</w>": 4269,
      "efef": 4270,
      "efen": 4271,
      "efendi": 4272,
      "efendi,</w>": 4273,
      "efendi</w>": 4274,
      "efi</w>": 4275,
      "efsan": 4276,
      "eg": 4277,
      "ege</w>": 4278,
      "egem": 4279,
      "egemen": 4280,
      "egemen</w>": 4281,
      "egemenlik</w>": 4282,
      "egemenliği</w>": 4283,
      "egemenliğine</w>": 4284,
      "egen": 4285,
      "egen</w>": 4286,
      "egor": 4287,
      "eh": 4288,
      "ehir": 4289,
      "ehir</w>": 4290,
      "ehl": 4291,
      "ein": 4292,
      "einste": 4293,
      "einstein": 4294,
      "einstein</w>": 4295,
      "eir": 4296,
      "ej": 4297,
      "ek": 4298,
      "ek,</w>": 4299,
      "ek</w>": 4300,
      "eki</w>": 4301,
      "ekib": 4302,
      "ekim": 4303,
      "ekim</w>": 4304,
      "ekip": 4305,
      "ekle</w>": 4306,
      "eklem": 4307,
      "eklen": 4308,
      "ekler</w>": 4309,
      "ekleri</w>": 4310,
      "eklerin</w>": 4311,
      "ekli</w>": 4312,
      "ekmek</w>": 4313,
      "ekol": 4314,
      "ekolojik</w>": 4315,
      "ekonom": 4316,
      "ekonomi</w>": 4317,
      "ekonomik</w>": 4318,
      "ekonominin</w>": 4319,
      "ekonomisi</w>": 4320,
      "ekonomisine</w>": 4321,
      "ekonomisinin</w>": 4322,
      "ekonomist</w>": 4323,
      "ekos": 4324,
      "ekosistem": 4325,
      "ekran</w>": 4326,
      "ekrem</w>": 4327,
      "eks": 4328,
      "eksen": 4329,
      "eksik": 4330,
      "eksik</w>": 4331,
      "eksiyon": 4332,
      "eksiyon</w>": 4333,
      "eksp": 4334,
      "eksü": 4335,
      "eksüel</w>": 4336,
      "ekt": 4337,
      "ekte</w>": 4338,
      "ektedir": 4339,
      "ektedir.</w>": 4340,
      "ektedir</w>": 4341,
      "ekteki</w>": 4342,
      "ekten</w>": 4343,
      "ekteydi.</w>": 4344,
      "ektir": 4345,
      "ektir.</w>": 4346,
      "ektör": 4347,
      "ektör</w>": 4348,
      "ektü": 4349,
      "ekvator": 4350,
      "ekvator</w>": 4351,
      "el": 4352,
      "el'in</w>": 4353,
      "el,</w>": 4354,
      "el-": 4355,
      "el</w>": 4356,
      "ela</w>": 4357,
      "elaz": 4358,
      "elazığ": 4359,
      "elazığ</w>": 4360,
      "elde</w>": 4361,
      "elden</w>": 4362,
      "ele": 4363,
      "ele</w>": 4364,
      "elec": 4365,
      "electr": 4366,
      "elekt": 4367,
      "elektr": 4368,
      "elektrik": 4369,
      "elektrik</w>": 4370,
      "elektrikli</w>": 4371,
      "elektriksel</w>": 4372,
      "elektro": 4373,
      "elektroman": 4374,
      "elektromanyetik</w>": 4375,
      "elektron": 4376,
      "elektron</w>": 4377,
      "elektronik</w>": 4378,
      "elektronların</w>": 4379,
      "elem": 4380,
      "eleman": 4381,
      "eleme</w>": 4382,
      "element": 4383,
      "element</w>": 4384,
      "elementlerin</w>": 4385,
      "elen": 4386,
      "elendir": 4387,
      "elenmiştir.</w>": 4388,
      "eler": 4389,
      "eler,</w>": 4390,
      "eler.</w>": 4391,
      "eler</w>": 4392,
      "elerde</w>": 4393,
      "elerden</w>": 4394,
      "elerdir.</w>": 4395,
      "elere</w>": 4396,
      "eleri,</w>": 4397,
      "eleri</w>": 4398,
      "eleridir.</w>": 4399,
      "elerin</w>": 4400,
      "elerinde</w>": 4401,
      "elerinden</w>": 4402,
      "elerine</w>": 4403,
      "elerini</w>": 4404,
      "elerinin</w>": 4405,
      "eleriyle</w>": 4406,
      "elerle</w>": 4407,
      "eley": 4408,
      "eleyen</w>": 4409,
      "eleştir": 4410,
      "eleştirel</w>": 4411,
      "eleştiri</w>": 4412,
      "eleştiriler</w>": 4413,
      "eleştirmen": 4414,
      "eleştirmen</w>": 4415,
      "eleştirmeni</w>": 4416,
      "eleştirmenleri</w>": 4417,
      "eli": 4418,
      "eli,</w>": 4419,
      "eli</w>": 4420,
      "elidir.</w>": 4421,
      "elik": 4422,
      "elik</w>": 4423,
      "elikle</w>": 4424,
      "elikleri</w>": 4425,
      "elin</w>": 4426,
      "elinde</w>": 4427,
      "elinden</w>": 4428,
      "eline</w>": 4429,
      "elip": 4430,
      "elis": 4431,
      "eliz": 4432,
      "elizabeth</w>": 4433,
      "eliğ": 4434,
      "eliği</w>": 4435,
      "eliğine</w>": 4436,
      "ell": 4437,
      "ell,</w>": 4438,
      "ell</w>": 4439,
      "ella</w>": 4440,
      "elle</w>": 4441,
      "eller</w>": 4442,
      "elli,</w>": 4443,
      "elli</w>": 4444,
      "ellik": 4445,
      "ellikle</w>": 4446,
      "ello</w>": 4447,
      "elt": 4448,
      "elver": 4449,
      "elverişli</w>": 4450,
      "elç": 4451,
      "em": 4452,
      "em,</w>": 4453,
      "em</w>": 4454,
      "emat": 4455,
      "eme</w>": 4456,
      "emedi.</w>": 4457,
      "emek": 4458,
      "emek</w>": 4459,
      "emekli</w>": 4460,
      "emektedir.</w>": 4461,
      "emesi</w>": 4462,
      "emey": 4463,
      "emeyen</w>": 4464,
      "emez.</w>": 4465,
      "emi</w>": 4466,
      "emil": 4467,
      "emin": 4468,
      "emin</w>": 4469,
      "emir": 4470,
      "emir</w>": 4471,
      "emiş</w>": 4472,
      "emiştir.</w>": 4473,
      "emn": 4474,
      "emniyet</w>": 4475,
      "emper": 4476,
      "emr": 4477,
      "emre</w>": 4478,
      "emri</w>": 4479,
      "emriyle</w>": 4480,
      "en": 4481,
      "en'in</w>": 4482,
      "en)</w>": 4483,
      "en,</w>": 4484,
      "en-": 4485,
      "en</w>": 4486,
      "ena</w>": 4487,
      "enc": 4488,
      "ence</w>": 4489,
      "enci</w>": 4490,
      "encycl": 4491,
      "encümen": 4492,
      "end": 4493,
      "end</w>": 4494,
      "endeks": 4495,
      "endir": 4496,
      "endiş": 4497,
      "endon": 4498,
      "endonez": 4499,
      "endonezya</w>": 4500,
      "endü": 4501,
      "endüst": 4502,
      "endüstr": 4503,
      "endüstri</w>": 4504,
      "endüstrisi</w>": 4505,
      "endüstriyel</w>": 4506,
      "ene</w>": 4507,
      "ener": 4508,
      "enerj": 4509,
      "enerji</w>": 4510,
      "enerjinin</w>": 4511,
      "enerjisi</w>": 4512,
      "enf": 4513,
      "enfeksiyon": 4514,
      "enfl": 4515,
      "enflasyon</w>": 4516,
      "eng": 4517,
      "engel": 4518,
      "engel</w>": 4519,
      "engellem": 4520,
      "engi</w>": 4521,
      "englis": 4522,
      "eni</w>": 4523,
      "enin</w>": 4524,
      "enk": 4525,
      "enlem": 4526,
      "enler</w>": 4527,
      "enlere</w>": 4528,
      "enleri</w>": 4529,
      "enlerin</w>": 4530,
      "enli</w>": 4531,
      "enne</w>": 4532,
      "enos</w>": 4533,
      "ens": 4534,
      "ens,</w>": 4535,
      "ens</w>": 4536,
      "ensis</w>": 4537,
      "enstit": 4538,
      "enstitüs": 4539,
      "enstitüsü</w>": 4540,
      "enstr": 4541,
      "enstrüm": 4542,
      "ent": 4543,
      "ent,</w>": 4544,
      "ent</w>": 4545,
      "entegr": 4546,
      "entegre</w>": 4547,
      "entel": 4548,
      "entelektü": 4549,
      "entelektüel</w>": 4550,
      "enter": 4551,
      "enter</w>": 4552,
      "enti": 4553,
      "entr": 4554,
      "enver</w>": 4555,
      "enz": 4556,
      "enzo</w>": 4557,
      "eon</w>": 4558,
      "ep": 4559,
      "ep</w>": 4560,
      "epe</w>": 4561,
      "eppe</w>": 4562,
      "er": 4563,
      "er'in</w>": 4564,
      "er)</w>": 4565,
      "er,</w>": 4566,
      "er-": 4567,
      "er.</w>": 4568,
      "er</w>": 4569,
      "era</w>": 4570,
      "eral": 4571,
      "eral</w>": 4572,
      "erc": 4573,
      "erdal</w>": 4574,
      "erdem": 4575,
      "erdi.</w>": 4576,
      "erdir": 4577,
      "erdoğ": 4578,
      "erdoğan</w>": 4579,
      "ere</w>": 4580,
      "erek,</w>": 4581,
      "erek</w>": 4582,
      "eren</w>": 4583,
      "ergen": 4584,
      "eri</w>": 4585,
      "eric</w>": 4586,
      "erics": 4587,
      "ericsson</w>": 4588,
      "erik</w>": 4589,
      "erim": 4590,
      "erin</w>": 4591,
      "erit": 4592,
      "eriv": 4593,
      "eriş": 4594,
      "erişim</w>": 4595,
      "erk": 4596,
      "erkek": 4597,
      "erkek</w>": 4598,
      "erkekler</w>": 4599,
      "erkeklerde</w>": 4600,
      "erkeklerin</w>": 4601,
      "erken</w>": 4602,
      "erler.</w>": 4603,
      "erler</w>": 4604,
      "ermen": 4605,
      "ermeni</w>": 4606,
      "ermenistan</w>": 4607,
      "ern": 4608,
      "ernes": 4609,
      "ernest</w>": 4610,
      "ernst</w>": 4611,
      "erol</w>": 4612,
      "ers": 4613,
      "ers</w>": 4614,
      "ert": 4615,
      "ertel": 4616,
      "ertesi</w>": 4617,
      "ertuğr": 4618,
      "ertuğrul</w>": 4619,
      "erv": 4620,
      "erz": 4621,
      "erzinc": 4622,
      "erzincan</w>": 4623,
      "erzur": 4624,
      "erzurum": 4625,
      "erzurum</w>": 4626,
      "es": 4627,
      "es'in</w>": 4628,
      "es)</w>": 4629,
      "es,</w>": 4630,
      "es-": 4631,
      "es</w>": 4632,
      "esas": 4633,
      "esas</w>": 4634,
      "esasen</w>": 4635,
      "esco</w>": 4636,
      "ese</w>": 4637,
      "esel</w>": 4638,
      "eser": 4639,
      "eser</w>": 4640,
      "eseri</w>": 4641,
      "eserin</w>": 4642,
      "eserinde</w>": 4643,
      "eserini</w>": 4644,
      "eserler</w>": 4645,
      "eserleri</w>": 4646,
      "eserlerin</w>": 4647,
      "eserlerinde</w>": 4648,
      "eserlerinden</w>": 4649,
      "eserlerini</w>": 4650,
      "eserlerinin</w>": 4651,
      "esi": 4652,
      "esi\"</w>": 4653,
      "esi'nde</w>": 4654,
      "esi'nden</w>": 4655,
      "esi'ne</w>": 4656,
      "esi'ni</w>": 4657,
      "esi'nin</w>": 4658,
      "esi)</w>": 4659,
      "esi,</w>": 4660,
      "esi.</w>": 4661,
      "esi:</w>": 4662,
      "esi;</w>": 4663,
      "esi</w>": 4664,
      "esidir.</w>": 4665,
      "esin": 4666,
      "esinde,</w>": 4667,
      "esinde</w>": 4668,
      "esindedir.</w>": 4669,
      "esindeki</w>": 4670,
      "esinden</w>": 4671,
      "esine</w>": 4672,
      "esini</w>": 4673,
      "esinin</w>": 4674,
      "esir": 4675,
      "esir</w>": 4676,
      "esiyle</w>": 4677,
      "esi’n": 4678,
      "esi’nde</w>": 4679,
      "esi’nin</w>": 4680,
      "esk": 4681,
      "esk</w>": 4682,
      "eski</w>": 4683,
      "eskiden</w>": 4684,
      "eskiş": 4685,
      "eskişehir</w>": 4686,
      "eskr": 4687,
      "esn": 4688,
      "esnasında</w>": 4689,
      "esnek": 4690,
      "esper": 4691,
      "esperanto</w>": 4692,
      "ess</w>": 4693,
      "est": 4694,
      "est</w>": 4695,
      "este</w>": 4696,
      "ester": 4697,
      "ester</w>": 4698,
      "estetik</w>": 4699,
      "eston": 4700,
      "estonya</w>": 4701,
      "et": 4702,
      "et,</w>": 4703,
      "et</w>": 4704,
      "ete</w>": 4705,
      "etek": 4706,
      "eter": 4707,
      "eth": 4708,
      "ether": 4709,
      "ethernet</w>": 4710,
      "eti,</w>": 4711,
      "eti</w>": 4712,
      "etik": 4713,
      "etik</w>": 4714,
      "etim": 4715,
      "etim</w>": 4716,
      "etimoloji</w>": 4717,
      "etin</w>": 4718,
      "etiy": 4719,
      "etiyle</w>": 4720,
      "etiyop": 4721,
      "etk": 4722,
      "etken": 4723,
      "etki</w>": 4724,
      "etkil": 4725,
      "etkilem": 4726,
      "etkilemiştir.</w>": 4727,
      "etkilen": 4728,
      "etkilenen</w>": 4729,
      "etkiler</w>": 4730,
      "etkileri</w>": 4731,
      "etkilerini</w>": 4732,
      "etkiley": 4733,
      "etkileyen</w>": 4734,
      "etkileş": 4735,
      "etkileşim</w>": 4736,
      "etkili</w>": 4737,
      "etkin": 4738,
      "etkin</w>": 4739,
      "etkinlik": 4740,
      "etkis": 4741,
      "etkisi</w>": 4742,
      "etkisini</w>": 4743,
      "etkisiyle</w>": 4744,
      "etler</w>": 4745,
      "etleri</w>": 4746,
      "etli</w>": 4747,
      "etm": 4748,
      "etme</w>": 4749,
      "etmek": 4750,
      "etmek,</w>": 4751,
      "etmek</w>": 4752,
      "etmekt": 4753,
      "etmekte</w>": 4754,
      "etmektedir.</w>": 4755,
      "etmem": 4756,
      "etmesi</w>": 4757,
      "etmesine</w>": 4758,
      "etmesini</w>": 4759,
      "etmesiyle</w>": 4760,
      "etmey": 4761,
      "etmeye</w>": 4762,
      "etmeyi</w>": 4763,
      "etmez": 4764,
      "etmiş": 4765,
      "etmiş,</w>": 4766,
      "etmiş</w>": 4767,
      "etmişlerdir.</w>": 4768,
      "etmişti.</w>": 4769,
      "etmiştir.</w>": 4770,
      "etn": 4771,
      "etnik</w>": 4772,
      "etraf": 4773,
      "etrafında</w>": 4774,
      "etrafındaki</w>": 4775,
      "ett": 4776,
      "ett,</w>": 4777,
      "ette</w>": 4778,
      "etti,</w>": 4779,
      "etti.</w>": 4780,
      "etti</w>": 4781,
      "ettikleri</w>": 4782,
      "ettikten</w>": 4783,
      "ettiler.</w>": 4784,
      "ettin</w>": 4785,
      "ettir": 4786,
      "ettir.</w>": 4787,
      "ettiğ": 4788,
      "ettiği</w>": 4789,
      "ettiğini</w>": 4790,
      "etz": 4791,
      "eu": 4792,
      "eug": 4793,
      "eur": 4794,
      "europ": 4795,
      "eurov": 4796,
      "eus</w>": 4797,
      "ev": 4798,
      "ev,</w>": 4799,
      "ev</w>": 4800,
      "eva</w>": 4801,
      "evde</w>": 4802,
      "eve</w>": 4803,
      "ever": 4804,
      "evi,</w>": 4805,
      "evi</w>": 4806,
      "evin</w>": 4807,
      "evinde</w>": 4808,
      "evine</w>": 4809,
      "eviz": 4810,
      "evlen": 4811,
      "evlendi.</w>": 4812,
      "evler</w>": 4813,
      "evleri</w>": 4814,
      "evlilik": 4815,
      "evlilik</w>": 4816,
      "evliy": 4817,
      "evliya</w>": 4818,
      "evr": 4819,
      "evren": 4820,
      "evren,</w>": 4821,
      "evren</w>": 4822,
      "evrenin</w>": 4823,
      "evrensel</w>": 4824,
      "evrim": 4825,
      "evrim</w>": 4826,
      "evrimsel</w>": 4827,
      "ew": 4828,
      "ex": 4829,
      "expl": 4830,
      "ey": 4831,
      "ey,</w>": 4832,
      "ey</w>": 4833,
      "eyal": 4834,
      "eyalet": 4835,
      "eyalet</w>": 4836,
      "eyaleti</w>": 4837,
      "eyaletin</w>": 4838,
      "eyaletinde</w>": 4839,
      "eydi.</w>": 4840,
      "eye</w>": 4841,
      "eyen</w>": 4842,
      "eyi</w>": 4843,
      "eyl": 4844,
      "eyle</w>": 4845,
      "eylem": 4846,
      "eylem</w>": 4847,
      "eylül": 4848,
      "eylül'de</w>": 4849,
      "eylül</w>": 4850,
      "eyn": 4851,
      "ez": 4852,
      "ez,</w>": 4853,
      "ez.</w>": 4854,
      "ez</w>": 4855,
      "ezi</w>": 4856,
      "ezil": 4857,
      "ezoter": 4858,
      "eç": 4859,
      "eğ": 4860,
      "eğe</w>": 4861,
      "eğer</w>": 4862,
      "eği,</w>": 4863,
      "eği</w>": 4864,
      "eğil": 4865,
      "eğilim": 4866,
      "eğin</w>": 4867,
      "eğinde</w>": 4868,
      "eğine</w>": 4869,
      "eğini</w>": 4870,
      "eğinin</w>": 4871,
      "eğit": 4872,
      "eğitim": 4873,
      "eğitim,</w>": 4874,
      "eğitim</w>": 4875,
      "eğitimci</w>": 4876,
      "eğitimi</w>": 4877,
      "eğitimini</w>": 4878,
      "eğiyle</w>": 4879,
      "eğlen": 4880,
      "eğlence</w>": 4881,
      "eş": 4882,
      "eş</w>": 4883,
      "eşcinsel": 4884,
      "eşcinsel</w>": 4885,
      "eşi</w>": 4886,
      "eşit": 4887,
      "eşit</w>": 4888,
      "eşittir.</w>": 4889,
      "eşlik</w>": 4890,
      "eştir": 4891,
      "eşy": 4892,
      "e”</w>": 4893,
      "f": 4894,
      "f)</w>": 4895,
      "f,</w>": 4896,
      "f-": 4897,
      "f.</w>": 4898,
      "f</w>": 4899,
      "fa": 4900,
      "fa</w>": 4901,
      "faal": 4902,
      "faaliyet": 4903,
      "faaliyet</w>": 4904,
      "faaliyete</w>": 4905,
      "faaliyetler</w>": 4906,
      "faaliyetleri</w>": 4907,
      "faaliyetlerine</w>": 4908,
      "faaliyetlerini</w>": 4909,
      "fab": 4910,
      "fabrik": 4911,
      "fabrika</w>": 4912,
      "fabrikası</w>": 4913,
      "fac": 4914,
      "fah": 4915,
      "fahri</w>": 4916,
      "faik</w>": 4917,
      "fak": 4918,
      "fakat</w>": 4919,
      "fakir</w>": 4920,
      "faktör": 4921,
      "fakül": 4922,
      "fakült": 4923,
      "fakültes": 4924,
      "fakültesi</w>": 4925,
      "fakültesinde</w>": 4926,
      "fal": 4927,
      "fam": 4928,
      "famil": 4929,
      "familyas": 4930,
      "fan": 4931,
      "fan</w>": 4932,
      "fant": 4933,
      "far": 4934,
      "farab": 4935,
      "fark": 4936,
      "fark</w>": 4937,
      "farkl": 4938,
      "farklı</w>": 4939,
      "farklıdır.</w>": 4940,
      "farklılaş": 4941,
      "farklılık": 4942,
      "farklılık</w>": 4943,
      "farklılıklar</w>": 4944,
      "farkı</w>": 4945,
      "fars": 4946,
      "farsç": 4947,
      "farsça</w>": 4948,
      "faruk</w>": 4949,
      "fas": 4950,
      "fas</w>": 4951,
      "fat": 4952,
      "fat</w>": 4953,
      "fatih": 4954,
      "fatih</w>": 4955,
      "fatma</w>": 4956,
      "fay": 4957,
      "fayd": 4958,
      "faz": 4959,
      "fazl": 4960,
      "fazla</w>": 4961,
      "fazladır.</w>": 4962,
      "fazlası</w>": 4963,
      "fazlasını</w>": 4964,
      "fazıl</w>": 4965,
      "faş": 4966,
      "faşist</w>": 4967,
      "fc</w>": 4968,
      "fe": 4969,
      "feder": 4970,
      "federal</w>": 4971,
      "federasyon": 4972,
      "federasyon</w>": 4973,
      "federasyonu</w>": 4974,
      "feh": 4975,
      "fel": 4976,
      "felak": 4977,
      "feld": 4978,
      "felsef": 4979,
      "felsefe</w>": 4980,
      "felsefec": 4981,
      "felsefesi</w>": 4982,
      "felsefi</w>": 4983,
      "femin": 4984,
      "feminist</w>": 4985,
      "fen": 4986,
      "fen</w>": 4987,
      "fener": 4988,
      "fenerbahç": 4989,
      "fenerbahçe</w>": 4990,
      "fenom": 4991,
      "fer": 4992,
      "fer</w>": 4993,
      "ferdin": 4994,
      "ferdinand</w>": 4995,
      "feri</w>": 4996,
      "fermi</w>": 4997,
      "fermiy": 4998,
      "fern": 4999,
      "fernando</w>": 5000,
      "ferrar": 5001,
      "ferrari</w>": 5002,
      "fes": 5003,
      "fesh": 5004,
      "festiv": 5005,
      "festival": 5006,
      "festivali</w>": 5007,
      "fet": 5008,
      "feth": 5009,
      "fethi</w>": 5010,
      "fetih": 5011,
      "fev": 5012,
      "fey": 5013,
      "feyn": 5014,
      "ff": 5015,
      "ff</w>": 5016,
      "ffff": 5017,
      "fi": 5018,
      "fi</w>": 5019,
      "fib": 5020,
      "fid": 5021,
      "fiel": 5022,
      "fifa</w>": 5023,
      "fig": 5024,
      "figür": 5025,
      "fiilen</w>": 5026,
      "fik": 5027,
      "fik</w>": 5028,
      "fikir": 5029,
      "fikir</w>": 5030,
      "fikr": 5031,
      "fikret</w>": 5032,
      "fikri</w>": 5033,
      "fikrini</w>": 5034,
      "fil": 5035,
      "fildişi</w>": 5036,
      "filip": 5037,
      "filipin": 5038,
      "filipinli</w>": 5039,
      "filist": 5040,
      "filistin": 5041,
      "filistin</w>": 5042,
      "film": 5043,
      "film,</w>": 5044,
      "film</w>": 5045,
      "filmde</w>": 5046,
      "filmi</w>": 5047,
      "filmin</w>": 5048,
      "filminde</w>": 5049,
      "filminin</w>": 5050,
      "filmler</w>": 5051,
      "filmleri</w>": 5052,
      "filozof": 5053,
      "filozof,</w>": 5054,
      "filozof</w>": 5055,
      "filozoflar</w>": 5056,
      "filozofları</w>": 5057,
      "fin": 5058,
      "fin</w>": 5059,
      "final": 5060,
      "final</w>": 5061,
      "finalde</w>": 5062,
      "finans": 5063,
      "finans</w>": 5064,
      "finansal</w>": 5065,
      "finland": 5066,
      "finlandiy": 5067,
      "finlandiya</w>": 5068,
      "fir": 5069,
      "firav": 5070,
      "firef": 5071,
      "fisch": 5072,
      "fit": 5073,
      "fiyat": 5074,
      "fiyat</w>": 5075,
      "fiz": 5076,
      "fizik": 5077,
      "fizik</w>": 5078,
      "fiziksel</w>": 5079,
      "fizikçi</w>": 5080,
      "fizyoloj": 5081,
      "fizyoloji</w>": 5082,
      "fl": 5083,
      "flam": 5084,
      "flor": 5085,
      "floy": 5086,
      "fo": 5087,
      "fol": 5088,
      "fon": 5089,
      "fonk": 5090,
      "fonksiyon": 5091,
      "fonksiyon</w>": 5092,
      "fonksiyonu</w>": 5093,
      "for": 5094,
      "for</w>": 5095,
      "ford": 5096,
      "ford,</w>": 5097,
      "ford</w>": 5098,
      "form": 5099,
      "form</w>": 5100,
      "forma</w>": 5101,
      "formas": 5102,
      "format": 5103,
      "formula</w>": 5104,
      "formül": 5105,
      "fort": 5106,
      "fos": 5107,
      "fosil</w>": 5108,
      "fot": 5109,
      "foto": 5110,
      "fotoğraf": 5111,
      "fotoğraf</w>": 5112,
      "fotoğrafçı</w>": 5113,
      "foucaul": 5114,
      "fr": 5115,
      "fran": 5116,
      "franc": 5117,
      "francis": 5118,
      "francis</w>": 5119,
      "francisco</w>": 5120,
      "frank": 5121,
      "frank</w>": 5122,
      "frankl": 5123,
      "frans": 5124,
      "fransa'da</w>": 5125,
      "fransa'nın</w>": 5126,
      "fransa'ya</w>": 5127,
      "fransa,</w>": 5128,
      "fransa</w>": 5129,
      "fransız": 5130,
      "fransız</w>": 5131,
      "fransızc": 5132,
      "fransızca</w>": 5133,
      "fransızlar</w>": 5134,
      "franz</w>": 5135,
      "franço": 5136,
      "françois</w>": 5137,
      "fre": 5138,
      "fred": 5139,
      "fred</w>": 5140,
      "freder": 5141,
      "frederick</w>": 5142,
      "frek": 5143,
      "frekans": 5144,
      "frekans</w>": 5145,
      "fren": 5146,
      "frey</w>": 5147,
      "fri": 5148,
      "fried": 5149,
      "fried</w>": 5150,
      "friedrich</w>": 5151,
      "frig": 5152,
      "from</w>": 5153,
      "fu": 5154,
      "fuat</w>": 5155,
      "ful": 5156,
      "fun": 5157,
      "fur": 5158,
      "fut": 5159,
      "futbol": 5160,
      "futbol</w>": 5161,
      "futbolcu": 5162,
      "futbolcu</w>": 5163,
      "futbolcudur</w>": 5164,
      "futbolcular</w>": 5165,
      "futbolcuları</w>": 5166,
      "futbolu</w>": 5167,
      "fü": 5168,
      "fün": 5169,
      "füz": 5170,
      "fık": 5171,
      "fınd": 5172,
      "fır": 5173,
      "fırat</w>": 5174,
      "fırlat": 5175,
      "fırlatıldı.</w>": 5176,
      "fırsat": 5177,
      "fırsat</w>": 5178,
      "fırt": 5179,
      "fırtın": 5180,
      "fırtına</w>": 5181,
      "g": 5182,
      "g,</w>": 5183,
      "g-": 5184,
      "g.</w>": 5185,
      "g</w>": 5186,
      "ga": 5187,
      "ga,</w>": 5188,
      "ga</w>": 5189,
      "gab": 5190,
      "gabri": 5191,
      "gag": 5192,
      "gah": 5193,
      "gal": 5194,
      "gal</w>": 5195,
      "galar</w>": 5196,
      "galat": 5197,
      "galata</w>": 5198,
      "galatasar": 5199,
      "galatasaray</w>": 5200,
      "galer": 5201,
      "galeri</w>": 5202,
      "galib": 5203,
      "galile": 5204,
      "galileo</w>": 5205,
      "galip</w>": 5206,
      "galli</w>": 5207,
      "gam": 5208,
      "gan": 5209,
      "gan</w>": 5210,
      "gand": 5211,
      "gandi</w>": 5212,
      "gang</w>": 5213,
      "gar": 5214,
      "gar</w>": 5215,
      "gard": 5216,
      "gas": 5217,
      "gat": 5218,
      "gates,</w>": 5219,
      "gates</w>": 5220,
      "gau": 5221,
      "gay": 5222,
      "gay</w>": 5223,
      "gayr": 5224,
      "gayri</w>": 5225,
      "gayrim": 5226,
      "gaz": 5227,
      "gaz</w>": 5228,
      "gazet": 5229,
      "gazete</w>": 5230,
      "gazetec": 5231,
      "gazeteci,</w>": 5232,
      "gazeteci</w>": 5233,
      "gazeteciler</w>": 5234,
      "gazetecilik</w>": 5235,
      "gazetenin</w>": 5236,
      "gazetesi,</w>": 5237,
      "gazetesi</w>": 5238,
      "gazetesinde</w>": 5239,
      "gazetesinin</w>": 5240,
      "gazi": 5241,
      "gazi</w>": 5242,
      "gaziant": 5243,
      "gb": 5244,
      "ge": 5245,
      "ge,</w>": 5246,
      "ge</w>": 5247,
      "geb": 5248,
      "gec": 5249,
      "gece</w>": 5250,
      "gecesi</w>": 5251,
      "gecik": 5252,
      "ged": 5253,
      "gel": 5254,
      "gel,</w>": 5255,
      "gel</w>": 5256,
      "geldi.</w>": 5257,
      "geldi</w>": 5258,
      "geldiği</w>": 5259,
      "geldiğinde</w>": 5260,
      "geldiğini</w>": 5261,
      "gelec": 5262,
      "gelecek</w>": 5263,
      "gelecekte</w>": 5264,
      "gelen": 5265,
      "gelen</w>": 5266,
      "gelenek": 5267,
      "gelenek</w>": 5268,
      "geleneksel</w>": 5269,
      "geleneği</w>": 5270,
      "geler": 5271,
      "geler</w>": 5272,
      "gelerek</w>": 5273,
      "geleri</w>": 5274,
      "gelgit</w>": 5275,
      "gelib": 5276,
      "gelin": 5277,
      "gelindiğinde</w>": 5278,
      "gelip</w>": 5279,
      "gelir": 5280,
      "gelir.</w>": 5281,
      "gelir</w>": 5282,
      "geliş": 5283,
      "gelişen</w>": 5284,
      "gelişim</w>": 5285,
      "gelişimi</w>": 5286,
      "gelişm": 5287,
      "gelişme</w>": 5288,
      "gelişmekte</w>": 5289,
      "gelişmeler</w>": 5290,
      "gelişmesi</w>": 5291,
      "gelişmiş</w>": 5292,
      "gelişmiştir.</w>": 5293,
      "geliştir": 5294,
      "geliştirdi.</w>": 5295,
      "geliştirdiği</w>": 5296,
      "geliştirilen</w>": 5297,
      "geliştirilm": 5298,
      "geliştirilmesi</w>": 5299,
      "geliştirilmiş</w>": 5300,
      "geliştirilmiştir.</w>": 5301,
      "geliştirme</w>": 5302,
      "geliştirmek</w>": 5303,
      "geliştirmiştir.</w>": 5304,
      "gelmektedir.</w>": 5305,
      "gelmesi</w>": 5306,
      "gelmiş</w>": 5307,
      "gelmiştir.</w>": 5308,
      "gem": 5309,
      "gemi</w>": 5310,
      "gemileri</w>": 5311,
      "gemisi</w>": 5312,
      "gen": 5313,
      "gen,</w>": 5314,
      "gen</w>": 5315,
      "gene</w>": 5316,
      "genel": 5317,
      "genel</w>": 5318,
      "genelde</w>": 5319,
      "genelinde</w>": 5320,
      "genelkurmay</w>": 5321,
      "genellikle</w>": 5322,
      "gener": 5323,
      "general": 5324,
      "general</w>": 5325,
      "generali</w>": 5326,
      "genet": 5327,
      "genetik</w>": 5328,
      "genin</w>": 5329,
      "geniş": 5330,
      "geniş</w>": 5331,
      "genişlem": 5332,
      "genişlet": 5333,
      "genç": 5334,
      "genç</w>": 5335,
      "gençlik</w>": 5336,
      "geomet": 5337,
      "geometr": 5338,
      "geometri</w>": 5339,
      "geometrik</w>": 5340,
      "georg": 5341,
      "georg</w>": 5342,
      "george</w>": 5343,
      "georges</w>": 5344,
      "ger": 5345,
      "ger,</w>": 5346,
      "ger</w>": 5347,
      "gerek": 5348,
      "gerek</w>": 5349,
      "gereken</w>": 5350,
      "gerekir.</w>": 5351,
      "gerekli</w>": 5352,
      "gereklidir.</w>": 5353,
      "gerekmektedir.</w>": 5354,
      "gerekse</w>": 5355,
      "gereksin": 5356,
      "gerektir": 5357,
      "gerektiren</w>": 5358,
      "gerektiğ": 5359,
      "gerektiği</w>": 5360,
      "gerektiğini</w>": 5361,
      "gerekç": 5362,
      "gerekçesiyle</w>": 5363,
      "gereğ": 5364,
      "gereği</w>": 5365,
      "gergin": 5366,
      "geri</w>": 5367,
      "geride</w>": 5368,
      "geril": 5369,
      "gerilim</w>": 5370,
      "gerilla</w>": 5371,
      "geriye</w>": 5372,
      "gerç": 5373,
      "gerçek": 5374,
      "gerçek</w>": 5375,
      "gerçekleş": 5376,
      "gerçekleşen</w>": 5377,
      "gerçekleşir.</w>": 5378,
      "gerçekleşmiştir.</w>": 5379,
      "gerçekleşti.</w>": 5380,
      "gerçekleştir": 5381,
      "gerçekleştirdi.</w>": 5382,
      "gerçekleştirdiği</w>": 5383,
      "gerçekleştirildi.</w>": 5384,
      "gerçekleştirilen</w>": 5385,
      "gerçekten</w>": 5386,
      "gerçekçi</w>": 5387,
      "ges": 5388,
      "gesi</w>": 5389,
      "get": 5390,
      "getir": 5391,
      "getirdi.</w>": 5392,
      "getirdiği</w>": 5393,
      "getiren</w>": 5394,
      "getiril": 5395,
      "getirildi.</w>": 5396,
      "getirilen</w>": 5397,
      "getirilmiştir.</w>": 5398,
      "getirir.</w>": 5399,
      "getirmek</w>": 5400,
      "getirmiştir.</w>": 5401,
      "gev": 5402,
      "gey": 5403,
      "gez": 5404,
      "gezegen": 5405,
      "gezegen</w>": 5406,
      "gezegenin</w>": 5407,
      "gezegenler</w>": 5408,
      "gezegenlerin</w>": 5409,
      "gezi</w>": 5410,
      "geç": 5411,
      "geç</w>": 5412,
      "geçen</w>": 5413,
      "geçer": 5414,
      "geçer.</w>": 5415,
      "geçer</w>": 5416,
      "geçerek</w>": 5417,
      "geçerli</w>": 5418,
      "geçici</w>": 5419,
      "geçim</w>": 5420,
      "geçir": 5421,
      "geçirdi.</w>": 5422,
      "geçirdiği</w>": 5423,
      "geçiren</w>": 5424,
      "geçirildi.</w>": 5425,
      "geçirmek</w>": 5426,
      "geçirmiştir.</w>": 5427,
      "geçiş": 5428,
      "geçiş</w>": 5429,
      "geçişi</w>": 5430,
      "geçmektedir.</w>": 5431,
      "geçmesi</w>": 5432,
      "geçmiş": 5433,
      "geçmiş</w>": 5434,
      "geçmişi</w>": 5435,
      "geçmişt": 5436,
      "geçmişte</w>": 5437,
      "geçmiştir.</w>": 5438,
      "geçti.</w>": 5439,
      "geçti</w>": 5440,
      "geçtiği</w>": 5441,
      "gi": 5442,
      "gi</w>": 5443,
      "gib": 5444,
      "gibi)</w>": 5445,
      "gibi,</w>": 5446,
      "gibi.</w>": 5447,
      "gibi</w>": 5448,
      "gid": 5449,
      "giden</w>": 5450,
      "gider": 5451,
      "giderek</w>": 5452,
      "gil": 5453,
      "gil</w>": 5454,
      "giler</w>": 5455,
      "gileri</w>": 5456,
      "gili</w>": 5457,
      "giller</w>": 5458,
      "gilm": 5459,
      "gin": 5460,
      "gin</w>": 5461,
      "gine</w>": 5462,
      "ginç</w>": 5463,
      "giov": 5464,
      "giovanni</w>": 5465,
      "gir": 5466,
      "girdi.</w>": 5467,
      "girdi</w>": 5468,
      "girdiği</w>": 5469,
      "giren</w>": 5470,
      "girer.</w>": 5471,
      "girerek</w>": 5472,
      "gires": 5473,
      "girit</w>": 5474,
      "giriş": 5475,
      "giriş</w>": 5476,
      "girişim": 5477,
      "girişim</w>": 5478,
      "girişimci</w>": 5479,
      "girişimi</w>": 5480,
      "girişiminde</w>": 5481,
      "girmesi</w>": 5482,
      "girmiş</w>": 5483,
      "girmiştir.</w>": 5484,
      "girt</w>": 5485,
      "git": 5486,
      "git</w>": 5487,
      "gitar": 5488,
      "gitar</w>": 5489,
      "gitarist</w>": 5490,
      "gitaristi</w>": 5491,
      "gitmek</w>": 5492,
      "gitti.</w>": 5493,
      "gitti</w>": 5494,
      "gittikçe</w>": 5495,
      "gittiği</w>": 5496,
      "gius": 5497,
      "giuseppe</w>": 5498,
      "giy": 5499,
      "giz": 5500,
      "gizli</w>": 5501,
      "gl": 5502,
      "glob": 5503,
      "gn": 5504,
      "gnu</w>": 5505,
      "go": 5506,
      "go</w>": 5507,
      "god": 5508,
      "goet": 5509,
      "goeth": 5510,
      "goethe": 5511,
      "gog": 5512,
      "gogh</w>": 5513,
      "gol": 5514,
      "gol</w>": 5515,
      "gold": 5516,
      "golf": 5517,
      "golfçü</w>": 5518,
      "gom": 5519,
      "gon": 5520,
      "goog": 5521,
      "google": 5522,
      "google</w>": 5523,
      "gor": 5524,
      "gord": 5525,
      "gos": 5526,
      "got": 5527,
      "gott": 5528,
      "gps</w>": 5529,
      "gr": 5530,
      "grad": 5531,
      "grad</w>": 5532,
      "graf": 5533,
      "grafi</w>": 5534,
      "grafik</w>": 5535,
      "gram": 5536,
      "grammy</w>": 5537,
      "gran": 5538,
      "grand</w>": 5539,
      "grap": 5540,
      "grav": 5541,
      "gre": 5542,
      "greek</w>": 5543,
      "green": 5544,
      "gregor": 5545,
      "grek": 5546,
      "gri</w>": 5547,
      "gro": 5548,
      "ground": 5549,
      "gru": 5550,
      "grub": 5551,
      "gruba</w>": 5552,
      "grubu,</w>": 5553,
      "grubu</w>": 5554,
      "grubun</w>": 5555,
      "grubuna</w>": 5556,
      "grubunu</w>": 5557,
      "grubunun</w>": 5558,
      "grup": 5559,
      "grup,</w>": 5560,
      "grup</w>": 5561,
      "gruplar</w>": 5562,
      "grupları</w>": 5563,
      "grupların</w>": 5564,
      "grupta</w>": 5565,
      "gruptan</w>": 5566,
      "gsy": 5567,
      "gsyi̇h": 5568,
      "gu": 5569,
      "gu</w>": 5570,
      "guil": 5571,
      "gul": 5572,
      "gun": 5573,
      "gun</w>": 5574,
      "gur": 5575,
      "gurbet": 5576,
      "gus": 5577,
      "gusal</w>": 5578,
      "gust": 5579,
      "gustav</w>": 5580,
      "gut": 5581,
      "gut</w>": 5582,
      "guy": 5583,
      "guén": 5584,
      "gw": 5585,
      "gâ": 5586,
      "gâh": 5587,
      "gö": 5588,
      "gök": 5589,
      "gök</w>": 5590,
      "gökhan</w>": 5591,
      "göks": 5592,
      "göktürk</w>": 5593,
      "gökyüz": 5594,
      "gökç": 5595,
      "göl": 5596,
      "göl</w>": 5597,
      "göller</w>": 5598,
      "gölü</w>": 5599,
      "gömül": 5600,
      "gön": 5601,
      "gönder": 5602,
      "gönderdi.</w>": 5603,
      "gönderdiği</w>": 5604,
      "gönderil": 5605,
      "gönderildi.</w>": 5606,
      "gönderilen</w>": 5607,
      "gönül": 5608,
      "gönüllü</w>": 5609,
      "gör": 5610,
      "gördü.</w>": 5611,
      "gördüğü</w>": 5612,
      "göre,</w>": 5613,
      "göre;</w>": 5614,
      "göre</w>": 5615,
      "görec": 5616,
      "görece</w>": 5617,
      "görel": 5618,
      "görelilik</w>": 5619,
      "gören</w>": 5620,
      "görenler</w>": 5621,
      "görev": 5622,
      "görev</w>": 5623,
      "görevden</w>": 5624,
      "göreve</w>": 5625,
      "görevi</w>": 5626,
      "görevinden</w>": 5627,
      "görevine</w>": 5628,
      "görevini</w>": 5629,
      "görevlendir": 5630,
      "görevleri</w>": 5631,
      "görevli</w>": 5632,
      "görevlisi</w>": 5633,
      "görme</w>": 5634,
      "görmek</w>": 5635,
      "görmüş</w>": 5636,
      "görmüştür.</w>": 5637,
      "görsel</w>": 5638,
      "görül": 5639,
      "görüldü.</w>": 5640,
      "görüldüğü</w>": 5641,
      "görülebilir.</w>": 5642,
      "görülen</w>": 5643,
      "görülmektedir.</w>": 5644,
      "görülmüştür.</w>": 5645,
      "görülür.</w>": 5646,
      "görün": 5647,
      "görünen</w>": 5648,
      "görünt": 5649,
      "görüntü": 5650,
      "görüntü</w>": 5651,
      "görüntül": 5652,
      "görünüm": 5653,
      "görünür</w>": 5654,
      "görünüş": 5655,
      "görür.</w>": 5656,
      "görüş": 5657,
      "görüş</w>": 5658,
      "görüşe</w>": 5659,
      "görüşler</w>": 5660,
      "görüşleri</w>": 5661,
      "görüşlerini</w>": 5662,
      "görüşm": 5663,
      "görüşü</w>": 5664,
      "göster": 5665,
      "gösterdi.</w>": 5666,
      "gösterdiği</w>": 5667,
      "gösteren</w>": 5668,
      "göstererek</w>": 5669,
      "gösteri</w>": 5670,
      "gösteril": 5671,
      "gösterilebilir.</w>": 5672,
      "gösterilen</w>": 5673,
      "gösterilir.</w>": 5674,
      "gösterilmiştir.</w>": 5675,
      "gösterime</w>": 5676,
      "gösterir.</w>": 5677,
      "göstermek</w>": 5678,
      "göstermektedir.</w>": 5679,
      "göstermiştir.</w>": 5680,
      "götür": 5681,
      "götürül": 5682,
      "göv": 5683,
      "göz": 5684,
      "göz</w>": 5685,
      "gözaltına</w>": 5686,
      "gözden</w>": 5687,
      "göze</w>": 5688,
      "gözet": 5689,
      "gözlem": 5690,
      "gözlem</w>": 5691,
      "gözlemlen": 5692,
      "gözlen": 5693,
      "gözük": 5694,
      "göç": 5695,
      "göç</w>": 5696,
      "göçebe</w>": 5697,
      "göçmen": 5698,
      "göçmen</w>": 5699,
      "göçü</w>": 5700,
      "göğ": 5701,
      "gü": 5702,
      "gü</w>": 5703,
      "güc": 5704,
      "gücü</w>": 5705,
      "gücünü</w>": 5706,
      "gücünün</w>": 5707,
      "gül": 5708,
      "gül</w>": 5709,
      "güm": 5710,
      "gümr": 5711,
      "gümrük</w>": 5712,
      "gümüş": 5713,
      "gümüş</w>": 5714,
      "gün": 5715,
      "gün,</w>": 5716,
      "gün</w>": 5717,
      "günah": 5718,
      "güncel": 5719,
      "güncel</w>": 5720,
      "günde</w>": 5721,
      "gündem": 5722,
      "gündeme</w>": 5723,
      "gündüz": 5724,
      "gündüz</w>": 5725,
      "güne</w>": 5726,
      "güney": 5727,
      "güney</w>": 5728,
      "güneybatı</w>": 5729,
      "güneyde</w>": 5730,
      "güneydoğu</w>": 5731,
      "güneye</w>": 5732,
      "güneyinde</w>": 5733,
      "güneş": 5734,
      "güneş'in</w>": 5735,
      "güneş,</w>": 5736,
      "güneş</w>": 5737,
      "günler</w>": 5738,
      "günlerde</w>": 5739,
      "günleri</w>": 5740,
      "günlerinde</w>": 5741,
      "günlük</w>": 5742,
      "günü,</w>": 5743,
      "günü</w>": 5744,
      "günümüz": 5745,
      "günümüz</w>": 5746,
      "günümüzde</w>": 5747,
      "günümüzdeki</w>": 5748,
      "günümüze</w>": 5749,
      "günün</w>": 5750,
      "gür": 5751,
      "gürc": 5752,
      "gürcistan</w>": 5753,
      "gürcü</w>": 5754,
      "güreş": 5755,
      "güreş</w>": 5756,
      "güreşçi</w>": 5757,
      "gürül": 5758,
      "güv": 5759,
      "güven": 5760,
      "güven</w>": 5761,
      "güvenilir</w>": 5762,
      "güvenli</w>": 5763,
      "güvenlik</w>": 5764,
      "güvenliği</w>": 5765,
      "güz": 5766,
      "güzel": 5767,
      "güzel</w>": 5768,
      "güç": 5769,
      "güç</w>": 5770,
      "güçlendir": 5771,
      "güçler</w>": 5772,
      "güçleri</w>": 5773,
      "güçlerinin</w>": 5774,
      "güçlü</w>": 5775,
      "gıda</w>": 5776,
      "gır": 5777,
      "gō</w>": 5778,
      "h": 5779,
      "h'un</w>": 5780,
      "h,</w>": 5781,
      "h.</w>": 5782,
      "h</w>": 5783,
      "ha": 5784,
      "ha</w>": 5785,
      "hab": 5786,
      "haber": 5787,
      "haber</w>": 5788,
      "haberi</w>": 5789,
      "hac": 5790,
      "hacett": 5791,
      "hacı</w>": 5792,
      "had": 5793,
      "hadis": 5794,
      "hadis</w>": 5795,
      "haf": 5796,
      "hafif": 5797,
      "hafif</w>": 5798,
      "haft": 5799,
      "hafta</w>": 5800,
      "haftalık</w>": 5801,
      "hafız": 5802,
      "hafıza</w>": 5803,
      "hag": 5804,
      "hak": 5805,
      "hak</w>": 5806,
      "hakan</w>": 5807,
      "hakikat": 5808,
      "hakim": 5809,
      "hakim</w>": 5810,
      "hakimiyet": 5811,
      "hakimiyet</w>": 5812,
      "hakimiyeti</w>": 5813,
      "hakimiyetine</w>": 5814,
      "hakk": 5815,
      "hakkı</w>": 5816,
      "hakkına</w>": 5817,
      "hakkında</w>": 5818,
      "hakkındaki</w>": 5819,
      "hakkını</w>": 5820,
      "haklar</w>": 5821,
      "hakları</w>": 5822,
      "haklarını</w>": 5823,
      "hal": 5824,
      "hal</w>": 5825,
      "hala</w>": 5826,
      "halde</w>": 5827,
      "haldun": 5828,
      "haldun</w>": 5829,
      "hale</w>": 5830,
      "halen</w>": 5831,
      "hali</w>": 5832,
      "halif": 5833,
      "halife</w>": 5834,
      "halil</w>": 5835,
      "halinde</w>": 5836,
      "haline</w>": 5837,
      "halini</w>": 5838,
      "halit</w>": 5839,
      "halk": 5840,
      "halk</w>": 5841,
      "halka</w>": 5842,
      "halkı</w>": 5843,
      "halkın</w>": 5844,
      "halkının</w>": 5845,
      "hall</w>": 5846,
      "ham": 5847,
      "ham,</w>": 5848,
      "ham</w>": 5849,
      "hamil": 5850,
      "han": 5851,
      "han'ın</w>": 5852,
      "han,</w>": 5853,
      "han</w>": 5854,
      "hand": 5855,
      "hane</w>": 5856,
      "haned": 5857,
      "hanedan": 5858,
      "hanedanı'nın</w>": 5859,
      "hanedanı</w>": 5860,
      "hangi</w>": 5861,
      "hans</w>": 5862,
      "hanım": 5863,
      "hanım</w>": 5864,
      "hap": 5865,
      "hapis": 5866,
      "hapis</w>": 5867,
      "haps": 5868,
      "hapse</w>": 5869,
      "har": 5870,
      "har</w>": 5871,
      "harb": 5872,
      "harbiye</w>": 5873,
      "harcam": 5874,
      "hard": 5875,
      "hard</w>": 5876,
      "harek": 5877,
      "hareket": 5878,
      "hareket</w>": 5879,
      "harekete</w>": 5880,
      "hareketi</w>": 5881,
      "hareketin</w>": 5882,
      "hareketinin</w>": 5883,
      "hareketleri</w>": 5884,
      "hareketli</w>": 5885,
      "harekâ": 5886,
      "harekât": 5887,
      "harekâtı</w>": 5888,
      "harez": 5889,
      "harezm": 5890,
      "harf": 5891,
      "harf</w>": 5892,
      "harfi</w>": 5893,
      "harfleri</w>": 5894,
      "haric": 5895,
      "haricinde</w>": 5896,
      "harit": 5897,
      "harita</w>": 5898,
      "hariç</w>": 5899,
      "harp</w>": 5900,
      "harris": 5901,
      "harry</w>": 5902,
      "has": 5903,
      "has</w>": 5904,
      "hasan</w>": 5905,
      "hasar</w>": 5906,
      "hassas</w>": 5907,
      "hast": 5908,
      "hasta</w>": 5909,
      "hastal": 5910,
      "hastalık": 5911,
      "hastalık</w>": 5912,
      "hastalıklar</w>": 5913,
      "hastalıkları</w>": 5914,
      "hastalığı</w>": 5915,
      "hastalığın</w>": 5916,
      "hastan": 5917,
      "hastanesi</w>": 5918,
      "hasıl": 5919,
      "hat": 5920,
      "hat</w>": 5921,
      "hata</w>": 5922,
      "hatay</w>": 5923,
      "hatları</w>": 5924,
      "hatt": 5925,
      "hatta</w>": 5926,
      "hattı</w>": 5927,
      "hatun</w>": 5928,
      "hatır": 5929,
      "haus": 5930,
      "hav": 5931,
      "hava": 5932,
      "hava</w>": 5933,
      "havaalanı</w>": 5934,
      "havacılık</w>": 5935,
      "havada</w>": 5936,
      "havalim": 5937,
      "havaliman": 5938,
      "havalimanı</w>": 5939,
      "havay": 5940,
      "havayolu</w>": 5941,
      "havuz": 5942,
      "havz": 5943,
      "haw": 5944,
      "hay": 5945,
      "hayal": 5946,
      "hayal</w>": 5947,
      "hayat": 5948,
      "hayat</w>": 5949,
      "hayata</w>": 5950,
      "hayatta</w>": 5951,
      "hayatı</w>": 5952,
      "hayatın</w>": 5953,
      "hayatına</w>": 5954,
      "hayatını</w>": 5955,
      "hayatının</w>": 5956,
      "haydar": 5957,
      "hayr": 5958,
      "hayv": 5959,
      "hayvan": 5960,
      "hayvan</w>": 5961,
      "hayvanc": 5962,
      "hayvancılık</w>": 5963,
      "hayvanlar</w>": 5964,
      "hayvanların</w>": 5965,
      "hayır": 5966,
      "hayırsev": 5967,
      "hayırsever</w>": 5968,
      "haz": 5969,
      "hazar</w>": 5970,
      "hazin": 5971,
      "hazir": 5972,
      "haziran</w>": 5973,
      "hazır": 5974,
      "hazır</w>": 5975,
      "hazırladığı</w>": 5976,
      "hazırlan": 5977,
      "hazırlanan</w>": 5978,
      "hazırlık</w>": 5979,
      "haç": 5980,
      "haçlı</w>": 5981,
      "haş": 5982,
      "he": 5983,
      "he</w>": 5984,
      "heav": 5985,
      "heb": 5986,
      "hec": 5987,
      "hed": 5988,
      "hede": 5989,
      "hedef": 5990,
      "hedef</w>": 5991,
      "hein": 5992,
      "heinrich</w>": 5993,
      "hek": 5994,
      "hekim": 5995,
      "hekim</w>": 5996,
      "hektar": 5997,
      "hel": 5998,
      "helen": 5999,
      "helenistik</w>": 6000,
      "helsin": 6001,
      "hem": 6002,
      "hem</w>": 6003,
      "hemen</w>": 6004,
      "hen": 6005,
      "hen</w>": 6006,
      "henri</w>": 6007,
      "henry</w>": 6008,
      "hent": 6009,
      "hentbol</w>": 6010,
      "henüz</w>": 6011,
      "hep": 6012,
      "hep</w>": 6013,
      "heps": 6014,
      "hepsi</w>": 6015,
      "her": 6016,
      "her</w>": 6017,
      "herak": 6018,
      "herbert</w>": 6019,
      "herhangi</w>": 6020,
      "herine</w>": 6021,
      "herk": 6022,
      "herkes": 6023,
      "herkes</w>": 6024,
      "herkesin</w>": 6025,
      "hermann</w>": 6026,
      "hes": 6027,
      "hesab": 6028,
      "hesap": 6029,
      "hesap</w>": 6030,
      "hesaplam": 6031,
      "hesaplama</w>": 6032,
      "hesaplan": 6033,
      "heter": 6034,
      "heteros": 6035,
      "hey": 6036,
      "heyel": 6037,
      "heyet": 6038,
      "heyk": 6039,
      "heykel": 6040,
      "heykel</w>": 6041,
      "heykeltır": 6042,
      "heykeltıraş</w>": 6043,
      "hez": 6044,
      "hi": 6045,
      "hi,</w>": 6046,
      "hi</w>": 6047,
      "hib": 6048,
      "hic": 6049,
      "hid": 6050,
      "hidr": 6051,
      "hidro": 6052,
      "hidroj": 6053,
      "hidrojen</w>": 6054,
      "hig": 6055,
      "hik": 6056,
      "hikmet": 6057,
      "hikmet</w>": 6058,
      "hikâ": 6059,
      "hikây": 6060,
      "hikâye</w>": 6061,
      "hil": 6062,
      "him": 6063,
      "himay": 6064,
      "himm": 6065,
      "hin": 6066,
      "hind": 6067,
      "hindistan": 6068,
      "hindistan'ın</w>": 6069,
      "hindistan</w>": 6070,
      "hindu": 6071,
      "hindu</w>": 6072,
      "hing": 6073,
      "hint": 6074,
      "hint-": 6075,
      "hint-avrupa</w>": 6076,
      "hint</w>": 6077,
      "hip": 6078,
      "hiper": 6079,
      "hipert": 6080,
      "hipot": 6081,
      "hipotez": 6082,
      "hir": 6083,
      "hiro": 6084,
      "his": 6085,
      "his</w>": 6086,
      "hisar": 6087,
      "hisar</w>": 6088,
      "hiss": 6089,
      "hist": 6090,
      "histor": 6091,
      "history</w>": 6092,
      "hit": 6093,
      "hitap</w>": 6094,
      "hitit": 6095,
      "hitit</w>": 6096,
      "hitler'in</w>": 6097,
      "hitler,</w>": 6098,
      "hitler</w>": 6099,
      "hiv": 6100,
      "hiv</w>": 6101,
      "hiyer": 6102,
      "hiyerarş": 6103,
      "hiz": 6104,
      "hizmet": 6105,
      "hizmet</w>": 6106,
      "hizmete</w>": 6107,
      "hizmeti</w>": 6108,
      "hizmetler</w>": 6109,
      "hizmetleri</w>": 6110,
      "hiç": 6111,
      "hiç</w>": 6112,
      "hiçbir</w>": 6113,
      "ho": 6114,
      "ho</w>": 6115,
      "hoc": 6116,
      "hod": 6117,
      "hof": 6118,
      "hok": 6119,
      "hokeyi</w>": 6120,
      "hol": 6121,
      "holland": 6122,
      "hollanda</w>": 6123,
      "hollandalı</w>": 6124,
      "holly": 6125,
      "holm": 6126,
      "hom": 6127,
      "hon": 6128,
      "hong</w>": 6129,
      "hop": 6130,
      "hop</w>": 6131,
      "hor": 6132,
      "horas": 6133,
      "hormon": 6134,
      "hos": 6135,
      "hous": 6136,
      "how": 6137,
      "hoş": 6138,
      "hoş</w>": 6139,
      "hr": 6140,
      "hristiy": 6141,
      "hristiyan": 6142,
      "hristiyan</w>": 6143,
      "hristiyanlık</w>": 6144,
      "hristiyanlığın</w>": 6145,
      "ht": 6146,
      "ht</w>": 6147,
      "htm": 6148,
      "http": 6149,
      "http://": 6150,
      "http://www.": 6151,
      "https": 6152,
      "https://": 6153,
      "hu": 6154,
      "hub": 6155,
      "hug": 6156,
      "hugo</w>": 6157,
      "huk": 6158,
      "hukuk": 6159,
      "hukuk</w>": 6160,
      "hukuku</w>": 6161,
      "hukukçu</w>": 6162,
      "hul": 6163,
      "hum": 6164,
      "hun": 6165,
      "hun</w>": 6166,
      "hur": 6167,
      "hus": 6168,
      "hut": 6169,
      "huy": 6170,
      "huygen": 6171,
      "huygens</w>": 6172,
      "huz": 6173,
      "huzur": 6174,
      "hy": 6175,
      "hy</w>": 6176,
      "hâ": 6177,
      "hâkim": 6178,
      "hâkim</w>": 6179,
      "hâkimiyet": 6180,
      "hâl": 6181,
      "hâle</w>": 6182,
      "hâlen</w>": 6183,
      "hâlinde</w>": 6184,
      "hâline</w>": 6185,
      "hâlâ</w>": 6186,
      "hö": 6187,
      "hüc": 6188,
      "hücr": 6189,
      "hücre</w>": 6190,
      "hücreli</w>": 6191,
      "hücres": 6192,
      "hük": 6193,
      "hükm": 6194,
      "hükû": 6195,
      "hükûmet": 6196,
      "hükûmet,</w>": 6197,
      "hükûmet</w>": 6198,
      "hükûmete</w>": 6199,
      "hükûmeti,</w>": 6200,
      "hükûmeti</w>": 6201,
      "hükûmetin</w>": 6202,
      "hükûmetinin</w>": 6203,
      "hüküm": 6204,
      "hüküm</w>": 6205,
      "hükümdar": 6206,
      "hükümdarı</w>": 6207,
      "hül": 6208,
      "hüm": 6209,
      "hüman": 6210,
      "hür": 6211,
      "hürr": 6212,
      "hürrem</w>": 6213,
      "hürriyet</w>": 6214,
      "hüs": 6215,
      "hüsey": 6216,
      "hüseyin</w>": 6217,
      "hüsn": 6218,
      "hır": 6219,
      "hırvat": 6220,
      "hırvat</w>": 6221,
      "hırvatistan</w>": 6222,
      "hız": 6223,
      "hız</w>": 6224,
      "hızla</w>": 6225,
      "hızlandır": 6226,
      "hızlı</w>": 6227,
      "hızı</w>": 6228,
      "i": 6229,
      "i\"": 6230,
      "i\",</w>": 6231,
      "i\"</w>": 6232,
      "i'": 6233,
      "i'</w>": 6234,
      "i'de</w>": 6235,
      "i'dir.</w>": 6236,
      "i'n": 6237,
      "i'nde,</w>": 6238,
      "i'nde</w>": 6239,
      "i'ndeki</w>": 6240,
      "i'nden</w>": 6241,
      "i'ne</w>": 6242,
      "i'ni</w>": 6243,
      "i'nin</w>": 6244,
      "i'ye</w>": 6245,
      "i'yi</w>": 6246,
      "i),</w>": 6247,
      "i).</w>": 6248,
      "i)</w>": 6249,
      "i,</w>": 6250,
      "i-": 6251,
      "i.": 6252,
      "i.</w>": 6253,
      "i/": 6254,
      "i:</w>": 6255,
      "i;</w>": 6256,
      "i</w>": 6257,
      "ia": 6258,
      "ia,</w>": 6259,
      "ia</w>": 6260,
      "ial</w>": 6261,
      "ian": 6262,
      "ian,</w>": 6263,
      "ian</w>": 6264,
      "iat": 6265,
      "iat</w>": 6266,
      "ib": 6267,
      "ib</w>": 6268,
      "ibadet</w>": 6269,
      "ibar": 6270,
      "ibe</w>": 6271,
      "ibi</w>": 6272,
      "ibm</w>": 6273,
      "ibn</w>": 6274,
      "ic": 6275,
      "ic,</w>": 6276,
      "ic</w>": 6277,
      "ica</w>": 6278,
      "ical</w>": 6279,
      "icat</w>": 6280,
      "ice,</w>": 6281,
      "ice</w>": 6282,
      "ich": 6283,
      "ich,</w>": 6284,
      "ich</w>": 6285,
      "ici,</w>": 6286,
      "ici</w>": 6287,
      "iciler</w>": 6288,
      "ick": 6289,
      "ick,</w>": 6290,
      "ick</w>": 6291,
      "ico</w>": 6292,
      "icra</w>": 6293,
      "ics": 6294,
      "ics</w>": 6295,
      "id": 6296,
      "id'in</w>": 6297,
      "id,</w>": 6298,
      "id</w>": 6299,
      "idam</w>": 6300,
      "idar": 6301,
      "idare</w>": 6302,
      "idaresi</w>": 6303,
      "idari</w>": 6304,
      "iddi": 6305,
      "iddia</w>": 6306,
      "iddiasıyla</w>": 6307,
      "ide": 6308,
      "ide,</w>": 6309,
      "ide</w>": 6310,
      "ideal": 6311,
      "ideal</w>": 6312,
      "ideki</w>": 6313,
      "iden</w>": 6314,
      "idi": 6315,
      "idi.</w>": 6316,
      "idi</w>": 6317,
      "idin</w>": 6318,
      "idir": 6319,
      "idir,</w>": 6320,
      "idir.</w>": 6321,
      "idir</w>": 6322,
      "ie": 6323,
      "ie,</w>": 6324,
      "ie</w>": 6325,
      "iel": 6326,
      "ier": 6327,
      "ier,</w>": 6328,
      "ier</w>": 6329,
      "ies</w>": 6330,
      "if": 6331,
      "if,</w>": 6332,
      "if</w>": 6333,
      "ifa</w>": 6334,
      "ifad": 6335,
      "ifade</w>": 6336,
      "ifadesi</w>": 6337,
      "ife</w>": 6338,
      "ifor": 6339,
      "iforn": 6340,
      "ig": 6341,
      "ig,</w>": 6342,
      "ig</w>": 6343,
      "igh": 6344,
      "ight": 6345,
      "ight,</w>": 6346,
      "ight</w>": 6347,
      "ign": 6348,
      "ign</w>": 6349,
      "ih": 6350,
      "ih</w>": 6351,
      "iha</w>": 6352,
      "ihl": 6353,
      "ihr": 6354,
      "ihrac": 6355,
      "ihracat": 6356,
      "ihracat</w>": 6357,
      "ihraç</w>": 6358,
      "ihtil": 6359,
      "ihtim": 6360,
      "ihtimal": 6361,
      "ihtiy": 6362,
      "ihtiyac": 6363,
      "ihtiyacı</w>": 6364,
      "ihtiyaç": 6365,
      "ihtiyaç</w>": 6366,
      "ii": 6367,
      "ii,</w>": 6368,
      "ii.</w>": 6369,
      "ii</w>": 6370,
      "iii.</w>": 6371,
      "ij": 6372,
      "ik": 6373,
      "ik\"</w>": 6374,
      "ik'in</w>": 6375,
      "ik)</w>": 6376,
      "ik,</w>": 6377,
      "ik</w>": 6378,
      "ika</w>": 6379,
      "ikal</w>": 6380,
      "ikamet</w>": 6381,
      "ikasyon</w>": 6382,
      "ikat": 6383,
      "ikat</w>": 6384,
      "iken,</w>": 6385,
      "iken</w>": 6386,
      "iki</w>": 6387,
      "ikili</w>": 6388,
      "ikinc": 6389,
      "ikinci</w>": 6390,
      "ikincil</w>": 6391,
      "ikincisi</w>": 6392,
      "ikisi</w>": 6393,
      "ikiye</w>": 6394,
      "ikl": 6395,
      "ikler,</w>": 6396,
      "ikler</w>": 6397,
      "ikleri</w>": 6398,
      "iklerin</w>": 6399,
      "iklerini</w>": 6400,
      "iklerinin</w>": 6401,
      "ikli</w>": 6402,
      "iklim": 6403,
      "iklim</w>": 6404,
      "iklimi</w>": 6405,
      "ikna</w>": 6406,
      "ikte</w>": 6407,
      "ikten</w>": 6408,
      "ikti": 6409,
      "iktidar": 6410,
      "iktidar</w>": 6411,
      "iktidara</w>": 6412,
      "iktidarı</w>": 6413,
      "iktis": 6414,
      "ikçi</w>": 6415,
      "il": 6416,
      "il,</w>": 6417,
      "il</w>": 6418,
      "ila</w>": 6419,
      "ilah": 6420,
      "ilahi</w>": 6421,
      "ilahiyat": 6422,
      "ilan": 6423,
      "ilan</w>": 6424,
      "ilaç": 6425,
      "ilaç</w>": 6426,
      "ilde</w>": 6427,
      "ildi.</w>": 6428,
      "ildi</w>": 6429,
      "ildiği</w>": 6430,
      "ile": 6431,
      "ile)</w>": 6432,
      "ile,</w>": 6433,
      "ile</w>": 6434,
      "ilebil": 6435,
      "ilebilir.</w>": 6436,
      "ilebilir</w>": 6437,
      "ilem": 6438,
      "ilen</w>": 6439,
      "iler": 6440,
      "iler,</w>": 6441,
      "iler.</w>": 6442,
      "iler</w>": 6443,
      "ilerde</w>": 6444,
      "ilerden</w>": 6445,
      "ilere</w>": 6446,
      "ilerek</w>": 6447,
      "ileri,</w>": 6448,
      "ileri</w>": 6449,
      "ileride</w>": 6450,
      "ilerin</w>": 6451,
      "ilerinde</w>": 6452,
      "ilerinden</w>": 6453,
      "ilerine</w>": 6454,
      "ilerini</w>": 6455,
      "ilerinin</w>": 6456,
      "ileriyle</w>": 6457,
      "ilerle</w>": 6458,
      "ilerlem": 6459,
      "ilerleyen</w>": 6460,
      "ilet": 6461,
      "iletiş": 6462,
      "iletişim</w>": 6463,
      "ileş": 6464,
      "ileşme</w>": 6465,
      "ileştir": 6466,
      "ilg": 6467,
      "ilgi</w>": 6468,
      "ilgil": 6469,
      "ilgilen": 6470,
      "ilgilenen</w>": 6471,
      "ilgili</w>": 6472,
      "ilgilidir.</w>": 6473,
      "ilginç</w>": 6474,
      "ilgisi</w>": 6475,
      "ilgisini</w>": 6476,
      "ilhak</w>": 6477,
      "ilham</w>": 6478,
      "ili,</w>": 6479,
      "ili</w>": 6480,
      "ilik": 6481,
      "ilik,</w>": 6482,
      "ilik</w>": 6483,
      "ilin</w>": 6484,
      "ilinde</w>": 6485,
      "iline</w>": 6486,
      "ilinin</w>": 6487,
      "ilip</w>": 6488,
      "ilir": 6489,
      "ilir.</w>": 6490,
      "ilir</w>": 6491,
      "iliğ": 6492,
      "iliğe</w>": 6493,
      "iliği</w>": 6494,
      "iliğin</w>": 6495,
      "iliğine</w>": 6496,
      "iliğini</w>": 6497,
      "iliğinin</w>": 6498,
      "iliş": 6499,
      "ilişk": 6500,
      "ilişki</w>": 6501,
      "ilişkil": 6502,
      "ilişkilendir": 6503,
      "ilişkiler</w>": 6504,
      "ilişkileri</w>": 6505,
      "ilişkilerini</w>": 6506,
      "ilişkili</w>": 6507,
      "ilişkin</w>": 6508,
      "ilişkisi</w>": 6509,
      "ilk": 6510,
      "ilk</w>": 6511,
      "ilkel</w>": 6512,
      "ilkes": 6513,
      "ilkesi</w>": 6514,
      "ilki</w>": 6515,
      "ill": 6516,
      "illa</w>": 6517,
      "ille</w>": 6518,
      "iller</w>": 6519,
      "illeri</w>": 6520,
      "illerin</w>": 6521,
      "illi</w>": 6522,
      "ilm": 6523,
      "ilmektedir.</w>": 6524,
      "ilmesi,</w>": 6525,
      "ilmesi</w>": 6526,
      "ilmesine</w>": 6527,
      "ilmesini</w>": 6528,
      "ilmesiyle</w>": 6529,
      "ilmeye</w>": 6530,
      "ilmi</w>": 6531,
      "ilmiş,</w>": 6532,
      "ilmiş</w>": 6533,
      "ilmişti.</w>": 6534,
      "ilmiştir.</w>": 6535,
      "ilç": 6536,
      "ilçe</w>": 6537,
      "ilçede</w>": 6538,
      "ilçeleri</w>": 6539,
      "ilçenin</w>": 6540,
      "ilçesi</w>": 6541,
      "ilçesidir.</w>": 6542,
      "ilçesinde</w>": 6543,
      "ilçesine</w>": 6544,
      "ilçesinin</w>": 6545,
      "ilçeye</w>": 6546,
      "im": 6547,
      "im,</w>": 6548,
      "im.</w>": 6549,
      "im</w>": 6550,
      "ima</w>": 6551,
      "imal": 6552,
      "iman</w>": 6553,
      "imar</w>": 6554,
      "imark": 6555,
      "imb": 6556,
      "imci</w>": 6557,
      "imde</w>": 6558,
      "ime</w>": 6559,
      "imet": 6560,
      "imha</w>": 6561,
      "imi,</w>": 6562,
      "imi</w>": 6563,
      "imin</w>": 6564,
      "iminde</w>": 6565,
      "iminden</w>": 6566,
      "imine</w>": 6567,
      "imini</w>": 6568,
      "iminin</w>": 6569,
      "imir</w>": 6570,
      "imiz": 6571,
      "imiz</w>": 6572,
      "imkân": 6573,
      "imkânı</w>": 6574,
      "imler</w>": 6575,
      "imleri</w>": 6576,
      "imlerin</w>": 6577,
      "imlerini</w>": 6578,
      "imli</w>": 6579,
      "imparator": 6580,
      "imparatorluk</w>": 6581,
      "imparatorluğun</w>": 6582,
      "imparatoru</w>": 6583,
      "imsel</w>": 6584,
      "imz": 6585,
      "imza</w>": 6586,
      "imzal": 6587,
      "imzaladı.</w>": 6588,
      "imzalam": 6589,
      "imzalan": 6590,
      "imzalanan</w>": 6591,
      "imzalandı.</w>": 6592,
      "in": 6593,
      "in'in</w>": 6594,
      "in)</w>": 6595,
      "in,</w>": 6596,
      "in-": 6597,
      "in</w>": 6598,
      "ina,</w>": 6599,
      "ina</w>": 6600,
      "inal</w>": 6601,
      "inan": 6602,
      "inanc": 6603,
      "inancı</w>": 6604,
      "inancına</w>": 6605,
      "inanç": 6606,
      "inanç</w>": 6607,
      "inanılır.</w>": 6608,
      "inanış": 6609,
      "inc": 6610,
      "incar": 6611,
      "ince,</w>": 6612,
      "ince</w>": 6613,
      "incel": 6614,
      "incelem": 6615,
      "inceleme</w>": 6616,
      "incelen": 6617,
      "inceler.</w>": 6618,
      "inceleyen</w>": 6619,
      "inci</w>": 6620,
      "ind": 6621,
      "inde": 6622,
      "inde,</w>": 6623,
      "inde;</w>": 6624,
      "inde</w>": 6625,
      "indedir.</w>": 6626,
      "indeki</w>": 6627,
      "inden,</w>": 6628,
      "inden</w>": 6629,
      "indey": 6630,
      "indeydi.</w>": 6631,
      "indi": 6632,
      "indir": 6633,
      "ine": 6634,
      "ine,</w>": 6635,
      "ine</w>": 6636,
      "inen</w>": 6637,
      "iner": 6638,
      "iner</w>": 6639,
      "inf": 6640,
      "ing": 6641,
      "ing,</w>": 6642,
      "ing</w>": 6643,
      "ini,</w>": 6644,
      "ini</w>": 6645,
      "inian": 6646,
      "inik</w>": 6647,
      "inin,</w>": 6648,
      "inin</w>": 6649,
      "inis": 6650,
      "iniş</w>": 6651,
      "inler</w>": 6652,
      "inleri</w>": 6653,
      "inli</w>": 6654,
      "ino,</w>": 6655,
      "ino</w>": 6656,
      "insan": 6657,
      "insan</w>": 6658,
      "insanlar</w>": 6659,
      "insanlara</w>": 6660,
      "insanları</w>": 6661,
      "insanların</w>": 6662,
      "insanı,</w>": 6663,
      "insanı</w>": 6664,
      "insanın</w>": 6665,
      "instit": 6666,
      "int": 6667,
      "int</w>": 6668,
      "integr": 6669,
      "intel": 6670,
      "intel</w>": 6671,
      "inter": 6672,
      "international</w>": 6673,
      "internet</w>": 6674,
      "intihar</w>": 6675,
      "inş": 6676,
      "inşa": 6677,
      "inşa</w>": 6678,
      "inşaat</w>": 6679,
      "inşası</w>": 6680,
      "io": 6681,
      "io,</w>": 6682,
      "io</w>": 6683,
      "ion": 6684,
      "ion,</w>": 6685,
      "ion</w>": 6686,
      "ios": 6687,
      "ios</w>": 6688,
      "iot": 6689,
      "ip": 6690,
      "ip,</w>": 6691,
      "ip</w>": 6692,
      "iper": 6693,
      "ipler</w>": 6694,
      "ipleri</w>": 6695,
      "iptal</w>": 6696,
      "ipv": 6697,
      "ipv6</w>": 6698,
      "ique</w>": 6699,
      "ir": 6700,
      "ir)</w>": 6701,
      "ir,</w>": 6702,
      "ir.</w>": 6703,
      "ir:</w>": 6704,
      "ir;</w>": 6705,
      "ir</w>": 6706,
      "ira</w>": 6707,
      "irad": 6708,
      "irak": 6709,
      "irak</w>": 6710,
      "irdi.</w>": 6711,
      "ire,</w>": 6712,
      "ire</w>": 6713,
      "iri</w>": 6714,
      "irken,</w>": 6715,
      "irken</w>": 6716,
      "irler.</w>": 6717,
      "irler</w>": 6718,
      "irse</w>": 6719,
      "irüs</w>": 6720,
      "is": 6721,
      "is'in</w>": 6722,
      "is)</w>": 6723,
      "is,</w>": 6724,
      "is-": 6725,
      "is</w>": 6726,
      "isa": 6727,
      "isa</w>": 6728,
      "isaac</w>": 6729,
      "isbn</w>": 6730,
      "isch": 6731,
      "ise,</w>": 6732,
      "ise</w>": 6733,
      "isel</w>": 6734,
      "isen": 6735,
      "ish": 6736,
      "ish</w>": 6737,
      "isi": 6738,
      "isi'nde</w>": 6739,
      "isi)</w>": 6740,
      "isi,</w>": 6741,
      "isi</w>": 6742,
      "isidir.</w>": 6743,
      "isim": 6744,
      "isim</w>": 6745,
      "isimlendir": 6746,
      "isimler</w>": 6747,
      "isimleri</w>": 6748,
      "isimli</w>": 6749,
      "isinde</w>": 6750,
      "isindeki</w>": 6751,
      "isinden</w>": 6752,
      "isine</w>": 6753,
      "isini</w>": 6754,
      "isinin</w>": 6755,
      "ision</w>": 6756,
      "isiyle</w>": 6757,
      "iskel": 6758,
      "islam": 6759,
      "ism": 6760,
      "ism</w>": 6761,
      "ismi</w>": 6762,
      "ismini</w>": 6763,
      "isminin</w>": 6764,
      "ismiyle</w>": 6765,
      "iso</w>": 6766,
      "ison</w>": 6767,
      "ispat": 6768,
      "ist": 6769,
      "ist,</w>": 6770,
      "ist</w>": 6771,
      "ista</w>": 6772,
      "istan": 6773,
      "istan'a</w>": 6774,
      "istan'da</w>": 6775,
      "istan'daki</w>": 6776,
      "istan'ın</w>": 6777,
      "istan,</w>": 6778,
      "istan</w>": 6779,
      "istanlı</w>": 6780,
      "istasyon": 6781,
      "istasyonu</w>": 6782,
      "istat": 6783,
      "istatistik": 6784,
      "iste</w>": 6785,
      "isted": 6786,
      "istedi.</w>": 6787,
      "istediği</w>": 6788,
      "istek": 6789,
      "istem": 6790,
      "isten": 6791,
      "ister": 6792,
      "istey": 6793,
      "isteyen</w>": 6794,
      "isteği</w>": 6795,
      "isti": 6796,
      "isti</w>": 6797,
      "istif": 6798,
      "istifa</w>": 6799,
      "istih": 6800,
      "istihbarat</w>": 6801,
      "istihdam</w>": 6802,
      "istik": 6803,
      "istik</w>": 6804,
      "istikrar": 6805,
      "istil": 6806,
      "istila</w>": 6807,
      "istis": 6808,
      "istiy": 6809,
      "istler</w>": 6810,
      "istleri</w>": 6811,
      "istlerin</w>": 6812,
      "isto": 6813,
      "isyan": 6814,
      "isyan</w>": 6815,
      "isyon": 6816,
      "isyon</w>": 6817,
      "it": 6818,
      "it'in</w>": 6819,
      "it,</w>": 6820,
      "it</w>": 6821,
      "ita</w>": 6822,
      "itab": 6823,
      "ital": 6824,
      "itan": 6825,
      "ite</w>": 6826,
      "iter": 6827,
      "iter</w>": 6828,
      "itesi</w>": 6829,
      "ith</w>": 6830,
      "ithal": 6831,
      "iti</w>": 6832,
      "itibar": 6833,
      "itibaren</w>": 6834,
      "itibarıyla</w>": 6835,
      "itik</w>": 6836,
      "ition": 6837,
      "itir": 6838,
      "itler</w>": 6839,
      "itleri</w>": 6840,
      "itlerin</w>": 6841,
      "ittifak": 6842,
      "ittifak</w>": 6843,
      "ity</w>": 6844,
      "itz": 6845,
      "itz</w>": 6846,
      "ium</w>": 6847,
      "ius": 6848,
      "ius,</w>": 6849,
      "ius</w>": 6850,
      "iv": 6851,
      "iv.</w>": 6852,
      "iv</w>": 6853,
      "ive</w>": 6854,
      "iver": 6855,
      "ix": 6856,
      "ix</w>": 6857,
      "iy": 6858,
      "iy</w>": 6859,
      "iya</w>": 6860,
      "iyat": 6861,
      "iyat</w>": 6862,
      "iydi.</w>": 6863,
      "iydi</w>": 6864,
      "iye": 6865,
      "iye,</w>": 6866,
      "iye</w>": 6867,
      "iyel</w>": 6868,
      "iyeli</w>": 6869,
      "iyen</w>": 6870,
      "iyer": 6871,
      "iyet": 6872,
      "iyet</w>": 6873,
      "iyeti</w>": 6874,
      "iyetini</w>": 6875,
      "iyi</w>": 6876,
      "iyice</w>": 6877,
      "iyileştir": 6878,
      "iyle,</w>": 6879,
      "iyle</w>": 6880,
      "iyon": 6881,
      "iyor": 6882,
      "iyor,</w>": 6883,
      "iyor.</w>": 6884,
      "iyor</w>": 6885,
      "iyordu.</w>": 6886,
      "iyordu</w>": 6887,
      "iyorlardı.</w>": 6888,
      "iyye</w>": 6889,
      "iz": 6890,
      "iz,</w>": 6891,
      "iz.</w>": 6892,
      "iz</w>": 6893,
      "izasyon": 6894,
      "izasyon</w>": 6895,
      "ize</w>": 6896,
      "izi</w>": 6897,
      "izin</w>": 6898,
      "izledi.</w>": 6899,
      "izlem": 6900,
      "izlen": 6901,
      "izler</w>": 6902,
      "izleyen</w>": 6903,
      "izm": 6904,
      "izm,</w>": 6905,
      "izm</w>": 6906,
      "izma</w>": 6907,
      "izme</w>": 6908,
      "izmi</w>": 6909,
      "izmin</w>": 6910,
      "izo": 6911,
      "izole</w>": 6912,
      "izotop": 6913,
      "iç": 6914,
      "iç,</w>": 6915,
      "iç</w>": 6916,
      "içe</w>": 6917,
      "içer": 6918,
      "içeren</w>": 6919,
      "içeri</w>": 6920,
      "içerir.</w>": 6921,
      "içeris": 6922,
      "içerisinde</w>": 6923,
      "içerisindeki</w>": 6924,
      "içerisine</w>": 6925,
      "içeriği</w>": 6926,
      "içermektedir.</w>": 6927,
      "içi</w>": 6928,
      "için": 6929,
      "için,</w>": 6930,
      "için</w>": 6931,
      "içinde,</w>": 6932,
      "içinde</w>": 6933,
      "içindeki</w>": 6934,
      "içinden</w>": 6935,
      "içine</w>": 6936,
      "ić": 6937,
      "ić,</w>": 6938,
      "iğ": 6939,
      "iğdır</w>": 6940,
      "iğe</w>": 6941,
      "iği,</w>": 6942,
      "iği</w>": 6943,
      "iğin</w>": 6944,
      "iğinde</w>": 6945,
      "iğinden</w>": 6946,
      "iğine</w>": 6947,
      "iğini</w>": 6948,
      "iğinin</w>": 6949,
      "iş": 6950,
      "iş,</w>": 6951,
      "iş</w>": 6952,
      "işaret": 6953,
      "işaret</w>": 6954,
      "işareti</w>": 6955,
      "işbirliği</w>": 6956,
      "işe</w>": 6957,
      "işgal": 6958,
      "işgal</w>": 6959,
      "işgali</w>": 6960,
      "işgalinden</w>": 6961,
      "işgaline</w>": 6962,
      "işi</w>": 6963,
      "işim</w>": 6964,
      "işini</w>": 6965,
      "işken": 6966,
      "işlem": 6967,
      "işlem</w>": 6968,
      "işlemc": 6969,
      "işleme</w>": 6970,
      "işlemi</w>": 6971,
      "işlemleri</w>": 6972,
      "işlen": 6973,
      "işler</w>": 6974,
      "işlerdir.</w>": 6975,
      "işleri</w>": 6976,
      "işlet": 6977,
      "işletim</w>": 6978,
      "işletm": 6979,
      "işletme</w>": 6980,
      "işlev": 6981,
      "işlev</w>": 6982,
      "işlevi</w>": 6983,
      "işley": 6984,
      "işli</w>": 6985,
      "işsizlik</w>": 6986,
      "işt": 6987,
      "işte</w>": 6988,
      "işti.</w>": 6989,
      "işti</w>": 6990,
      "iştir": 6991,
      "iştir.</w>": 6992,
      "iştir:</w>": 6993,
      "iştir</w>": 6994,
      "işç": 6995,
      "işçi</w>": 6996,
      "işık</w>": 6997,
      "i̇": 6998,
      "i̇</w>": 6999,
      "i̇b": 7000,
      "i̇bn": 7001,
      "i̇bn-i</w>": 7002,
      "i̇bn</w>": 7003,
      "i̇br": 7004,
      "i̇brah": 7005,
      "i̇brahim": 7006,
      "i̇brahim</w>": 7007,
      "i̇bran": 7008,
      "i̇branice</w>": 7009,
      "i̇d": 7010,
      "i̇dar": 7011,
      "i̇dari</w>": 7012,
      "i̇h": 7013,
      "i̇hsan</w>": 7014,
      "i̇ht": 7015,
      "i̇k": 7016,
      "i̇k</w>": 7017,
      "i̇ki</w>": 7018,
      "i̇kinc": 7019,
      "i̇kinci</w>": 7020,
      "i̇kl": 7021,
      "i̇klim</w>": 7022,
      "i̇ktis": 7023,
      "i̇l": 7024,
      "i̇l</w>": 7025,
      "i̇lde</w>": 7026,
      "i̇ler": 7027,
      "i̇let": 7028,
      "i̇letişim</w>": 7029,
      "i̇lhan": 7030,
      "i̇lhan</w>": 7031,
      "i̇lin</w>": 7032,
      "i̇liş": 7033,
      "i̇lk": 7034,
      "i̇lk</w>": 7035,
      "i̇lç": 7036,
      "i̇lçe,</w>": 7037,
      "i̇lçe</w>": 7038,
      "i̇lçede</w>": 7039,
      "i̇lçenin</w>": 7040,
      "i̇m": 7041,
      "i̇mam</w>": 7042,
      "i̇mparator": 7043,
      "i̇mparator</w>": 7044,
      "i̇mparatorluk</w>": 7045,
      "i̇mparatorluğ": 7046,
      "i̇mparatorluğu'na</w>": 7047,
      "i̇mparatorluğu'nda</w>": 7048,
      "i̇mparatorluğu'nun</w>": 7049,
      "i̇mparatorluğu,</w>": 7050,
      "i̇mparatorluğu</w>": 7051,
      "i̇mparatoru</w>": 7052,
      "i̇n": 7053,
      "i̇nan": 7054,
      "i̇nc": 7055,
      "i̇ncil": 7056,
      "i̇ne": 7057,
      "i̇ngil": 7058,
      "i̇ngiliz": 7059,
      "i̇ngiliz</w>": 7060,
      "i̇ngilizc": 7061,
      "i̇ngilizce": 7062,
      "i̇ngilizce</w>": 7063,
      "i̇ngilizler</w>": 7064,
      "i̇ngilizlerin</w>": 7065,
      "i̇ngilter": 7066,
      "i̇ngiltere": 7067,
      "i̇ngiltere'de</w>": 7068,
      "i̇ngiltere'nin</w>": 7069,
      "i̇ngiltere,</w>": 7070,
      "i̇ngiltere</w>": 7071,
      "i̇nsan": 7072,
      "i̇nsan</w>": 7073,
      "i̇nsanlar</w>": 7074,
      "i̇nter": 7075,
      "i̇nternet</w>": 7076,
      "i̇nön": 7077,
      "i̇nönü</w>": 7078,
      "i̇nşa": 7079,
      "i̇o": 7080,
      "i̇p": 7081,
      "i̇pek</w>": 7082,
      "i̇r": 7083,
      "i̇ran": 7084,
      "i̇ran'da</w>": 7085,
      "i̇ran'ın</w>": 7086,
      "i̇ran,</w>": 7087,
      "i̇ran</w>": 7088,
      "i̇ranlı</w>": 7089,
      "i̇rland": 7090,
      "i̇rlanda</w>": 7091,
      "i̇rlandalı</w>": 7092,
      "i̇s": 7093,
      "i̇sa'nın</w>": 7094,
      "i̇sa</w>": 7095,
      "i̇skandin": 7096,
      "i̇sken": 7097,
      "i̇skender": 7098,
      "i̇skender'in</w>": 7099,
      "i̇skender</w>": 7100,
      "i̇skenderun</w>": 7101,
      "i̇skil": 7102,
      "i̇skilip</w>": 7103,
      "i̇sko": 7104,
      "i̇skoç": 7105,
      "i̇skoç</w>": 7106,
      "i̇slam": 7107,
      "i̇slam'ın</w>": 7108,
      "i̇slam</w>": 7109,
      "i̇slami</w>": 7110,
      "i̇slâ": 7111,
      "i̇slâm": 7112,
      "i̇slâm</w>": 7113,
      "i̇sma": 7114,
      "i̇smail": 7115,
      "i̇smail</w>": 7116,
      "i̇smet</w>": 7117,
      "i̇span": 7118,
      "i̇spanya</w>": 7119,
      "i̇spanyol": 7120,
      "i̇spanyol</w>": 7121,
      "i̇srail": 7122,
      "i̇srail</w>": 7123,
      "i̇srailli</w>": 7124,
      "i̇st": 7125,
      "i̇stanbul": 7126,
      "i̇stanbul'a</w>": 7127,
      "i̇stanbul'da</w>": 7128,
      "i̇stanbul'daki</w>": 7129,
      "i̇stanbul'dan</w>": 7130,
      "i̇stanbul'un</w>": 7131,
      "i̇stanbul),</w>": 7132,
      "i̇stanbul,</w>": 7133,
      "i̇stanbul</w>": 7134,
      "i̇stanbul’a</w>": 7135,
      "i̇stanbul’da</w>": 7136,
      "i̇stat": 7137,
      "i̇stikl": 7138,
      "i̇stiklal</w>": 7139,
      "i̇stin": 7140,
      "i̇sv": 7141,
      "i̇sveç": 7142,
      "i̇sveç'in</w>": 7143,
      "i̇sveç,</w>": 7144,
      "i̇sveç</w>": 7145,
      "i̇sveçli</w>": 7146,
      "i̇sviç": 7147,
      "i̇sviçr": 7148,
      "i̇sviçre": 7149,
      "i̇sviçre</w>": 7150,
      "i̇sviçreli</w>": 7151,
      "i̇syan": 7152,
      "i̇t": 7153,
      "i̇tal": 7154,
      "i̇talya'da</w>": 7155,
      "i̇talya'nın</w>": 7156,
      "i̇talya,</w>": 7157,
      "i̇talya</w>": 7158,
      "i̇talyan": 7159,
      "i̇talyan</w>": 7160,
      "i̇til": 7161,
      "i̇tilaf</w>": 7162,
      "i̇ttih": 7163,
      "i̇ttihat</w>": 7164,
      "i̇y": 7165,
      "i̇yi</w>": 7166,
      "i̇z": 7167,
      "i̇zm": 7168,
      "i̇zmir": 7169,
      "i̇zmir'de</w>": 7170,
      "i̇zmir'in</w>": 7171,
      "i̇zmir</w>": 7172,
      "i̇zmit</w>": 7173,
      "i̇zz": 7174,
      "i̇ç": 7175,
      "i̇ç</w>": 7176,
      "i̇çin</w>": 7177,
      "i̇çişleri</w>": 7178,
      "i̇ş": 7179,
      "i̇ş</w>": 7180,
      "i̇şbirliği</w>": 7181,
      "i̇şleri</w>": 7182,
      "i̇şletm": 7183,
      "i̇şte</w>": 7184,
      "i̇şçi</w>": 7185,
      "i’n": 7186,
      "i’nde</w>": 7187,
      "i’ne</w>": 7188,
      "i’nin</w>": 7189,
      "i”</w>": 7190,
      "j": 7191,
      "j.": 7192,
      "j.</w>": 7193,
      "j</w>": 7194,
      "ja</w>": 7195,
      "jac": 7196,
      "jack": 7197,
      "jack</w>": 7198,
      "jackson</w>": 7199,
      "jacqu": 7200,
      "jacques</w>": 7201,
      "jak": 7202,
      "jam": 7203,
      "jama": 7204,
      "jamaik": 7205,
      "james</w>": 7206,
      "jan": 7207,
      "jan</w>": 7208,
      "jandar": 7209,
      "jandarma</w>": 7210,
      "jane</w>": 7211,
      "jap": 7212,
      "japon": 7213,
      "japon</w>": 7214,
      "japonya'da</w>": 7215,
      "japonya'nın</w>": 7216,
      "japonya,</w>": 7217,
      "japonya</w>": 7218,
      "jar": 7219,
      "jas": 7220,
      "jav": 7221,
      "java</w>": 7222,
      "javas": 7223,
      "javascrip": 7224,
      "je": 7225,
      "je</w>": 7226,
      "jean-": 7227,
      "jean</w>": 7228,
      "jef": 7229,
      "jeffer": 7230,
      "jen": 7231,
      "jen</w>": 7232,
      "jener": 7233,
      "jeolojik</w>": 7234,
      "jer": 7235,
      "jes": 7236,
      "ji</w>": 7237,
      "jim": 7238,
      "jim</w>": 7239,
      "jimn": 7240,
      "jit": 7241,
      "jo": 7242,
      "joe</w>": 7243,
      "joh": 7244,
      "johan": 7245,
      "johann</w>": 7246,
      "johannes</w>": 7247,
      "john": 7248,
      "john</w>": 7249,
      "johnson,</w>": 7250,
      "jok": 7251,
      "jon": 7252,
      "jones,</w>": 7253,
      "jos": 7254,
      "josef</w>": 7255,
      "josep": 7256,
      "joseph</w>": 7257,
      "josé</w>": 7258,
      "journ": 7259,
      "jr.,</w>": 7260,
      "ju": 7261,
      "juan</w>": 7262,
      "jud": 7263,
      "jul": 7264,
      "jules</w>": 7265,
      "julius</w>": 7266,
      "jun": 7267,
      "just": 7268,
      "jüp": 7269,
      "jüpiter": 7270,
      "jüpiter'in</w>": 7271,
      "jüpiter</w>": 7272,
      "jür": 7273,
      "k": 7274,
      "k)</w>": 7275,
      "k,</w>": 7276,
      "k-": 7277,
      "k.</w>": 7278,
      "k</w>": 7279,
      "ka": 7280,
      "ka,</w>": 7281,
      "ka</w>": 7282,
      "kab": 7283,
      "kabaca</w>": 7284,
      "kabar": 7285,
      "kabart": 7286,
      "kabil": 7287,
      "kabin": 7288,
      "kabuk</w>": 7289,
      "kabul": 7290,
      "kabul</w>": 7291,
      "kabuğ": 7292,
      "kabuğu</w>": 7293,
      "kad": 7294,
      "kadar": 7295,
      "kadar,</w>": 7296,
      "kadar</w>": 7297,
      "kadardır.</w>": 7298,
      "kadem": 7299,
      "kadir": 7300,
      "kadir</w>": 7301,
      "kadro": 7302,
      "kadık": 7303,
      "kadıköy": 7304,
      "kadıköy</w>": 7305,
      "kadın": 7306,
      "kadın</w>": 7307,
      "kadınlar</w>": 7308,
      "kadınlara</w>": 7309,
      "kadınlarda</w>": 7310,
      "kadınların</w>": 7311,
      "kadının</w>": 7312,
      "kaf": 7313,
      "kafkas": 7314,
      "kafkas</w>": 7315,
      "kafkasya</w>": 7316,
      "kah": 7317,
      "kahram": 7318,
      "kahraman": 7319,
      "kahraman</w>": 7320,
      "kahramanmar": 7321,
      "kahramanı</w>": 7322,
      "kahv": 7323,
      "kahve</w>": 7324,
      "kahver": 7325,
      "kahverengi</w>": 7326,
      "kak": 7327,
      "kal": 7328,
      "kalab": 7329,
      "kalabalık</w>": 7330,
      "kalan": 7331,
      "kalan</w>": 7332,
      "kalar</w>": 7333,
      "kalarak</w>": 7334,
      "kald": 7335,
      "kaldı.</w>": 7336,
      "kaldı</w>": 7337,
      "kaldır": 7338,
      "kaldırıl": 7339,
      "kaldırıldı.</w>": 7340,
      "kaldığı</w>": 7341,
      "kale,</w>": 7342,
      "kale</w>": 7343,
      "kalec": 7344,
      "kaleci</w>": 7345,
      "kalem": 7346,
      "kaleme</w>": 7347,
      "kalenin</w>": 7348,
      "kalesi</w>": 7349,
      "kaliforn": 7350,
      "kaliforniy": 7351,
      "kaliforniya</w>": 7352,
      "kalit": 7353,
      "kaliteli</w>": 7354,
      "kalk": 7355,
      "kalkınma</w>": 7356,
      "kalma</w>": 7357,
      "kalması</w>": 7358,
      "kalmış</w>": 7359,
      "kalmıştır.</w>": 7360,
      "kalp</w>": 7361,
      "kalsiy": 7362,
      "kalıcı</w>": 7363,
      "kalın": 7364,
      "kalın</w>": 7365,
      "kalınt": 7366,
      "kalıntıları</w>": 7367,
      "kalıp": 7368,
      "kalır.</w>": 7369,
      "kalıt": 7370,
      "kam": 7371,
      "kamer": 7372,
      "kamerun": 7373,
      "kamp": 7374,
      "kampan": 7375,
      "kampüs": 7376,
      "kamu": 7377,
      "kamu</w>": 7378,
      "kan": 7379,
      "kan,</w>": 7380,
      "kan</w>": 7381,
      "kanad": 7382,
      "kanada</w>": 7383,
      "kanadalı</w>": 7384,
      "kanal": 7385,
      "kanal</w>": 7386,
      "kanalı</w>": 7387,
      "kanat": 7388,
      "kanat</w>": 7389,
      "kandin": 7390,
      "kanlı</w>": 7391,
      "kans": 7392,
      "kanser": 7393,
      "kanser</w>": 7394,
      "kanseri</w>": 7395,
      "kant": 7396,
      "kanun": 7397,
      "kanun</w>": 7398,
      "kanuni</w>": 7399,
      "kanunu</w>": 7400,
      "kanı</w>": 7401,
      "kanın</w>": 7402,
      "kanıt": 7403,
      "kanıt</w>": 7404,
      "kanıtlar</w>": 7405,
      "kap": 7406,
      "kapadok": 7407,
      "kapalı</w>": 7408,
      "kapan": 7409,
      "kapasit": 7410,
      "kapat": 7411,
      "kapatıl": 7412,
      "kapatıldı.</w>": 7413,
      "kapital": 7414,
      "kapl": 7415,
      "kaplayan</w>": 7416,
      "kaplı</w>": 7417,
      "kaplıc": 7418,
      "kaplıdır.</w>": 7419,
      "kaps": 7420,
      "kapsam": 7421,
      "kapsamlı</w>": 7422,
      "kapsamında</w>": 7423,
      "kapsar": 7424,
      "kapsar.</w>": 7425,
      "kapsay": 7426,
      "kapsayan</w>": 7427,
      "kapı</w>": 7428,
      "kapısı</w>": 7429,
      "kar": 7430,
      "kar</w>": 7431,
      "kara": 7432,
      "kara</w>": 7433,
      "karab": 7434,
      "karac": 7435,
      "karaciğ": 7436,
      "karad": 7437,
      "karadağ": 7438,
      "karaden": 7439,
      "karadeniz": 7440,
      "karadeniz</w>": 7441,
      "karag": 7442,
      "karah": 7443,
      "karahis": 7444,
      "karak": 7445,
      "karakt": 7446,
      "karakter": 7447,
      "karakter</w>": 7448,
      "karakteri</w>": 7449,
      "karakterize</w>": 7450,
      "karam": 7451,
      "karaman": 7452,
      "karan": 7453,
      "karanlık</w>": 7454,
      "karar": 7455,
      "karar</w>": 7456,
      "kararla</w>": 7457,
      "kararlaştır": 7458,
      "kararlı</w>": 7459,
      "kararı</w>": 7460,
      "kararını</w>": 7461,
      "kararıyla</w>": 7462,
      "karas": 7463,
      "karasal</w>": 7464,
      "karay": 7465,
      "karayol": 7466,
      "karayolu</w>": 7467,
      "karaç": 7468,
      "karbon": 7469,
      "karbon</w>": 7470,
      "kardeş": 7471,
      "kardeş</w>": 7472,
      "kardeşi</w>": 7473,
      "kare</w>": 7474,
      "karesi</w>": 7475,
      "karg": 7476,
      "karikatür": 7477,
      "karikatürist</w>": 7478,
      "kariy": 7479,
      "kariyer": 7480,
      "kariyeri</w>": 7481,
      "karl</w>": 7482,
      "karma</w>": 7483,
      "karmaş": 7484,
      "karmaşık</w>": 7485,
      "karn": 7486,
      "kars": 7487,
      "kars</w>": 7488,
      "karsin": 7489,
      "kart": 7490,
      "kartal": 7491,
      "kartal</w>": 7492,
      "kary": 7493,
      "karısı</w>": 7494,
      "karış": 7495,
      "karıştır": 7496,
      "karışık": 7497,
      "karışık</w>": 7498,
      "karş": 7499,
      "karşı</w>": 7500,
      "karşıl": 7501,
      "karşılamak</w>": 7502,
      "karşılan": 7503,
      "karşılaş": 7504,
      "karşılaştır": 7505,
      "karşılık</w>": 7506,
      "karşılıklı</w>": 7507,
      "karşılığı</w>": 7508,
      "karşılığında</w>": 7509,
      "karşın,</w>": 7510,
      "karşın</w>": 7511,
      "karşısında</w>": 7512,
      "karşıt": 7513,
      "karşıt</w>": 7514,
      "karşıtı</w>": 7515,
      "karşıy": 7516,
      "karşıya</w>": 7517,
      "kas": 7518,
      "kas</w>": 7519,
      "kasab": 7520,
      "kasaba</w>": 7521,
      "kast": 7522,
      "kastam": 7523,
      "kastamon": 7524,
      "kastamonu</w>": 7525,
      "kasım": 7526,
      "kasım</w>": 7527,
      "kasır": 7528,
      "kat": 7529,
      "kat</w>": 7530,
      "katal": 7531,
      "katedr": 7532,
      "kategor": 7533,
      "katk": 7534,
      "katkı</w>": 7535,
      "katkıda</w>": 7536,
      "katkısı</w>": 7537,
      "katli": 7538,
      "katliam": 7539,
      "katlı</w>": 7540,
      "katman": 7541,
      "katmanı</w>": 7542,
      "katol": 7543,
      "katolik": 7544,
      "katolik</w>": 7545,
      "katı</w>": 7546,
      "katıl": 7547,
      "katılan</w>": 7548,
      "katıldı.</w>": 7549,
      "katıldı</w>": 7550,
      "katıldığı</w>": 7551,
      "katılmıştır.</w>": 7552,
      "kav": 7553,
      "kavr": 7554,
      "kavram": 7555,
      "kavram</w>": 7556,
      "kavramlar</w>": 7557,
      "kavramı</w>": 7558,
      "kavramının</w>": 7559,
      "kavuş": 7560,
      "kay": 7561,
      "kaya,</w>": 7562,
      "kaya</w>": 7563,
      "kayaç": 7564,
      "kayb": 7565,
      "kaybeden</w>": 7566,
      "kaybetti.</w>": 7567,
      "kaybı</w>": 7568,
      "kayd": 7569,
      "kayda</w>": 7570,
      "kayde": 7571,
      "kayded": 7572,
      "kaydedil": 7573,
      "kaydır": 7574,
      "kayg": 7575,
      "kaymakam": 7576,
      "kayn": 7577,
      "kaynak": 7578,
      "kaynak</w>": 7579,
      "kaynaklan": 7580,
      "kaynaklanan</w>": 7581,
      "kaynaklar</w>": 7582,
      "kaynaklara</w>": 7583,
      "kaynaklarda</w>": 7584,
      "kaynakları</w>": 7585,
      "kaynaklı</w>": 7586,
      "kaynakça</w>": 7587,
      "kaynağ": 7588,
      "kaynağı</w>": 7589,
      "kayser": 7590,
      "kayseri</w>": 7591,
      "kayıp": 7592,
      "kayıp</w>": 7593,
      "kayıt": 7594,
      "kayıt</w>": 7595,
      "kayıtları</w>": 7596,
      "kaz": 7597,
      "kaza</w>": 7598,
      "kazak": 7599,
      "kazak</w>": 7600,
      "kazakistan</w>": 7601,
      "kazan": 7602,
      "kazanan</w>": 7603,
      "kazanarak</w>": 7604,
      "kazand": 7605,
      "kazandı.</w>": 7606,
      "kazandı</w>": 7607,
      "kazandır": 7608,
      "kazandığı</w>": 7609,
      "kazanmış</w>": 7610,
      "kazanmıştır.</w>": 7611,
      "kazası</w>": 7612,
      "kazı</w>": 7613,
      "kazım</w>": 7614,
      "kaç": 7615,
      "kaçın": 7616,
      "kaçır": 7617,
      "kağ": 7618,
      "kağan": 7619,
      "kağan</w>": 7620,
      "kaş": 7621,
      "ke": 7622,
      "ke,</w>": 7623,
      "ke</w>": 7624,
      "keb": 7625,
      "ked": 7626,
      "kef": 7627,
      "keh": 7628,
      "kel": 7629,
      "keleb": 7630,
      "kelim": 7631,
      "kelime</w>": 7632,
      "kelimenin</w>": 7633,
      "kelimesi</w>": 7634,
      "kelimesinden</w>": 7635,
      "kelimesinin</w>": 7636,
      "kem": 7637,
      "kemal": 7638,
      "kemal'in</w>": 7639,
      "kemal,</w>": 7640,
      "kemal</w>": 7641,
      "keman</w>": 7642,
      "kemer": 7643,
      "kemik</w>": 7644,
      "ken": 7645,
      "ken,</w>": 7646,
      "ken;</w>": 7647,
      "ken</w>": 7648,
      "kenan</w>": 7649,
      "kenar": 7650,
      "kenar</w>": 7651,
      "kend": 7652,
      "kendi</w>": 7653,
      "kendil": 7654,
      "kendilerine</w>": 7655,
      "kendilerini</w>": 7656,
      "kendine</w>": 7657,
      "kendini</w>": 7658,
      "kendis": 7659,
      "kendisi</w>": 7660,
      "kendisinden</w>": 7661,
      "kendisine</w>": 7662,
      "kendisini</w>": 7663,
      "kendisinin</w>": 7664,
      "kenin</w>": 7665,
      "kenned": 7666,
      "kent": 7667,
      "kent,</w>": 7668,
      "kent</w>": 7669,
      "kente</w>": 7670,
      "kenti": 7671,
      "kenti</w>": 7672,
      "kentin</w>": 7673,
      "kentinde</w>": 7674,
      "kentsel</w>": 7675,
      "kentte</w>": 7676,
      "kep": 7677,
      "ker": 7678,
      "ker,</w>": 7679,
      "ker</w>": 7680,
      "kere</w>": 7681,
      "kes": 7682,
      "kes</w>": 7683,
      "kesim": 7684,
      "kesiminde</w>": 7685,
      "kesimlerinde</w>": 7686,
      "kesin": 7687,
      "kesin</w>": 7688,
      "kesinlikle</w>": 7689,
      "kesiş": 7690,
      "keskin</w>": 7691,
      "ket": 7692,
      "ket</w>": 7693,
      "key": 7694,
      "kez</w>": 7695,
      "keç": 7696,
      "keş": 7697,
      "keşf": 7698,
      "keşfedildi.</w>": 7699,
      "keşfedilen</w>": 7700,
      "keşfetti.</w>": 7701,
      "keşif": 7702,
      "keşif</w>": 7703,
      "kg</w>": 7704,
      "ki": 7705,
      "ki,</w>": 7706,
      "ki</w>": 7707,
      "kil": 7708,
      "kil</w>": 7709,
      "kiler</w>": 7710,
      "kileri</w>": 7711,
      "kilis": 7712,
      "kilise</w>": 7713,
      "kilisesi'nin</w>": 7714,
      "kilisesi</w>": 7715,
      "kilomet": 7716,
      "kilometr": 7717,
      "kilometre</w>": 7718,
      "kim": 7719,
      "kim</w>": 7720,
      "kimi</w>": 7721,
      "kimlik</w>": 7722,
      "kims": 7723,
      "kimse</w>": 7724,
      "kimya": 7725,
      "kimya</w>": 7726,
      "kimyacı</w>": 7727,
      "kimyager</w>": 7728,
      "kimyasal</w>": 7729,
      "kin": 7730,
      "kin,</w>": 7731,
      "kin</w>": 7732,
      "king": 7733,
      "king</w>": 7734,
      "kip": 7735,
      "kir": 7736,
      "kireç": 7737,
      "kireç</w>": 7738,
      "kis": 7739,
      "kit": 7740,
      "kit</w>": 7741,
      "kitab": 7742,
      "kitabı</w>": 7743,
      "kitabın</w>": 7744,
      "kitabında</w>": 7745,
      "kitabını</w>": 7746,
      "kitabının</w>": 7747,
      "kitap": 7748,
      "kitap,</w>": 7749,
      "kitap</w>": 7750,
      "kitaplar</w>": 7751,
      "kitapları</w>": 7752,
      "kitapta</w>": 7753,
      "kitl": 7754,
      "kitle</w>": 7755,
      "kitâ": 7756,
      "kiş": 7757,
      "kişi,</w>": 7758,
      "kişi</w>": 7759,
      "kişiden</w>": 7760,
      "kişidir.</w>": 7761,
      "kişiler": 7762,
      "kişiler</w>": 7763,
      "kişilere</w>": 7764,
      "kişileri</w>": 7765,
      "kişilerin</w>": 7766,
      "kişilik</w>": 7767,
      "kişinin</w>": 7768,
      "kişisel</w>": 7769,
      "kişiye</w>": 7770,
      "kişiyi</w>": 7771,
      "kl": 7772,
      "klas": 7773,
      "klasik</w>": 7774,
      "klav": 7775,
      "kle": 7776,
      "klinik</w>": 7777,
      "klor": 7778,
      "km": 7779,
      "km'lik</w>": 7780,
      "km'si</w>": 7781,
      "km,</w>": 7782,
      "km.</w>": 7783,
      "km2": 7784,
      "km2'dir.</w>": 7785,
      "km2'ye</w>": 7786,
      "km2</w>": 7787,
      "km</w>": 7788,
      "kn": 7789,
      "ko": 7790,
      "ko,</w>": 7791,
      "ko</w>": 7792,
      "koal": 7793,
      "koalisyon</w>": 7794,
      "koc": 7795,
      "koca": 7796,
      "kocaeli</w>": 7797,
      "kod": 7798,
      "kod</w>": 7799,
      "kodu</w>": 7800,
      "kok": 7801,
      "kol": 7802,
      "kol</w>": 7803,
      "kolay": 7804,
      "kolay</w>": 7805,
      "kolayca</w>": 7806,
      "kolaylaştır": 7807,
      "kolej": 7808,
      "kolek": 7809,
      "koleksiyon": 7810,
      "kolom": 7811,
      "kolombiy": 7812,
      "kolombiyalı</w>": 7813,
      "kolon": 7814,
      "koloni</w>": 7815,
      "kolonisi</w>": 7816,
      "kolu</w>": 7817,
      "kom": 7818,
      "kombin": 7819,
      "komed": 7820,
      "komedyen,</w>": 7821,
      "komedyen</w>": 7822,
      "komisyon": 7823,
      "komisyonu</w>": 7824,
      "komit": 7825,
      "komitesi</w>": 7826,
      "kompl": 7827,
      "komplek": 7828,
      "komut": 7829,
      "komut</w>": 7830,
      "komuta</w>": 7831,
      "komutan": 7832,
      "komutan</w>": 7833,
      "komutanlığı</w>": 7834,
      "komutanı</w>": 7835,
      "komutasındaki</w>": 7836,
      "komün": 7837,
      "komünist</w>": 7838,
      "komş": 7839,
      "komşu</w>": 7840,
      "kon": 7841,
      "konak": 7842,
      "kondans": 7843,
      "kondansatör": 7844,
      "kondansatör</w>": 7845,
      "konfer": 7846,
      "konferans": 7847,
      "konferansı</w>": 7848,
      "kongo</w>": 7849,
      "kongr": 7850,
      "kongre</w>": 7851,
      "kongresi</w>": 7852,
      "kons": 7853,
      "konser": 7854,
      "konser</w>": 7855,
      "konservat": 7856,
      "konservatuvar": 7857,
      "konsey": 7858,
      "konseyi</w>": 7859,
      "konsol": 7860,
      "konst": 7861,
      "konstantin": 7862,
      "konstantinopol": 7863,
      "kontr": 7864,
      "kontrol": 7865,
      "kontrol</w>": 7866,
      "kontrolü</w>": 7867,
      "kontrolünü</w>": 7868,
      "konu": 7869,
      "konu</w>": 7870,
      "konuda</w>": 7871,
      "konul": 7872,
      "konular</w>": 7873,
      "konularda</w>": 7874,
      "konuları</w>": 7875,
      "konum": 7876,
      "konum</w>": 7877,
      "konumda</w>": 7878,
      "konumu</w>": 7879,
      "konumuna</w>": 7880,
      "konumunda</w>": 7881,
      "konumundadır.</w>": 7882,
      "konus": 7883,
      "konusu</w>": 7884,
      "konusudur.</w>": 7885,
      "konusunda</w>": 7886,
      "konusundaki</w>": 7887,
      "konut</w>": 7888,
      "konuyla</w>": 7889,
      "konuş": 7890,
      "konuşan</w>": 7891,
      "konuşma</w>": 7892,
      "konuşul": 7893,
      "konuşulan</w>": 7894,
      "konya</w>": 7895,
      "koord": 7896,
      "koordin": 7897,
      "kop": 7898,
      "kopar": 7899,
      "kopy": 7900,
      "kor": 7901,
      "kore": 7902,
      "kore</w>": 7903,
      "koreli</w>": 7904,
      "kork": 7905,
      "kort": 7906,
      "koru": 7907,
      "korum": 7908,
      "koruma</w>": 7909,
      "korumak</w>": 7910,
      "korun": 7911,
      "korunması</w>": 7912,
      "koruy": 7913,
      "koruyan</w>": 7914,
      "koruyucu</w>": 7915,
      "kos": 7916,
      "kot": 7917,
      "kov": 7918,
      "koy": 7919,
      "koydu.</w>": 7920,
      "koymuştur.</w>": 7921,
      "koyu</w>": 7922,
      "koyun</w>": 7923,
      "koz": 7924,
      "koz</w>": 7925,
      "koç": 7926,
      "koç</w>": 7927,
      "koş": 7928,
      "koşucusu</w>": 7929,
      "koşul": 7930,
      "koşullar</w>": 7931,
      "koşulları</w>": 7932,
      "kr": 7933,
      "kral": 7934,
      "kral</w>": 7935,
      "kraliyet</w>": 7936,
      "kraliç": 7937,
      "kraliçe</w>": 7938,
      "kraliçesi</w>": 7939,
      "krallık": 7940,
      "krallık'ta</w>": 7941,
      "krallık'ın</w>": 7942,
      "krallık,</w>": 7943,
      "krallık</w>": 7944,
      "krallığ": 7945,
      "krallığı'nın</w>": 7946,
      "krallığı</w>": 7947,
      "kralı</w>": 7948,
      "kre": 7949,
      "kredi</w>": 7950,
      "krip": 7951,
      "krist": 7952,
      "kristal": 7953,
      "kristal</w>": 7954,
      "kritik</w>": 7955,
      "kriz": 7956,
      "kriz</w>": 7957,
      "krizi</w>": 7958,
      "kro": 7959,
      "kromoz": 7960,
      "kromozom": 7961,
      "kron": 7962,
      "kronik</w>": 7963,
      "ks": 7964,
      "ks,</w>": 7965,
      "ks</w>": 7966,
      "kson</w>": 7967,
      "ku": 7968,
      "ku</w>": 7969,
      "kuantum</w>": 7970,
      "kub": 7971,
      "kudüs": 7972,
      "kuk": 7973,
      "kul": 7974,
      "kulak</w>": 7975,
      "kule</w>": 7976,
      "kulenin</w>": 7977,
      "kulesi</w>": 7978,
      "kullan": 7979,
      "kullanan</w>": 7980,
      "kullanarak</w>": 7981,
      "kulland": 7982,
      "kullandı.</w>": 7983,
      "kullandığı</w>": 7984,
      "kullanma</w>": 7985,
      "kullanmak</w>": 7986,
      "kullanmaktadır.</w>": 7987,
      "kullanmaya</w>": 7988,
      "kullanmıştır.</w>": 7989,
      "kullanıc": 7990,
      "kullanıcı</w>": 7991,
      "kullanıl": 7992,
      "kullanılabilir.</w>": 7993,
      "kullanılan</w>": 7994,
      "kullanılarak</w>": 7995,
      "kullanıld": 7996,
      "kullanıldı.</w>": 7997,
      "kullanıldığı</w>": 7998,
      "kullanılmaktadır.</w>": 7999,
      "kullanılması</w>": 8000,
      "kullanılmaya</w>": 8001,
      "kullanılmış</w>": 8002,
      "kullanılmıştır.</w>": 8003,
      "kullanılır.</w>": 8004,
      "kullanılır</w>": 8005,
      "kullanım": 8006,
      "kullanım</w>": 8007,
      "kullanıma</w>": 8008,
      "kullanımı</w>": 8009,
      "kullanımına</w>": 8010,
      "kullanımını</w>": 8011,
      "kullanır.</w>": 8012,
      "kulu</w>": 8013,
      "kulüb": 8014,
      "kulübü": 8015,
      "kulübü</w>": 8016,
      "kulübün</w>": 8017,
      "kulüp": 8018,
      "kulüp</w>": 8019,
      "kum": 8020,
      "kum</w>": 8021,
      "kumand": 8022,
      "kun": 8023,
      "kun</w>": 8024,
      "kup": 8025,
      "kupa</w>": 8026,
      "kupası'nda</w>": 8027,
      "kupası</w>": 8028,
      "kur": 8029,
      "kur'": 8030,
      "kur'an'da</w>": 8031,
      "kur'an'ın</w>": 8032,
      "kur'an</w>": 8033,
      "kurak": 8034,
      "kurak</w>": 8035,
      "kural": 8036,
      "kural</w>": 8037,
      "kurallar</w>": 8038,
      "kuralları</w>": 8039,
      "kuram": 8040,
      "kuram</w>": 8041,
      "kuramsal</w>": 8042,
      "kuramı</w>": 8043,
      "kuran</w>": 8044,
      "kurarak</w>": 8045,
      "kurban</w>": 8046,
      "kurdu.</w>": 8047,
      "kurdular.</w>": 8048,
      "kurduğu</w>": 8049,
      "kurgu</w>": 8050,
      "kurgusal</w>": 8051,
      "kurma</w>": 8052,
      "kurmak</w>": 8053,
      "kurmay</w>": 8054,
      "kurmaya</w>": 8055,
      "kurmuştur.</w>": 8056,
      "kuros": 8057,
      "kurt": 8058,
      "kurt</w>": 8059,
      "kurtar": 8060,
      "kurtul": 8061,
      "kurtuluş": 8062,
      "kurtuluş</w>": 8063,
      "kuru</w>": 8064,
      "kuruc": 8065,
      "kurucu": 8066,
      "kurucu</w>": 8067,
      "kurucularından</w>": 8068,
      "kurucusu</w>": 8069,
      "kurul": 8070,
      "kurulan</w>": 8071,
      "kuruldu.</w>": 8072,
      "kuruldu</w>": 8073,
      "kurulduğu</w>": 8074,
      "kurulması</w>": 8075,
      "kurulmasına</w>": 8076,
      "kurulmuş</w>": 8077,
      "kurulmuştur.</w>": 8078,
      "kurultay": 8079,
      "kurulu</w>": 8080,
      "kuruluş": 8081,
      "kuruluş</w>": 8082,
      "kuruluşlar</w>": 8083,
      "kuruluşları</w>": 8084,
      "kuruluşu</w>": 8085,
      "kurum": 8086,
      "kurum</w>": 8087,
      "kurumları</w>": 8088,
      "kurumsal</w>": 8089,
      "kurumu</w>": 8090,
      "kurş": 8091,
      "kurşun</w>": 8092,
      "kus": 8093,
      "kusur": 8094,
      "kut": 8095,
      "kutsal</w>": 8096,
      "kutup": 8097,
      "kutup</w>": 8098,
      "kuv": 8099,
      "kuvar": 8100,
      "kuvars</w>": 8101,
      "kuvvet": 8102,
      "kuvvet</w>": 8103,
      "kuvveti</w>": 8104,
      "kuvvetler": 8105,
      "kuvvetler</w>": 8106,
      "kuvvetleri,</w>": 8107,
      "kuvvetleri</w>": 8108,
      "kuvvetlerin</w>": 8109,
      "kuvvetlerinin</w>": 8110,
      "kuvvetli</w>": 8111,
      "kuy": 8112,
      "kuyr": 8113,
      "kuyruklu</w>": 8114,
      "kuz": 8115,
      "kuzey": 8116,
      "kuzey-": 8117,
      "kuzey</w>": 8118,
      "kuzeybatı</w>": 8119,
      "kuzeyde</w>": 8120,
      "kuzeyden</w>": 8121,
      "kuzeydoğu</w>": 8122,
      "kuzeye</w>": 8123,
      "kuzeyinde</w>": 8124,
      "kuzeyindeki</w>": 8125,
      "kuş": 8126,
      "kuş</w>": 8127,
      "kuşat": 8128,
      "kuşatma</w>": 8129,
      "kuşağı</w>": 8130,
      "kuşlar</w>": 8131,
      "kw": 8132,
      "ky": 8133,
      "ky</w>": 8134,
      "kz.</w>": 8135,
      "kâ": 8136,
      "kân": 8137,
      "kân</w>": 8138,
      "kâr": 8139,
      "kâr</w>": 8140,
      "kâzım</w>": 8141,
      "kâğ": 8142,
      "kâğıt</w>": 8143,
      "kâş": 8144,
      "kâşif</w>": 8145,
      "kö": 8146,
      "kök": 8147,
      "kök</w>": 8148,
      "köken": 8149,
      "köken</w>": 8150,
      "kökeni</w>": 8151,
      "kökenli</w>": 8152,
      "köklü</w>": 8153,
      "köl": 8154,
      "köle</w>": 8155,
      "köm": 8156,
      "kömür": 8157,
      "kömür</w>": 8158,
      "köp": 8159,
      "köpr": 8160,
      "köprü": 8161,
      "köprü</w>": 8162,
      "köprüsü</w>": 8163,
      "kör": 8164,
      "körf": 8165,
      "körfez": 8166,
      "körfezi</w>": 8167,
      "kötü</w>": 8168,
      "kötül": 8169,
      "köy": 8170,
      "köy</w>": 8171,
      "köylü": 8172,
      "köylü</w>": 8173,
      "köyü": 8174,
      "köyü</w>": 8175,
      "köyünde</w>": 8176,
      "köş": 8177,
      "köşe</w>": 8178,
      "köşk": 8179,
      "kû": 8180,
      "kü": 8181,
      "kü</w>": 8182,
      "küb": 8183,
      "küba</w>": 8184,
      "kübalı</w>": 8185,
      "kük": 8186,
      "kükür": 8187,
      "kül": 8188,
      "kül</w>": 8189,
      "külliy": 8190,
      "kültür": 8191,
      "kültür</w>": 8192,
      "kültürel</w>": 8193,
      "kültürü</w>": 8194,
      "kültürünün</w>": 8195,
      "küm": 8196,
      "küme</w>": 8197,
      "kümesi</w>": 8198,
      "küp": 8199,
      "kür": 8200,
      "küre</w>": 8201,
      "küresel</w>": 8202,
      "kürt": 8203,
      "kürt</w>": 8204,
      "küt": 8205,
      "kütah": 8206,
      "kütahya</w>": 8207,
      "kütl": 8208,
      "kütle</w>": 8209,
      "kütlesi</w>": 8210,
      "kütlesinin</w>": 8211,
      "kütleçek": 8212,
      "kütleçekim</w>": 8213,
      "kütüp": 8214,
      "kütüphan": 8215,
      "kütüphane</w>": 8216,
      "kütüphanesi</w>": 8217,
      "küç": 8218,
      "küçük": 8219,
      "küçük</w>": 8220,
      "küçül": 8221,
      "kı": 8222,
      "kı</w>": 8223,
      "kıbr": 8224,
      "kıbrıs": 8225,
      "kıbrıs</w>": 8226,
      "kıl": 8227,
      "kılın": 8228,
      "kılıç": 8229,
      "kılıç</w>": 8230,
      "kın": 8231,
      "kıp": 8232,
      "kır": 8233,
      "kır</w>": 8234,
      "kırg": 8235,
      "kırgız": 8236,
      "kırk": 8237,
      "kırk</w>": 8238,
      "kırklar": 8239,
      "kırmız": 8240,
      "kırmızı</w>": 8241,
      "kırsal</w>": 8242,
      "kırı</w>": 8243,
      "kırık": 8244,
      "kırıl": 8245,
      "kırım": 8246,
      "kırım</w>": 8247,
      "kıs": 8248,
      "kısa</w>": 8249,
      "kısaca</w>": 8250,
      "kısalt": 8251,
      "kısm": 8252,
      "kısmen</w>": 8253,
      "kısmi</w>": 8254,
      "kısmı</w>": 8255,
      "kısmında</w>": 8256,
      "kısmını</w>": 8257,
      "kısmının</w>": 8258,
      "kısım": 8259,
      "kısım</w>": 8260,
      "kısımları</w>": 8261,
      "kısıt": 8262,
      "kıt": 8263,
      "kıta</w>": 8264,
      "kıtasının</w>": 8265,
      "kıv": 8266,
      "kıy": 8267,
      "kıyaf": 8268,
      "kıyasla</w>": 8269,
      "kıymet": 8270,
      "kıyı</w>": 8271,
      "kıyılarında</w>": 8272,
      "kıyısı</w>": 8273,
      "kıyısında</w>": 8274,
      "kıyısındaki</w>": 8275,
      "kız": 8276,
      "kız</w>": 8277,
      "kızı</w>": 8278,
      "kızıl": 8279,
      "kızıl</w>": 8280,
      "kızılder": 8281,
      "kızılır": 8282,
      "kış": 8283,
      "kış</w>": 8284,
      "kışlar</w>": 8285,
      "kışları</w>": 8286,
      "kışın</w>": 8287,
      "l": 8288,
      "l'": 8289,
      "l,</w>": 8290,
      "l-": 8291,
      "l.</w>": 8292,
      "l</w>": 8293,
      "la": 8294,
      "la,</w>": 8295,
      "la</w>": 8296,
      "lab": 8297,
      "labor": 8298,
      "laborat": 8299,
      "laboratuvar": 8300,
      "laboratuvar</w>": 8301,
      "lac": 8302,
      "lad": 8303,
      "ladeş": 8304,
      "ladı.</w>": 8305,
      "ladı</w>": 8306,
      "ladıkları</w>": 8307,
      "ladılar.</w>": 8308,
      "ladığı</w>": 8309,
      "lag": 8310,
      "lah": 8311,
      "lak": 8312,
      "lak</w>": 8313,
      "lam": 8314,
      "lam</w>": 8315,
      "lama,</w>": 8316,
      "lama</w>": 8317,
      "lamak</w>": 8318,
      "lamaktadır.</w>": 8319,
      "lamalar</w>": 8320,
      "lamaları</w>": 8321,
      "laması</w>": 8322,
      "lamaya</w>": 8323,
      "lamb": 8324,
      "lamış</w>": 8325,
      "lamıştır.</w>": 8326,
      "lan": 8327,
      "lan,</w>": 8328,
      "lan</w>": 8329,
      "lanan</w>": 8330,
      "lanarak</w>": 8331,
      "land": 8332,
      "land,</w>": 8333,
      "land</w>": 8334,
      "landa,</w>": 8335,
      "landa</w>": 8336,
      "landalı</w>": 8337,
      "landı.</w>": 8338,
      "landı</w>": 8339,
      "landır": 8340,
      "landığı</w>": 8341,
      "langu": 8342,
      "lanma</w>": 8343,
      "lanmaktadır.</w>": 8344,
      "lanması</w>": 8345,
      "lanmış</w>": 8346,
      "lanmıştır.</w>": 8347,
      "lant": 8348,
      "lanır.</w>": 8349,
      "lap": 8350,
      "lar": 8351,
      "lar\"</w>": 8352,
      "lar'ın</w>": 8353,
      "lar)</w>": 8354,
      "lar,</w>": 8355,
      "lar.</w>": 8356,
      "lar:</w>": 8357,
      "lar;</w>": 8358,
      "lar</w>": 8359,
      "lara,</w>": 8360,
      "lara</w>": 8361,
      "lararası</w>": 8362,
      "larca</w>": 8363,
      "lard": 8364,
      "larda,</w>": 8365,
      "larda</w>": 8366,
      "lardaki</w>": 8367,
      "lardan</w>": 8368,
      "lardı.</w>": 8369,
      "lardır": 8370,
      "lardır.</w>": 8371,
      "lardır</w>": 8372,
      "larken</w>": 8373,
      "larla</w>": 8374,
      "larlar.</w>": 8375,
      "ları": 8376,
      "ları\"</w>": 8377,
      "ları'na</w>": 8378,
      "ları'nda</w>": 8379,
      "ları'nın</w>": 8380,
      "ları)</w>": 8381,
      "ları,</w>": 8382,
      "ları.</w>": 8383,
      "ları:</w>": 8384,
      "ları</w>": 8385,
      "larıdır.</w>": 8386,
      "ların": 8387,
      "ların,</w>": 8388,
      "ların</w>": 8389,
      "larına</w>": 8390,
      "larınca</w>": 8391,
      "larınd": 8392,
      "larında,</w>": 8393,
      "larında</w>": 8394,
      "larındaki</w>": 8395,
      "larından,</w>": 8396,
      "larından</w>": 8397,
      "larını,</w>": 8398,
      "larını</w>": 8399,
      "larının,</w>": 8400,
      "larının</w>": 8401,
      "larıyla</w>": 8402,
      "las": 8403,
      "las</w>": 8404,
      "last": 8405,
      "lat": 8406,
      "latin</w>": 8407,
      "latinc": 8408,
      "latince</w>": 8409,
      "laur": 8410,
      "lav": 8411,
      "lav</w>": 8412,
      "law": 8413,
      "lawren": 8414,
      "lay": 8415,
      "layan</w>": 8416,
      "layarak</w>": 8417,
      "layıcı</w>": 8418,
      "layık</w>": 8419,
      "layıp</w>": 8420,
      "laz": 8421,
      "lağ": 8422,
      "laş": 8423,
      "laşma</w>": 8424,
      "laşmış</w>": 8425,
      "laştır": 8426,
      "le": 8427,
      "le)</w>": 8428,
      "le,</w>": 8429,
      "le</w>": 8430,
      "leb": 8431,
      "lec": 8432,
      "led": 8433,
      "led</w>": 8434,
      "ledi.</w>": 8435,
      "ledi</w>": 8436,
      "lediği</w>": 8437,
      "lee</w>": 8438,
      "lef": 8439,
      "left": 8440,
      "leh": 8441,
      "lehine</w>": 8442,
      "lehç": 8443,
      "lek": 8444,
      "lek</w>": 8445,
      "lem": 8446,
      "lem</w>": 8447,
      "leme</w>": 8448,
      "lemek</w>": 8449,
      "lemesi</w>": 8450,
      "len": 8451,
      "lendi.</w>": 8452,
      "lendir": 8453,
      "lenen</w>": 8454,
      "lenerek</w>": 8455,
      "lenin": 8456,
      "lenin</w>": 8457,
      "lenir.</w>": 8458,
      "lenme</w>": 8459,
      "lenmesi</w>": 8460,
      "lenmiş</w>": 8461,
      "lenmiştir.</w>": 8462,
      "lenn": 8463,
      "leon": 8464,
      "leonardo</w>": 8465,
      "leopol": 8466,
      "lep": 8467,
      "ler": 8468,
      "ler\"</w>": 8469,
[...]
