{
  "main": {
    "<pad>": 0,
    "<unk>": 1,
    "<bos>": 2,
    "<eos>": 3,
    "!": 4,
    "!\"</w>": 5,
    "!</w>": 6,
    "\"": 7,
    "\"),</w>": 8,
    "\")</w>": 9,
    "\",</w>": 10,
    "\"...": 11,
    "\".</w>": 12,
    "\";</w>": 13,
    "\"</w>": 14,
    "\"a</w>": 15,
    "\"al": 16,
    "\"b": 17,
    "\"ben</w>": 18,
    "\"bir</w>": 19,
    "\"bu</w>": 20,
    "\"büyük</w>": 21,
    "\"en</w>": 22,
    "\"her</w>": 23,
    "\"i</w>": 24,
    "\"in</w>": 25,
    "\"küçük</w>": 26,
    "\"n": 27,
    "\"ne</w>": 28,
    "\"nı</w>": 29,
    "\"nın</w>": 30,
    "\"o</w>": 31,
    "\"the</w>": 32,
    "\"tüm</w>": 33,
    "\"türk</w>": 34,
    "\"w": 35,
    "\"yeni</w>": 36,
    "\"|": 37,
    "\"|</w>": 38,
    "\"çok</w>": 39,
    "#": 40,
    "#ffff": 41,
    "#ffffff": 42,
    "$": 43,
    "$</w>": 44,
    "%": 45,
    "%0,": 46,
    "%1,": 47,
    "%10": 48,
    "%10</w>": 49,
    "%15": 50,
    "%2": 51,
    "%2,": 52,
    "%20": 53,
    "%25": 54,
    "%3": 55,
    "%3,": 56,
    "%4": 57,
    "%4,": 58,
    "%4.": 59,
    "%5": 60,
    "%5,": 61,
    "%50'": 62,
    "%6": 63,
    "%6,": 64,
    "%7": 65,
    "%7,": 66,
    "%8": 67,
    "%8,": 68,
    "%80'i</w>": 69,
    "%9": 70,
    "%</w>": 71,
    "&": 72,
    "&</w>": 73,
    "'": 74,
    "''": 75,
    "'''</w>": 76,
    "'',</w>": 77,
    "''</w>": 78,
    "',</w>": 79,
    "'</w>": 80,
    "'a,</w>": 81,
    "'a</w>": 82,
    "'d": 83,
    "'da,</w>": 84,
    "'da</w>": 85,
    "'dadır.</w>": 86,
    "'daki</w>": 87,
    "'dan,</w>": 88,
    "'dan</w>": 89,
    "'de,</w>": 90,
    "'de</w>": 91,
    "'dedir.</w>": 92,
    "'deki</w>": 93,
    "'den</w>": 94,
    "'dir.</w>": 95,
    "'dir</w>": 96,
    "'dur.</w>": 97,
    "'dür.</w>": 98,
    "'dır.</w>": 99,
    "'dır</w>": 100,
    "'e,</w>": 101,
    "'e</w>": 102,
    "'i,</w>": 103,
    "'i</w>": 104,
    "'in,</w>": 105,
    "'in</w>": 106,
    "'inci</w>": 107,
    "'inde</w>": 108,
    "'ini</w>": 109,
    "'inin</w>": 110,
    "'l-": 111,
    "'l</w>": 112,
    "'la</w>": 113,
    "'lar</w>": 114,
    "'ları</w>": 115,
    "'ların</w>": 116,
    "'le</w>": 117,
    "'ler</w>": 118,
    "'lerde</w>": 119,
    "'lere</w>": 120,
    "'lerin</w>": 121,
    "'li</w>": 122,
    "'lik</w>": 123,
    "'lu</w>": 124,
    "'luk</w>": 125,
    "'lü</w>": 126,
    "'lı</w>": 127,
    "'lık</w>": 128,
    "'n": 129,
    "'na,</w>": 130,
    "'na</w>": 131,
    "'nce</w>": 132,
    "'nd": 133,
    "'nda,</w>": 134,
    "'nda</w>": 135,
    "'ndaki</w>": 136,
    "'ndan</w>": 137,
    "'nde,</w>": 138,
    "'nde</w>": 139,
    "'ndeki</w>": 140,
    "'nden</w>": 141,
    "'ne</w>": 142,
    "'ni</w>": 143,
    "'nin,</w>": 144,
    "'nin</w>": 145,
    "'nu</w>": 146,
    "'nun,</w>": 147,
    "'nun</w>": 148,
    "'nün</w>": 149,
    "'nı</w>": 150,
    "'nın,</w>": 151,
    "'nın</w>": 152,
    "'s": 153,
    "'s</w>": 154,
    "'si</w>": 155,
    "'sinde</w>": 156,
    "'sine</w>": 157,
    "'sini</w>": 158,
    "'sinin</w>": 159,
    "'sı</w>": 160,
    "'sında</w>": 161,
    "'sını</w>": 162,
    "'sının</w>": 163,
    "'t-": 164,
    "'t</w>": 165,
    "'ta,</w>": 166,
    "'ta</w>": 167,
    "'taki</w>": 168,
    "'tan</w>": 169,
    "'te,</w>": 170,
    "'te</w>": 171,
    "'teki</w>": 172,
    "'ten</w>": 173,
    "'tir.</w>": 174,
    "'tur.</w>": 175,
    "'tür.</w>": 176,
    "'tır.</w>": 177,
    "'u</w>": 178,
    "'un,</w>": 179,
    "'un</w>": 180,
    "'unda</w>": 181,
    "'unu</w>": 182,
    "'y": 183,
    "'ya,</w>": 184,
    "'ya</w>": 185,
    "'ye,</w>": 186,
    "'ye</w>": 187,
    "'yi</w>": 188,
    "'yla</w>": 189,
    "'yle</w>": 190,
    "'yu</w>": 191,
    "'yı,</w>": 192,
    "'yı</w>": 193,
    "'ü</w>": 194,
    "'ün</w>": 195,
    "'ünü</w>": 196,
    "'ı,</w>": 197,
    "'ı</w>": 198,
    "'ın,</w>": 199,
    "'ın</w>": 200,
    "'ında</w>": 201,
    "(": 202,
    "(\"": 203,
    "(%": 204,
    "(%0,": 205,
    "(%</w>": 206,
    "('": 207,
    "(),</w>": 208,
    "()</w>": 209,
    "(+": 210,
    "(,</w>": 211,
    "(-": 212,
    "(1": 213,
    "(1):</w>": 214,
    "(1)</w>": 215,
    "(1,": 216,
    "(1-": 217,
    "(1.": 218,
    "(10": 219,
    "(10</w>": 220,
    "(12": 221,
    "(12</w>": 222,
    "(13": 223,
    "(14": 224,
    "(15": 225,
    "(157": 226,
    "(16": 227,
    "(17": 228,
    "(174": 229,
    "(176": 230,
    "(177": 231,
    "(178": 232,
    "(179": 233,
    "(18": 234,
    "(182": 235,
    "(183": 236,
    "(184": 237,
    "(185": 238,
    "(186": 239,
    "(187": 240,
    "(188": 241,
    "(189": 242,
    "(18</w>": 243,
    "(19": 244,
    "(190": 245,
    "(191": 246,
    "(1918)</w>": 247,
    "(192": 248,
    "(193": 249,
    "(194": 250,
    "(195": 251,
    "(196": 252,
    "(1962)</w>": 253,
    "(1964)</w>": 254,
    "(1965)</w>": 255,
    "(1966)</w>": 256,
    "(1967)</w>": 257,
    "(1968)</w>": 258,
    "(1969)</w>": 259,
    "(197": 260,
    "(1970)</w>": 261,
    "(1973)</w>": 262,
    "(1974)</w>": 263,
    "(1975)</w>": 264,
    "(1979)</w>": 265,
    "(1979-</w>": 266,
    "(198": 267,
    "(1981)</w>": 268,
    "(1982)</w>": 269,
    "(1983)</w>": 270,
    "(1984)</w>": 271,
    "(1985)</w>": 272,
    "(1986)</w>": 273,
    "(1987)</w>": 274,
    "(1988)</w>": 275,
    "(1989)</w>": 276,
    "(199": 277,
    "(1990)</w>": 278,
    "(1991)</w>": 279,
    "(1992)</w>": 280,
    "(1993)</w>": 281,
    "(1994)</w>": 282,
    "(1995)</w>": 283,
    "(1996)</w>": 284,
    "(1997)</w>": 285,
    "(1998)</w>": 286,
    "(1999)</w>": 287,
    "(1</w>": 288,
    "(2": 289,
    "(2)</w>": 290,
    "(2.": 291,
    "(2.</w>": 292,
    "(200": 293,
    "(2000)</w>": 294,
    "(2001)</w>": 295,
    "(2002)</w>": 296,
    "(2003)</w>": 297,
    "(2004)</w>": 298,
    "(2005)</w>": 299,
    "(2006)</w>": 300,
    "(2007)</w>": 301,
    "(2008)</w>": 302,
    "(2009)</w>": 303,
    "(201": 304,
    "(2010)</w>": 305,
    "(2011)</w>": 306,
    "(2012)</w>": 307,
    "(2013)</w>": 308,
    "(2022</w>": 309,
    "(20</w>": 310,
    "(2</w>": 311,
    "(3": 312,
    "(3.": 313,
    "(3</w>": 314,
    "(4": 315,
    "(4</w>": 316,
    "(5": 317,
    "(5</w>": 318,
    "(6": 319,
    "(6</w>": 320,
    "(7": 321,
    "(8": 322,
    "(9": 323,
    "(;</w>": 324,
    "(</w>": 325,
    "(a": 326,
    "(a)</w>": 327,
    "(a</w>": 328,
    "(ab": 329,
    "(abd": 330,
    "(abies</w>": 331,
    "(ac": 332,
    "(acer</w>": 333,
    "(ad": 334,
    "(ag": 335,
    "(ak": 336,
    "(al": 337,
    "(alman": 338,
    "(am": 339,
    "(amerika</w>": 340,
    "(an": 341,
    "(ap": 342,
    "(ar": 343,
    "(arapça:</w>": 344,
    "(as": 345,
    "(at": 346,
    "(aynı</w>": 347,
    "(b": 348,
    "(b.</w>": 349,
    "(batı</w>": 350,
    "(bazı</w>": 351,
    "(bir</w>": 352,
    "(bk": 353,
    "(bkz.</w>": 354,
    "(bu</w>": 355,
    "(bugün</w>": 356,
    "(bugünkü</w>": 357,
    "(büyük</w>": 358,
    "(c": 359,
    "(ch": 360,
    "(co": 361,
    "(con": 362,
    "(d": 363,
    "(d.": 364,
    "(d.</w>": 365,
    "(daha</w>": 366,
    "(dd-": 367,
    "(de-": 368,
    "(den": 369,
    "(di": 370,
    "(diğer</w>": 371,
    "(doğ": 372,
    "(doğu</w>": 373,
    "(dün": 374,
    "(dünya</w>": 375,
    "(e": 376,
    "(ed": 377,
    "(ek": 378,
    "(en": 379,
    "(en</w>": 380,
    "(ep": 381,
    "(er": 382,
    "(erkek</w>": 383,
    "(eski</w>": 384,
    "(f": 385,
    "(fal": 386,
    "(falco</w>": 387,
    "(fransız": 388,
    "(g": 389,
    "(genellikle</w>": 390,
    "(güney</w>": 391,
    "(günümüzde</w>": 392,
    "(h": 393,
    "(her</w>": 394,
    "(i": 395,
    "(iki</w>": 396,
    "(ilk</w>": 397,
    "(in": 398,
    "(is": 399,
    "(isbn</w>": 400,
    "(i̇": 401,
    "(i̇l</w>": 402,
    "(i̇n": 403,
    "(i̇ng.</w>": 404,
    "(i̇ngilizce": 405,
    "(i̇ngilizce)</w>": 406,
    "(i̇ngilizce:</w>": 407,
    "(i̇stanbul</w>": 408,
    "(j": 409,
    "(juniperus</w>": 410,
    "(k": 411,
    "(k-": 412,
    "(ka": 413,
    "(kadın": 414,
    "(kal": 415,
    "(kanun": 416,
    "(kanun:2972-madde": 417,
    "(kanun:2972-madde:23)</w>": 418,
    "(ko": 419,
    "(kon": 420,
    "(kuzey</w>": 421,
    "(kısa</w>": 422,
    "(l": 423,
    "(la": 424,
    "(lcm": 425,
    "(lss": 426,
    "(lssl-": 427,
    "(m": 428,
    "(m.": 429,
    "(m.ö.</w>": 430,
    "(ma": 431,
    "(mar": 432,
    "(msc": 433,
    "(msc-": 434,
    "(msc-6": 435,
    "(mö</w>": 436,
    "(n": 437,
    "(o": 438,
    "(o</w>": 439,
    "(osmanlı</w>": 440,
    "(p": 441,
    "(pf-": 442,
    "(pic": 443,
    "(pr": 444,
    "(pro": 445,
    "(r": 446,
    "(rep": 447,
    "(rus": 448,
    "(s": 449,
    "(sal": 450,
    "(sh": 451,
    "(ss-": 452,
    "(ssc": 453,
    "(su": 454,
    "(t": 455,
    "(tek": 456,
    "(th": 457,
    "(the</w>": 458,
    "(tr": 459,
    "(tv</w>": 460,
    "(tüi̇k</w>": 461,
    "(türk</w>": 462,
    "(türkiye)</w>": 463,
    "(türkç": 464,
    "(türkçe:</w>": 465,
    "(u": 466,
    "(uluslararası</w>": 467,
    "(v": 468,
    "(ve</w>": 469,
    "(veya</w>": 470,
    "(w": 471,
    "(x": 472,
    "(x)</w>": 473,
    "(y": 474,
    "(ya</w>": 475,
    "(yaklaşık</w>": 476,
    "(yani</w>": 477,
    "(yeni</w>": 478,
    "(yunanca:</w>": 479,
    "(yüksek</w>": 480,
    "(z": 481,
    "(ç": 482,
    "(çev": 483,
    "(ö.": 484,
    "(ö.</w>": 485,
    "(örn.</w>": 486,
    "(örneğin,</w>": 487,
    "(örneğin</w>": 488,
    "(özellikle</w>": 489,
    "(ş": 490,
    "(şimdiki</w>": 491,
    "(“": 492,
    ")": 493,
    ")\"</w>": 494,
    "))</w>": 495,
    "),</w>": 496,
    ")-": 497,
    ")-</w>": 498,
    ").": 499,
    ").</w>": 500,
    "):</w>": 501,
    ");</w>": 502,
    ")</w>": 503,
    "*": 504,
    "*</w>": 505,
    "+": 506,
    "+1</w>": 507,
    "+</w>": 508,
    ",": 509,
    ",\"</w>": 510,
    ",00": 511,
    ",000</w>": 512,
    ",5</w>": 513,
    ",</w>": 514,
    "-": 515,
    "--": 516,
    "----": 517,
    "--</w>": 518,
    "-0,": 519,
    "-10": 520,
    "-1</w>": 521,
    "-2</w>": 522,
    "-</w>": 523,
    "-amerikalı</w>": 524,
    "-d": 525,
    "-her": 526,
    "-i</w>": 527,
    "-lenin": 528,
    "-rus</w>": 529,
    "-u</w>": 530,
    "-w": 531,
    "-ı</w>": 532,
    ".": 533,
    ".\"": 534,
    ".\"</w>": 535,
    ".),</w>": 536,
    ".).</w>": 537,
    ".)</w>": 538,
    ".,</w>": 539,
    "..": 540,
    "...": 541,
    "...\"</w>": 542,
    "...)</w>": 543,
    "....": 544,
    "........": 545,
    "...</w>": 546,
    "..</w>": 547,
    ".0": 548,
    ".00": 549,
    ".000": 550,
    ".000'den</w>": 551,
    ".000'e</w>": 552,
    ".000'i</w>": 553,
    ".000),</w>": 554,
    ".000,</w>": 555,
    ".000-": 556,
    ".000.000</w>": 557,
    ".000</w>": 558,
    ".4": 559,
    ".8": 560,
    ".:</w>": 561,
    ".</w>": 562,
    ".bu</w>": 563,
    ".com": 564,
    ".com/": 565,
    ".com</w>": 566,
    ".edu": 567,
    ".net</w>": 568,
    ".org": 569,
    ".org</w>": 570,
    ".tr": 571,
    ".tr/": 572,
    ".tr</w>": 573,
    ".”</w>": 574,
    "/": 575,
    "//</w>": 576,
    "/</w>": 577,
    "/http://www.": 578,
    "/kadın</w>": 579,
    "/s": 580,
    "/s</w>": 581,
    "0": 582,
    "0'": 583,
    "0'a</w>": 584,
    "0'da</w>": 585,
    "0'dan</w>": 586,
    "0'de</w>": 587,
    "0'i</w>": 588,
    "0'ini</w>": 589,
    "0'lar</w>": 590,
    "0'larda</w>": 591,
    "0'ların</w>": 592,
    "0'ler</w>": 593,
    "0'lerde</w>": 594,
    "0'lerden</w>": 595,
    "0'lere</w>": 596,
    "0'lerin</w>": 597,
    "0'li</w>": 598,
    "0'lı</w>": 599,
    "0'lık</w>": 600,
    "0'ta</w>": 601,
    "0'tan</w>": 602,
    "0'te</w>": 603,
    "0'u</w>": 604,
    "0'ı</w>": 605,
    "0'ını</w>": 606,
    "0),</w>": 607,
    "0).</w>": 608,
    "0)</w>": 609,
    "0,": 610,
    "0,00": 611,
    "0,000</w>": 612,
    "0,</w>": 613,
    "0-": 614,
    "0-0</w>": 615,
    "0-14</w>": 616,
    "0-24</w>": 617,
    "0.": 618,
    "0.</w>": 619,
    "00": 620,
    "00-": 621,
    "0000": 622,
    "000</w>": 623,
    "00</w>": 624,
    "01</w>": 625,
    "02": 626,
    "02</w>": 627,
    "03": 628,
    "03</w>": 629,
    "04": 630,
    "04</w>": 631,
    "05": 632,
    "05</w>": 633,
    "06": 634,
    "06</w>": 635,
    "07": 636,
    "07</w>": 637,
    "08": 638,
    "08</w>": 639,
    "09": 640,
    "09</w>": 641,
    "0:</w>": 642,
    "0;</w>": 643,
    "0</w>": 644,
    "0–": 645,
    "0’": 646,
    "0’da</w>": 647,
    "0’lı</w>": 648,
    "1": 649,
    "1'": 650,
    "1'de,</w>": 651,
    "1'de</w>": 652,
    "1'deki</w>": 653,
    "1'den</w>": 654,
    "1'e</w>": 655,
    "1'i</w>": 656,
    "1'in</w>": 657,
    "1'ini</w>": 658,
    "1'lik</w>": 659,
    "1),</w>": 660,
    "1).</w>": 661,
    "1):</w>": 662,
    "1)</w>": 663,
    "1,": 664,
    "1,5</w>": 665,
    "1,</w>": 666,
    "1-": 667,
    "1-0</w>": 668,
    "1-1</w>": 669,
    "1-2</w>": 670,
    "1.": 671,
    "1.0": 672,
    "1.000</w>": 673,
    "1.0</w>": 674,
    "1.1</w>": 675,
    "1.5": 676,
    "1.5</w>": 677,
    "1.</w>": 678,
    "1/": 679,
    "10": 680,
    "10)</w>": 681,
    "10,": 682,
    "10,</w>": 683,
    "10-": 684,
    "10.": 685,
    "10.000</w>": 686,
    "10.</w>": 687,
    "100": 688,
    "100.000</w>": 689,
    "100.</w>": 690,
    "1000": 691,
    "1000</w>": 692,
    "100</w>": 693,
    "101</w>": 694,
    "105": 695,
    "105</w>": 696,
    "106": 697,
    "106</w>": 698,
    "107": 699,
    "1071</w>": 700,
    "108": 701,
    "108</w>": 702,
    "109": 703,
    "109</w>": 704,
    "10</w>": 705,
    "10–": 706,
    "11": 707,
    "11)</w>": 708,
    "11,": 709,
    "11,</w>": 710,
    "11-": 711,
    "11.": 712,
    "11.</w>": 713,
    "110": 714,
    "110</w>": 715,
    "112": 716,
    "113": 717,
    "114": 718,
    "115": 719,
    "115</w>": 720,
    "116": 721,
    "117": 722,
    "118": 723,
    "11</w>": 724,
    "12": 725,
    "12)</w>": 726,
    "12,": 727,
    "12,</w>": 728,
    "12-": 729,
    "12.": 730,
    "12.</w>": 731,
    "120": 732,
    "1200": 733,
    "1200</w>": 734,
    "120</w>": 735,
    "122": 736,
    "123": 737,
    "124": 738,
    "125": 739,
    "125</w>": 740,
    "126": 741,
    "127": 742,
    "128": 743,
    "128</w>": 744,
    "129": 745,
    "12</w>": 746,
    "13": 747,
    "13)</w>": 748,
    "13,": 749,
    "13-": 750,
    "13.": 751,
    "13.</w>": 752,
    "130": 753,
    "1300</w>": 754,
    "130</w>": 755,
    "132": 756,
    "133": 757,
    "134": 758,
    "135": 759,
    "136": 760,
    "137": 761,
    "138": 762,
    "139": 763,
    "13</w>": 764,
    "14": 765,
    "14'te</w>": 766,
    "14)</w>": 767,
    "14,": 768,
    "14,</w>": 769,
    "14-": 770,
    "14.": 771,
    "14.</w>": 772,
    "140": 773,
    "1400</w>": 774,
    "140</w>": 775,
    "142": 776,
    "143": 777,
    "144": 778,
    "145": 779,
    "1453</w>": 780,
    "146": 781,
    "147": 782,
    "148": 783,
    "149": 784,
    "14</w>": 785,
    "15": 786,
    "15'te</w>": 787,
    "15)</w>": 788,
    "15,</w>": 789,
    "15-": 790,
    "15-24</w>": 791,
    "15.": 792,
    "15.</w>": 793,
    "150": 794,
    "1500": 795,
    "1500</w>": 796,
    "150</w>": 797,
    "1517</w>": 798,
    "152": 799,
    "1520</w>": 800,
    "1521</w>": 801,
    "153": 802,
    "154": 803,
    "155": 804,
    "156": 805,
    "1566</w>": 806,
    "157": 807,
    "158": 808,
    "159": 809,
    "15</w>": 810,
    "16": 811,
    "16'da</w>": 812,
    "16)</w>": 813,
    "16,": 814,
    "16,</w>": 815,
    "16-": 816,
    "16.": 817,
    "16.</w>": 818,
    "160": 819,
    "1600": 820,
    "1600</w>": 821,
    "160</w>": 822,
    "162": 823,
    "163": 824,
    "164": 825,
    "165": 826,
    "166": 827,
    "167": 828,
    "168": 829,
    "169": 830,
    "16</w>": 831,
    "17": 832,
    "17'de</w>": 833,
    "17)</w>": 834,
    "17,": 835,
    "17-": 836,
    "17.": 837,
    "17.</w>": 838,
    "170": 839,
    "1700": 840,
    "170</w>": 841,
    "172": 842,
    "173": 843,
    "174": 844,
    "175": 845,
    "1750</w>": 846,
    "1757</w>": 847,
    "176": 848,
    "177": 849,
    "1774</w>": 850,
    "1778)</w>": 851,
    "1778</w>": 852,
    "178": 853,
    "1783</w>": 854,
    "1788</w>": 855,
    "1789</w>": 856,
    "179": 857,
    "1790</w>": 858,
    "1791)</w>": 859,
    "1791</w>": 860,
    "1792)</w>": 861,
    "1792</w>": 862,
    "1793)</w>": 863,
    "1793</w>": 864,
    "1794)</w>": 865,
    "1794</w>": 866,
    "1795</w>": 867,
    "1797)</w>": 868,
    "1797</w>": 869,
    "1798</w>": 870,
    "1799)</w>": 871,
    "1799</w>": 872,
    "17</w>": 873,
    "18": 874,
    "18'de</w>": 875,
    "18)</w>": 876,
    "18,": 877,
    "18-": 878,
    "18.": 879,
    "18.</w>": 880,
    "180": 881,
    "1800": 882,
    "1800)</w>": 883,
    "1800</w>": 884,
    "1801</w>": 885,
    "1802</w>": 886,
    "1803)</w>": 887,
    "1803</w>": 888,
    "1804)</w>": 889,
    "1804</w>": 890,
    "1805</w>": 891,
    "1806)</w>": 892,
    "1806</w>": 893,
    "1807</w>": 894,
    "1808</w>": 895,
    "1809)</w>": 896,
    "1809</w>": 897,
    "180</w>": 898,
    "181": 899,
    "1810)</w>": 900,
    "1810</w>": 901,
    "1811)</w>": 902,
    "1811</w>": 903,
    "1812)</w>": 904,
    "1812</w>": 905,
    "1813)</w>": 906,
    "1813</w>": 907,
    "1814)</w>": 908,
    "1814</w>": 909,
    "1815)</w>": 910,
    "1815</w>": 911,
    "1816</w>": 912,
    "1817)</w>": 913,
    "1817</w>": 914,
    "1818)</w>": 915,
    "1818</w>": 916,
    "1819)</w>": 917,
    "1819</w>": 918,
    "182": 919,
    "1820</w>": 920,
    "1821)</w>": 921,
    "1821</w>": 922,
    "1822)</w>": 923,
    "1822</w>": 924,
    "1823)</w>": 925,
    "1823</w>": 926,
    "1824)</w>": 927,
    "1824</w>": 928,
    "1825)</w>": 929,
    "1825</w>": 930,
    "1826)</w>": 931,
    "1826</w>": 932,
    "1827)</w>": 933,
    "1827</w>": 934,
    "1828)</w>": 935,
    "1828</w>": 936,
    "1829)</w>": 937,
    "1829</w>": 938,
    "183": 939,
    "1830)</w>": 940,
    "1830</w>": 941,
    "1831)</w>": 942,
    "1831</w>": 943,
    "1832)</w>": 944,
    "1832</w>": 945,
    "1833)</w>": 946,
    "1833</w>": 947,
    "1834)</w>": 948,
    "1834</w>": 949,
    "1835)</w>": 950,
    "1835</w>": 951,
    "1836)</w>": 952,
    "1836</w>": 953,
    "1837)</w>": 954,
    "1837</w>": 955,
    "1838</w>": 956,
    "1839)</w>": 957,
    "1839</w>": 958,
    "184": 959,
    "1840)</w>": 960,
    "1840</w>": 961,
    "1841)</w>": 962,
    "1841</w>": 963,
    "1842)</w>": 964,
    "1842</w>": 965,
    "1843)</w>": 966,
    "1843</w>": 967,
    "1844)</w>": 968,
    "1844</w>": 969,
    "1845)</w>": 970,
    "1845</w>": 971,
    "1846)</w>": 972,
    "1846</w>": 973,
    "1847)</w>": 974,
    "1847</w>": 975,
    "1848)</w>": 976,
    "1848</w>": 977,
    "1849)</w>": 978,
    "1849</w>": 979,
    "185": 980,
    "1850)</w>": 981,
    "1850</w>": 982,
    "1851)</w>": 983,
    "1851</w>": 984,
    "1852)</w>": 985,
    "1852</w>": 986,
    "1853)</w>": 987,
    "1853</w>": 988,
    "1854)</w>": 989,
    "1854</w>": 990,
    "1855)</w>": 991,
    "1855</w>": 992,
    "1856)</w>": 993,
    "1856</w>": 994,
    "1857)</w>": 995,
    "1857</w>": 996,
    "1858)</w>": 997,
    "1858</w>": 998,
    "1859)</w>": 999,
    "1859</w>": 1000,
    "186": 1001,
    "1860)</w>": 1002,
    "1860</w>": 1003,
    "1861)</w>": 1004,
    "1861</w>": 1005,
    "1862)</w>": 1006,
    "1862</w>": 1007,
    "1863)</w>": 1008,
    "1863</w>": 1009,
    "1864)</w>": 1010,
    "1864</w>": 1011,
    "1865)</w>": 1012,
    "1865</w>": 1013,
    "1866)</w>": 1014,
    "1866</w>": 1015,
    "1867)</w>": 1016,
    "1867</w>": 1017,
    "1868)</w>": 1018,
    "1868</w>": 1019,
    "1869)</w>": 1020,
    "1869</w>": 1021,
    "187": 1022,
    "1870)</w>": 1023,
    "1870</w>": 1024,
    "1871)</w>": 1025,
    "1871</w>": 1026,
    "1872)</w>": 1027,
    "1872</w>": 1028,
    "1873)</w>": 1029,
    "1873</w>": 1030,
    "1874)</w>": 1031,
    "1874</w>": 1032,
    "1875)</w>": 1033,
    "1875</w>": 1034,
    "1876'da</w>": 1035,
    "1876)</w>": 1036,
    "1876</w>": 1037,
    "1877'de</w>": 1038,
    "1877)</w>": 1039,
    "1877-": 1040,
    "1877</w>": 1041,
    "1878'de</w>": 1042,
    "1878)</w>": 1043,
    "1878</w>": 1044,
    "1879)</w>": 1045,
    "1879</w>": 1046,
    "188": 1047,
    "1880)</w>": 1048,
    "1880</w>": 1049,
    "1881)</w>": 1050,
    "1881</w>": 1051,
    "1882'de</w>": 1052,
    "1882)</w>": 1053,
    "1882</w>": 1054,
    "1883)</w>": 1055,
    "1883</w>": 1056,
    "1884)</w>": 1057,
    "1884</w>": 1058,
    "1885)</w>": 1059,
    "1885</w>": 1060,
    "1886)</w>": 1061,
    "1886</w>": 1062,
    "1887)</w>": 1063,
    "1887</w>": 1064,
    "1888'de</w>": 1065,
    "1888)</w>": 1066,
    "1888</w>": 1067,
    "1889)</w>": 1068,
    "1889</w>": 1069,
    "189": 1070,
    "1890)</w>": 1071,
    "1890</w>": 1072,
    "1891)</w>": 1073,
    "1891</w>": 1074,
    "1892)</w>": 1075,
    "1892</w>": 1076,
    "1893)</w>": 1077,
    "1893</w>": 1078,
    "1894)</w>": 1079,
    "1894</w>": 1080,
    "1895)</w>": 1081,
    "1895</w>": 1082,
    "1896)</w>": 1083,
    "1896</w>": 1084,
    "1897)</w>": 1085,
    "1897</w>": 1086,
    "1898)</w>": 1087,
    "1898</w>": 1088,
    "1899)</w>": 1089,
    "1899</w>": 1090,
    "18</w>": 1091,
    "19": 1092,
    "19'da</w>": 1093,
    "19)</w>": 1094,
    "19,": 1095,
    "19,</w>": 1096,
    "19-": 1097,
    "19.": 1098,
    "19.</w>": 1099,
    "190": 1100,
    "1900": 1101,
    "1900)</w>": 1102,
    "1900</w>": 1103,
    "1901'de</w>": 1104,
    "1901)</w>": 1105,
    "1901</w>": 1106,
    "1902'de</w>": 1107,
    "1902)</w>": 1108,
    "1902</w>": 1109,
    "1903)</w>": 1110,
    "1903</w>": 1111,
    "1904)</w>": 1112,
    "1904</w>": 1113,
    "1905'te</w>": 1114,
    "1905)</w>": 1115,
    "1905</w>": 1116,
    "1906'da</w>": 1117,
    "1906)</w>": 1118,
    "1906</w>": 1119,
    "1907'de</w>": 1120,
    "1907)</w>": 1121,
    "1907</w>": 1122,
    "1908'de</w>": 1123,
    "1908)</w>": 1124,
    "1908</w>": 1125,
    "1909'da</w>": 1126,
    "1909)</w>": 1127,
    "1909</w>": 1128,
    "190</w>": 1129,
    "191": 1130,
    "1910": 1131,
    "1910)</w>": 1132,
    "1910</w>": 1133,
    "1911'de</w>": 1134,
    "1911)</w>": 1135,
    "1911</w>": 1136,
    "1912'de</w>": 1137,
    "1912)</w>": 1138,
    "1912</w>": 1139,
    "1913'te</w>": 1140,
    "1913)</w>": 1141,
    "1913</w>": 1142,
    "1914": 1143,
    "1914'te</w>": 1144,
    "1914)</w>": 1145,
    "1914</w>": 1146,
    "1915": 1147,
    "1915'te</w>": 1148,
    "1915)</w>": 1149,
    "1915</w>": 1150,
    "1916'da</w>": 1151,
    "1916)</w>": 1152,
    "1916</w>": 1153,
    "1917": 1154,
    "1917'de</w>": 1155,
    "1917)</w>": 1156,
    "1917</w>": 1157,
    "1918": 1158,
    "1918'de</w>": 1159,
    "1918)</w>": 1160,
    "1918</w>": 1161,
    "1919": 1162,
    "1919'da</w>": 1163,
    "1919)</w>": 1164,
    "1919</w>": 1165,
    "192": 1166,
    "1920": 1167,
    "1920'de</w>": 1168,
    "1920'lerde</w>": 1169,
    "1920)</w>": 1170,
    "1920</w>": 1171,
    "1921'de</w>": 1172,
    "1921)</w>": 1173,
    "1921</w>": 1174,
    "1922'de</w>": 1175,
    "1922)</w>": 1176,
    "1922</w>": 1177,
    "1923'te</w>": 1178,
    "1923)</w>": 1179,
    "1923</w>": 1180,
    "1924'te</w>": 1181,
    "1924)</w>": 1182,
    "1924</w>": 1183,
    "1925'te</w>": 1184,
    "1925)</w>": 1185,
    "1925</w>": 1186,
    "1926'da</w>": 1187,
    "1926)</w>": 1188,
    "1926</w>": 1189,
    "1927'de</w>": 1190,
    "1927)</w>": 1191,
    "1927</w>": 1192,
    "1928'de</w>": 1193,
    "1928)</w>": 1194,
    "1928</w>": 1195,
    "1929'da</w>": 1196,
    "1929)</w>": 1197,
    "1929</w>": 1198,
    "193": 1199,
    "1930'": 1200,
    "1930'da</w>": 1201,
    "1930'larda</w>": 1202,
    "1930)</w>": 1203,
    "1930</w>": 1204,
    "1931'de</w>": 1205,
    "1931)</w>": 1206,
    "1931</w>": 1207,
    "1932'de</w>": 1208,
    "1932)</w>": 1209,
    "1932</w>": 1210,
    "1933'te</w>": 1211,
    "1933)</w>": 1212,
    "1933</w>": 1213,
    "1934'te</w>": 1214,
    "1934)</w>": 1215,
    "1934</w>": 1216,
    "1935'te</w>": 1217,
    "1935)</w>": 1218,
    "1935</w>": 1219,
    "1936'da</w>": 1220,
    "1936)</w>": 1221,
    "1936</w>": 1222,
    "1937'de</w>": 1223,
    "1937)</w>": 1224,
    "1937</w>": 1225,
    "1938'de</w>": 1226,
    "1938)</w>": 1227,
    "1938</w>": 1228,
    "1939'da</w>": 1229,
    "1939)</w>": 1230,
    "1939</w>": 1231,
    "194": 1232,
    "1940'": 1233,
    "1940'ta</w>": 1234,
    "1940)</w>": 1235,
    "1940</w>": 1236,
    "1941'de</w>": 1237,
    "1941)</w>": 1238,
    "1941</w>": 1239,
    "1942'de</w>": 1240,
    "1942)</w>": 1241,
    "1942</w>": 1242,
    "1943'te</w>": 1243,
    "1943)</w>": 1244,
    "1943</w>": 1245,
    "1944'te</w>": 1246,
    "1944)</w>": 1247,
    "1944</w>": 1248,
    "1945'te</w>": 1249,
    "1945)</w>": 1250,
    "1945</w>": 1251,
    "1946'da</w>": 1252,
    "1946)</w>": 1253,
    "1946</w>": 1254,
    "1947'de</w>": 1255,
    "1947)</w>": 1256,
    "1947</w>": 1257,
    "1948'de</w>": 1258,
    "1948)</w>": 1259,
    "1948</w>": 1260,
    "1949'da</w>": 1261,
    "1949)</w>": 1262,
    "1949</w>": 1263,
    "195": 1264,
    "1950": 1265,
    "1950'de</w>": 1266,
    "1950'lerde</w>": 1267,
    "1950'li</w>": 1268,
    "1950)</w>": 1269,
    "1950-": 1270,
    "1950</w>": 1271,
    "1951'de</w>": 1272,
    "1951)</w>": 1273,
    "1951</w>": 1274,
    "1952'de</w>": 1275,
    "1952)</w>": 1276,
    "1952</w>": 1277,
    "1953'te</w>": 1278,
    "1953)</w>": 1279,
    "1953</w>": 1280,
    "1954'te</w>": 1281,
    "1954)</w>": 1282,
    "1954</w>": 1283,
    "1955'te</w>": 1284,
    "1955)</w>": 1285,
    "1955</w>": 1286,
    "1956'da</w>": 1287,
    "1956)</w>": 1288,
    "1956</w>": 1289,
    "1957'de</w>": 1290,
    "1957)</w>": 1291,
    "1957</w>": 1292,
    "1958'de</w>": 1293,
    "1958)</w>": 1294,
    "1958</w>": 1295,
    "1959'da</w>": 1296,
    "1959)</w>": 1297,
    "1959</w>": 1298,
    "196": 1299,
    "1960'": 1300,
    "1960'larda</w>": 1301,
    "1960'ların</w>": 1302,
    "1960'lı</w>": 1303,
    "1960'ta</w>": 1304,
    "1960)</w>": 1305,
    "1960:</w>": 1306,
    "1960</w>": 1307,
    "1961'de</w>": 1308,
    "1961)</w>": 1309,
    "1961:</w>": 1310,
    "1961</w>": 1311,
    "1962'de</w>": 1312,
    "1962)</w>": 1313,
    "1962-": 1314,
    "1962:</w>": 1315,
    "1962</w>": 1316,
    "1963'te</w>": 1317,
    "1963)</w>": 1318,
    "1963:</w>": 1319,
    "1963</w>": 1320,
    "1964'te</w>": 1321,
    "1964)</w>": 1322,
    "1964:</w>": 1323,
    "1964</w>": 1324,
    "1965'te</w>": 1325,
    "1965)</w>": 1326,
    "1965:</w>": 1327,
    "1965</w>": 1328,
    "1966'da</w>": 1329,
    "1966)</w>": 1330,
    "1966:</w>": 1331,
    "1966</w>": 1332,
    "1967'de</w>": 1333,
    "1967)</w>": 1334,
    "1967:</w>": 1335,
    "1967</w>": 1336,
    "1968'de</w>": 1337,
    "1968)</w>": 1338,
    "1968:</w>": 1339,
    "1968</w>": 1340,
    "1969'da</w>": 1341,
    "1969)</w>": 1342,
    "1969:</w>": 1343,
    "1969</w>": 1344,
    "197": 1345,
    "1970'lerde</w>": 1346,
    "1970'lerin</w>": 1347,
    "1970'li</w>": 1348,
    "1970'te</w>": 1349,
    "1970)</w>": 1350,
    "1970-": 1351,
    "1970:</w>": 1352,
    "1970</w>": 1353,
    "1971'de</w>": 1354,
    "1971)</w>": 1355,
    "1971:</w>": 1356,
    "1971</w>": 1357,
    "1972'de</w>": 1358,
    "1972)</w>": 1359,
    "1972-": 1360,
    "1972</w>": 1361,
    "1973'te</w>": 1362,
    "1973)</w>": 1363,
    "1973:</w>": 1364,
    "1973</w>": 1365,
    "1974'te</w>": 1366,
    "1974)</w>": 1367,
    "1974:</w>": 1368,
    "1974</w>": 1369,
    "1975'te</w>": 1370,
    "1975)</w>": 1371,
    "1975:</w>": 1372,
    "1975</w>": 1373,
    "1976'da</w>": 1374,
    "1976)</w>": 1375,
    "1976-": 1376,
    "1976:</w>": 1377,
    "1976</w>": 1378,
    "1977'de</w>": 1379,
    "1977)</w>": 1380,
    "1977:</w>": 1381,
    "1977</w>": 1382,
    "1978'de</w>": 1383,
    "1978)</w>": 1384,
    "1978:</w>": 1385,
    "1978</w>": 1386,
    "1979'da</w>": 1387,
    "1979)</w>": 1388,
    "1979:</w>": 1389,
    "1979</w>": 1390,
    "198": 1391,
    "1980": 1392,
    "1980'de</w>": 1393,
    "1980'lerde</w>": 1394,
    "1980'lerin</w>": 1395,
    "1980'li</w>": 1396,
    "1980):</w>": 1397,
    "1980)</w>": 1398,
    "1980-": 1399,
    "1980:</w>": 1400,
    "1980</w>": 1401,
    "1981'de</w>": 1402,
    "1981)</w>": 1403,
    "1981:</w>": 1404,
    "1981</w>": 1405,
    "1982'de</w>": 1406,
    "1982)</w>": 1407,
    "1982:</w>": 1408,
    "1982</w>": 1409,
    "1983'te</w>": 1410,
    "1983)</w>": 1411,
    "1983-": 1412,
    "1983:</w>": 1413,
    "1983</w>": 1414,
    "1984'te</w>": 1415,
    "1984)</w>": 1416,
    "1984-": 1417,
    "1984:</w>": 1418,
    "1984</w>": 1419,
    "1985'te</w>": 1420,
    "1985)</w>": 1421,
    "1985:</w>": 1422,
    "1985</w>": 1423,
    "1986'da</w>": 1424,
    "1986)</w>": 1425,
    "1986:</w>": 1426,
    "1986</w>": 1427,
    "1987'de</w>": 1428,
    "1987)</w>": 1429,
    "1987-": 1430,
    "1987:</w>": 1431,
    "1987</w>": 1432,
    "1988'de</w>": 1433,
    "1988)</w>": 1434,
    "1988:</w>": 1435,
    "1988</w>": 1436,
    "1989'da</w>": 1437,
    "1989)</w>": 1438,
    "1989-": 1439,
    "1989:</w>": 1440,
    "1989</w>": 1441,
    "199": 1442,
    "1990'": 1443,
    "1990'da</w>": 1444,
    "1990'larda</w>": 1445,
    "1990'ların</w>": 1446,
    "1990'lı</w>": 1447,
    "1990)</w>": 1448,
    "1990-": 1449,
    "1990:</w>": 1450,
    "1990</w>": 1451,
    "1991'de</w>": 1452,
    "1991)</w>": 1453,
    "1991:</w>": 1454,
    "1991</w>": 1455,
    "1992'de</w>": 1456,
    "1992)</w>": 1457,
    "1992:</w>": 1458,
    "1992</w>": 1459,
    "1993'te</w>": 1460,
    "1993)</w>": 1461,
    "1993,</w>": 1462,
    "1993-": 1463,
    "1993:</w>": 1464,
    "1993</w>": 1465,
    "1994'te</w>": 1466,
    "1994)</w>": 1467,
    "1994-": 1468,
    "1994:</w>": 1469,
    "1994</w>": 1470,
    "1995'te</w>": 1471,
    "1995)</w>": 1472,
    "1995:</w>": 1473,
    "1995</w>": 1474,
    "1996'da</w>": 1475,
    "1996)</w>": 1476,
    "1996-": 1477,
    "1996:</w>": 1478,
    "1996</w>": 1479,
    "1997'de</w>": 1480,
    "1997)</w>": 1481,
    "1997:</w>": 1482,
    "1997</w>": 1483,
    "1998'de</w>": 1484,
    "1998)</w>": 1485,
    "1998,</w>": 1486,
    "1998-": 1487,
    "1998:</w>": 1488,
    "1998</w>": 1489,
    "1999'da</w>": 1490,
    "1999)</w>": 1491,
    "1999,</w>": 1492,
    "1999-": 1493,
    "1999:</w>": 1494,
    "1999</w>": 1495,
    "19</w>": 1496,
    "1:": 1497,
    "1:</w>": 1498,
    "1;</w>": 1499,
    "1</w>": 1500,
    "1–": 1501,
    "1’de</w>": 1502,
    "1⁄": 1503,
    "1⁄2</w>": 1504,
    "2": 1505,
    "2\"</w>": 1506,
    "2'de,</w>": 1507,
    "2'de</w>": 1508,
    "2'deki</w>": 1509,
    "2'den</w>": 1510,
    "2'nin</w>": 1511,
    "2'si</w>": 1512,
    "2'ye</w>": 1513,
    "2),</w>": 1514,
    "2).</w>": 1515,
    "2):</w>": 1516,
    "2)</w>": 1517,
    "2,": 1518,
    "2,5</w>": 1519,
    "2,</w>": 1520,
    "2-": 1521,
    "2-0</w>": 1522,
    "2-1</w>": 1523,
    "2-3</w>": 1524,
    "2.": 1525,
    "2.000</w>": 1526,
    "2.0</w>": 1527,
    "2.500</w>": 1528,
    "2.5</w>": 1529,
    "2.</w>": 1530,
    "2/": 1531,
    "20": 1532,
    "20)</w>": 1533,
    "20,</w>": 1534,
    "20-": 1535,
    "20.": 1536,
    "20.000</w>": 1537,
    "20.</w>": 1538,
    "200": 1539,
    "200.000</w>": 1540,
    "2000": 1541,
    "2000'de</w>": 1542,
    "2000'lerin</w>": 1543,
    "2000'li</w>": 1544,
    "2000)</w>": 1545,
    "2000,</w>": 1546,
    "2000-": 1547,
    "2000:</w>": 1548,
    "2000</w>": 1549,
    "2001'de</w>": 1550,
    "2001)</w>": 1551,
    "2001-": 1552,
    "2001:</w>": 1553,
    "2001</w>": 1554,
    "2002'de</w>": 1555,
    "2002)</w>": 1556,
    "2002-": 1557,
    "2002:</w>": 1558,
    "2002</w>": 1559,
    "2003'te</w>": 1560,
    "2003)</w>": 1561,
    "2003-": 1562,
    "2003:</w>": 1563,
    "2003</w>": 1564,
    "2004'te</w>": 1565,
    "2004)</w>": 1566,
    "2004,</w>": 1567,
    "2004-": 1568,
    "2004.</w>": 1569,
    "2004:</w>": 1570,
    "2004</w>": 1571,
    "2005'te</w>": 1572,
    "2005)</w>": 1573,
    "2005,</w>": 1574,
    "2005-": 1575,
    "2005:</w>": 1576,
    "2005</w>": 1577,
    "2006'da</w>": 1578,
    "2006)</w>": 1579,
    "2006-": 1580,
    "2006</w>": 1581,
    "2007": 1582,
    "2007'de</w>": 1583,
    "2007)</w>": 1584,
    "2007,</w>": 1585,
    "2007-": 1586,
    "2007:</w>": 1587,
    "2007</w>": 1588,
    "2008'de</w>": 1589,
    "2008)</w>": 1590,
    "2008-": 1591,
    "2008.</w>": 1592,
    "2008:</w>": 1593,
    "2008</w>": 1594,
    "2009'da</w>": 1595,
    "2009)</w>": 1596,
    "2009-": 1597,
    "2009:</w>": 1598,
    "2009</w>": 1599,
    "200</w>": 1600,
    "201": 1601,
    "2010'da</w>": 1602,
    "2010)</w>": 1603,
    "2010-": 1604,
    "2010</w>": 1605,
    "2011'de</w>": 1606,
    "2011)</w>": 1607,
    "2011-": 1608,
    "2011:</w>": 1609,
    "2011</w>": 1610,
    "2012'de</w>": 1611,
    "2012)</w>": 1612,
    "2012-": 1613,
    "2012:</w>": 1614,
    "2012</w>": 1615,
    "2013'te</w>": 1616,
    "2013)</w>": 1617,
    "2013-": 1618,
    "2013</w>": 1619,
    "2014'te</w>": 1620,
    "2014)</w>": 1621,
    "2014-": 1622,
    "2014</w>": 1623,
    "2015'te</w>": 1624,
    "2015)</w>": 1625,
    "2015</w>": 1626,
    "2016'da</w>": 1627,
    "2016)</w>": 1628,
    "2016</w>": 1629,
    "2017'de</w>": 1630,
    "2017)</w>": 1631,
    "2017</w>": 1632,
    "2018": 1633,
    "2018'de</w>": 1634,
    "2018)</w>": 1635,
    "2018-": 1636,
    "2018-2019</w>": 1637,
    "2018</w>": 1638,
    "2019": 1639,
    "2019'da</w>": 1640,
    "2019)</w>": 1641,
    "2019-": 1642,
    "2019</w>": 1643,
    "202": 1644,
    "2020": 1645,
    "2020'de</w>": 1646,
    "2020)</w>": 1647,
    "2020</w>": 1648,
    "2021'de</w>": 1649,
    "2021)</w>": 1650,
    "2021</w>": 1651,
    "2022'de</w>": 1652,
    "2022)</w>": 1653,
    "2022-": 1654,
    "2022</w>": 1655,
    "2023)</w>": 1656,
    "2023</w>": 1657,
    "20</w>": 1658,
    "21": 1659,
    "21.": 1660,
    "21.</w>": 1661,
    "21</w>": 1662,
    "22": 1663,
    "22.": 1664,
    "22.</w>": 1665,
    "22</w>": 1666,
    "23": 1667,
    "23.</w>": 1668,
    "230</w>": 1669,
    "23</w>": 1670,
    "24": 1671,
    "24.": 1672,
    "24.</w>": 1673,
    "24</w>": 1674,
    "25": 1675,
    "25'te</w>": 1676,
    "25-": 1677,
    "25-54</w>": 1678,
    "25.": 1679,
    "25.000</w>": 1680,
    "25.</w>": 1681,
    "250": 1682,
    "2500</w>": 1683,
    "250</w>": 1684,
    "255.": 1685,
    "25</w>": 1686,
    "26": 1687,
    "26.</w>": 1688,
    "26</w>": 1689,
    "27": 1690,
    "27.": 1691,
    "27.</w>": 1692,
    "270</w>": 1693,
    "27</w>": 1694,
    "28": 1695,
    "28.": 1696,
    "28.</w>": 1697,
    "28</w>": 1698,
    "29": 1699,
    "29,": 1700,
    "29.": 1701,
    "29.</w>": 1702,
    "29</w>": 1703,
    "2:": 1704,
    "2:</w>": 1705,
    "2;</w>": 1706,
    "2</w>": 1707,
    "2–": 1708,
    "2’de</w>": 1709,
    "3": 1710,
    "3'": 1711,
    "3'e</w>": 1712,
    "3'te,</w>": 1713,
    "3'te</w>": 1714,
    "3'teki</w>": 1715,
    "3'ten</w>": 1716,
    "3'ü</w>": 1717,
    "3'ün</w>": 1718,
    "3),</w>": 1719,
    "3).</w>": 1720,
    "3)</w>": 1721,
    "3,": 1722,
    "3,5</w>": 1723,
    "3,</w>": 1724,
    "3-": 1725,
    "3-0</w>": 1726,
    "3-1</w>": 1727,
    "3-2</w>": 1728,
    "3.": 1729,
    "3.0": 1730,
    "3.000</w>": 1731,
    "3.</w>": 1732,
    "3/": 1733,
    "30": 1734,
    "30'da</w>": 1735,
    "30,</w>": 1736,
    "30-": 1737,
    "30.": 1738,
    "30.000</w>": 1739,
    "30.</w>": 1740,
    "300": 1741,
    "300.000</w>": 1742,
    "3000</w>": 1743,
    "300</w>": 1744,
    "30</w>": 1745,
    "31.</w>": 1746,
    "31</w>": 1747,
    "32": 1748,
    "32.</w>": 1749,
    "320</w>": 1750,
    "32</w>": 1751,
    "33": 1752,
    "330</w>": 1753,
    "33</w>": 1754,
    "34": 1755,
    "34</w>": 1756,
    "35": 1757,
    "35.</w>": 1758,
    "350</w>": 1759,
    "35</w>": 1760,
    "36": 1761,
    "360</w>": 1762,
    "365</w>": 1763,
    "36</w>": 1764,
    "37": 1765,
    "37</w>": 1766,
    "38": 1767,
    "38</w>": 1768,
    "39": 1769,
    "39</w>": 1770,
    "3:": 1771,
    "3:</w>": 1772,
    "3;</w>": 1773,
    "3</w>": 1774,
    "3–": 1775,
    "3’te</w>": 1776,
    "4": 1777,
    "4'": 1778,
    "4'e</w>": 1779,
    "4'te,</w>": 1780,
    "4'te</w>": 1781,
    "4'teki</w>": 1782,
    "4'ten</w>": 1783,
    "4'ü</w>": 1784,
    "4'ün</w>": 1785,
    "4),</w>": 1786,
    "4).</w>": 1787,
    "4)</w>": 1788,
    "4,": 1789,
    "4,5</w>": 1790,
    "4,</w>": 1791,
    "4-": 1792,
    "4.": 1793,
    "4.000</w>": 1794,
    "4.</w>": 1795,
    "4/": 1796,
    "40": 1797,
    "40.000</w>": 1798,
    "400": 1799,
    "4000</w>": 1800,
    "400</w>": 1801,
    "40</w>": 1802,
    "41</w>": 1803,
    "42": 1804,
    "42</w>": 1805,
    "43": 1806,
    "43</w>": 1807,
    "44": 1808,
    "44</w>": 1809,
    "45": 1810,
    "45'": 1811,
    "45'lik</w>": 1812,
    "450</w>": 1813,
    "45</w>": 1814,
    "46": 1815,
    "46</w>": 1816,
    "47": 1817,
    "47</w>": 1818,
    "48": 1819,
    "48</w>": 1820,
    "49": 1821,
    "49</w>": 1822,
    "4:</w>": 1823,
    "4;</w>": 1824,
    "4</w>": 1825,
    "4–": 1826,
    "4’te</w>": 1827,
    "5": 1828,
    "5'": 1829,
    "5'e</w>": 1830,
    "5'i</w>": 1831,
    "5'in</w>": 1832,
    "5'ini</w>": 1833,
    "5'te,</w>": 1834,
    "5'te</w>": 1835,
    "5'teki</w>": 1836,
    "5'ten</w>": 1837,
    "5),</w>": 1838,
    "5).</w>": 1839,
    "5)</w>": 1840,
    "5,": 1841,
    "5,</w>": 1842,
    "5-": 1843,
    "5.": 1844,
    "5.000</w>": 1845,
    "5.</w>": 1846,
    "5/": 1847,
    "50": 1848,
    "50,</w>": 1849,
    "50.000</w>": 1850,
    "50.</w>": 1851,
    "500": 1852,
    "500.000</w>": 1853,
    "5000</w>": 1854,
    "500</w>": 1855,
    "50</w>": 1856,
    "51</w>": 1857,
    "52": 1858,
    "52</w>": 1859,
    "53": 1860,
    "53</w>": 1861,
    "54": 1862,
    "54</w>": 1863,
    "55": 1864,
    "55-": 1865,
    "55-64</w>": 1866,
    "550</w>": 1867,
    "55</w>": 1868,
    "56": 1869,
    "56</w>": 1870,
    "57": 1871,
    "57</w>": 1872,
    "58": 1873,
    "58</w>": 1874,
    "59": 1875,
    "59</w>": 1876,
    "5:</w>": 1877,
    "5;</w>": 1878,
    "5</w>": 1879,
    "5–": 1880,
    "5’te</w>": 1881,
    "6": 1882,
    "6'da,</w>": 1883,
    "6'da</w>": 1884,
    "6'daki</w>": 1885,
    "6'dan</w>": 1886,
    "6'sı</w>": 1887,
    "6'ya</w>": 1888,
    "6),</w>": 1889,
    "6).</w>": 1890,
    "6)</w>": 1891,
    "6,": 1892,
    "6,</w>": 1893,
    "6-": 1894,
    "6-7</w>": 1895,
    "6.": 1896,
    "6.000</w>": 1897,
    "6.</w>": 1898,
    "60": 1899,
    "60.000</w>": 1900,
    "600": 1901,
    "600</w>": 1902,
    "60</w>": 1903,
    "61</w>": 1904,
    "62": 1905,
    "62</w>": 1906,
    "63": 1907,
    "63</w>": 1908,
    "64": 1909,
    "64</w>": 1910,
    "65": 1911,
    "650</w>": 1912,
    "65</w>": 1913,
    "66": 1914,
    "66</w>": 1915,
    "67": 1916,
    "67</w>": 1917,
    "68": 1918,
    "68</w>": 1919,
    "69": 1920,
    "69</w>": 1921,
    "6:": 1922,
    "6:</w>": 1923,
    "6</w>": 1924,
    "6–": 1925,
    "6’da</w>": 1926,
    "7": 1927,
    "7'de,</w>": 1928,
    "7'de</w>": 1929,
    "7'deki</w>": 1930,
    "7'den</w>": 1931,
    "7'nin</w>": 1932,
    "7'si</w>": 1933,
    "7'ye</w>": 1934,
    "7),</w>": 1935,
    "7).</w>": 1936,
    "7)</w>": 1937,
    "7,": 1938,
    "7,</w>": 1939,
    "7-": 1940,
    "7.": 1941,
    "7.</w>": 1942,
    "70": 1943,
    "700": 1944,
    "700</w>": 1945,
    "70</w>": 1946,
    "71</w>": 1947,
    "72</w>": 1948,
    "73": 1949,
    "73</w>": 1950,
    "74": 1951,
    "74</w>": 1952,
    "75": 1953,
    "750</w>": 1954,
    "75</w>": 1955,
    "76": 1956,
    "76</w>": 1957,
    "77": 1958,
    "77</w>": 1959,
    "78": 1960,
    "78</w>": 1961,
    "79": 1962,
    "79</w>": 1963,
    "7:</w>": 1964,
    "7</w>": 1965,
    "7–": 1966,
    "7’de</w>": 1967,
    "8": 1968,
    "8'de,</w>": 1969,
    "8'de</w>": 1970,
    "8'deki</w>": 1971,
    "8'den</w>": 1972,
    "8'e</w>": 1973,
    "8'i</w>": 1974,
    "8'in</w>": 1975,
    "8),</w>": 1976,
    "8).</w>": 1977,
    "8)</w>": 1978,
    "8,": 1979,
    "8,</w>": 1980,
    "8-": 1981,
    "8.": 1982,
    "8.</w>": 1983,
    "80": 1984,
    "80.000</w>": 1985,
    "800": 1986,
    "800</w>": 1987,
    "802.": 1988,
    "80</w>": 1989,
    "81</w>": 1990,
    "82": 1991,
    "82</w>": 1992,
    "83": 1993,
    "83</w>": 1994,
    "84": 1995,
    "84</w>": 1996,
    "85": 1997,
    "85</w>": 1998,
    "86": 1999,
    "86</w>": 2000,
    "87": 2001,
    "87</w>": 2002,
    "88": 2003,
    "88</w>": 2004,
    "89": 2005,
    "89</w>": 2006,
    "8:</w>": 2007,
    "8;</w>": 2008,
    "8</w>": 2009,
    "8–": 2010,
    "8’de</w>": 2011,
    "9": 2012,
    "9'": 2013,
    "9'a</w>": 2014,
    "9'da,</w>": 2015,
    "9'da</w>": 2016,
    "9'daki</w>": 2017,
    "9'dan</w>": 2018,
    "9'u</w>": 2019,
    "9),</w>": 2020,
    "9).</w>": 2021,
    "9)</w>": 2022,
    "9,": 2023,
    "9,</w>": 2024,
    "9-": 2025,
    "9-</w>": 2026,
    "9.": 2027,
    "9.</w>": 2028,
    "90": 2029,
    "90'lı</w>": 2030,
    "900": 2031,
    "900</w>": 2032,
    "90</w>": 2033,
    "91</w>": 2034,
    "92": 2035,
    "92</w>": 2036,
    "93": 2037,
    "93</w>": 2038,
    "94": 2039,
    "94</w>": 2040,
    "95": 2041,
    "95</w>": 2042,
    "96": 2043,
    "96</w>": 2044,
    "97": 2045,
    "972-": 2046,
    "975": 2047,
    "975-": 2048,
    "978": 2049,
    "978-": 2050,
    "978-0-": 2051,
    "978-975-": 2052,
    "97</w>": 2053,
    "98": 2054,
    "98</w>": 2055,
    "99": 2056,
    "99</w>": 2057,
    "9:</w>": 2058,
    "9;</w>": 2059,
    "9</w>": 2060,
    "9–": 2061,
    "9’da</w>": 2062,
    ":": 2063,
    ":\"": 2064,
    ":#": 2065,
    ":/": 2066,
    "://": 2067,
    ":0": 2068,
    ":1-": 2069,
    ":1–": 2070,
    ":2": 2071,
    ":</w>": 2072,
    ";": 2073,
    ";\"</w>": 2074,
    ";\"|": 2075,
    ";</w>": 2076,
    "<": 2077,
    "</": 2078,
    "</w>": 2079,
    "<</w>": 2080,
    "<b": 2081,
    "<başla></w>": 2082,
    "<bitiş></w>": 2083,
    "<center": 2084,
    "<center>": 2085,
    "<enter></w>": 2086,
    "<ref": 2087,
    "<small": 2088,
    "<small>": 2089,
    "=": 2090,
    "=\"": 2091,
    "=</w>": 2092,
    ">": 2093,
    "></w>": 2094,
    "?": 2095,
    "?\"</w>": 2096,
    "?)</w>": 2097,
    "?:</w>": 2098,
    "?</w>": 2099,
    "@": 2100,
    "[": 2101,
    "[...": 2102,
    "[[": 2103,
    "\\": 2104,
    "]": 2105,
    "],</w>": 2106,
    "]</w>": 2107,
    "]]</w>": 2108,
    "^": 2109,
    "^</w>": 2110,
    "_": 2111,
    "`": 2112,
    "a": 2113,
    "a\"": 2114,
    "a\",</w>": 2115,
    "a\"</w>": 2116,
    "a'": 2117,
    "a'da</w>": 2118,
    "a'daki</w>": 2119,
    "a'dan</w>": 2120,
    "a'dır.</w>": 2121,
    "a'nın</w>": 2122,
    "a'ya</w>": 2123,
    "a'yı</w>": 2124,
    "a),</w>": 2125,
    "a).</w>": 2126,
    "a)</w>": 2127,
    "a,</w>": 2128,
    "a-": 2129,
    "a-i</w>": 2130,
    "a.": 2131,
    "a.</w>": 2132,
    "a.ş": 2133,
    "a.ş.</w>": 2134,
    "a/": 2135,
    "a:</w>": 2136,
    "a;</w>": 2137,
    "a</w>": 2138,
    "aa": 2139,
    "aa</w>": 2140,
    "aan</w>": 2141,
    "aar": 2142,
    "aaron</w>": 2143,
    "aat": 2144,
    "aat</w>": 2145,
    "ab": 2146,
    "ab,</w>": 2147,
    "ab</w>": 2148,
    "aba</w>": 2149,
    "abad</w>": 2150,
    "abasıyan": 2151,
    "abbas": 2152,
    "abbas</w>": 2153,
    "abbasi</w>": 2154,
    "abbâ": 2155,
    "abd": 2156,
    "abd'de</w>": 2157,
    "abd'deki</w>": 2158,
    "abd'li</w>": 2159,
    "abd'nin</w>": 2160,
    "abd'ye</w>": 2161,
    "abd,</w>": 2162,
    "abd</w>": 2163,
    "abdal": 2164,
    "abdal</w>": 2165,
    "abdi</w>": 2166,
    "abdul": 2167,
    "abdullah": 2168,
    "abdullah</w>": 2169,
    "abdur": 2170,
    "abdurrahman</w>": 2171,
    "abdü": 2172,
    "abdül": 2173,
    "abdülaz": 2174,
    "abdülaziz</w>": 2175,
    "abdülham": 2176,
    "abdülhamid": 2177,
    "abdülhamid'in</w>": 2178,
    "abdülhamid,</w>": 2179,
    "abdülhamid</w>": 2180,
    "abdülhamit</w>": 2181,
    "abdülk": 2182,
    "abdülkadir</w>": 2183,
    "abdülmec": 2184,
    "abdülmecid</w>": 2185,
    "abel,</w>": 2186,
    "abel</w>": 2187,
    "aber": 2188,
    "abet": 2189,
    "abeth</w>": 2190,
    "abhaz": 2191,
    "abi</w>": 2192,
    "abid": 2193,
    "abil": 2194,
    "abilecek</w>": 2195,
    "abileceği</w>": 2196,
    "abileceğini</w>": 2197,
    "abilen</w>": 2198,
    "abilir": 2199,
    "abilir,</w>": 2200,
    "abilir.</w>": 2201,
    "abilir</w>": 2202,
    "abilirler.</w>": 2203,
    "abilmek</w>": 2204,
    "abilmektedir.</w>": 2205,
    "abilmesi</w>": 2206,
    "able</w>": 2207,
    "abol": 2208,
    "abon": 2209,
    "abrah": 2210,
    "abraham</w>": 2211,
    "abı</w>": 2212,
    "ac": 2213,
    "ac,</w>": 2214,
    "ac</w>": 2215,
    "aca</w>": 2216,
    "academ": 2217,
    "acak": 2218,
    "acak,</w>": 2219,
    "acak</w>": 2220,
    "acakları</w>": 2221,
    "acaktı.</w>": 2222,
    "acaktır.</w>": 2223,
    "acağ": 2224,
    "acağı</w>": 2225,
    "acağını</w>": 2226,
    "ace": 2227,
    "ace</w>": 2228,
    "aceae)</w>": 2229,
    "acem": 2230,
    "acer</w>": 2231,
    "ach": 2232,
    "ach,</w>": 2233,
    "ach</w>": 2234,
    "acil</w>": 2235,
    "acio</w>": 2236,
    "ack</w>": 2237,
    "acy</w>": 2238,
    "acı": 2239,
    "acı,</w>": 2240,
    "acı</w>": 2241,
    "acık</w>": 2242,
    "acılık</w>": 2243,
    "acımasız</w>": 2244,
    "ad": 2245,
    "ad'ın</w>": 2246,
    "ad,</w>": 2247,
    "ad</w>": 2248,
    "ada": 2249,
    "ada,</w>": 2250,
    "ada</w>": 2251,
    "adac": 2252,
    "adacığı</w>": 2253,
    "adada</w>": 2254,
    "adadan</w>": 2255,
    "adadır.</w>": 2256,
    "adaki</w>": 2257,
    "adal": 2258,
    "adalar</w>": 2259,
    "adalara</w>": 2260,
    "adalarda</w>": 2261,
    "adaları,</w>": 2262,
    "adaları</w>": 2263,
    "adaların</w>": 2264,
    "adalet": 2265,
    "adalet</w>": 2266,
    "adam": 2267,
    "adam,</w>": 2268,
    "adam</w>": 2269,
    "adamları,</w>": 2270,
    "adamları</w>": 2271,
    "adamlarından</w>": 2272,
    "adamlarının</w>": 2273,
    "adams,</w>": 2274,
    "adams</w>": 2275,
    "adamı,</w>": 2276,
    "adamı</w>": 2277,
    "adamın</w>": 2278,
    "adan": 2279,
    "adan,</w>": 2280,
    "adan</w>": 2281,
    "adana": 2282,
    "adana'da</w>": 2283,
    "adana,</w>": 2284,
    "adana</w>": 2285,
    "adanmış</w>": 2286,
    "adanın</w>": 2287,
    "adap": 2288,
    "adapaz": 2289,
    "adapazarı</w>": 2290,
    "adası": 2291,
    "adası'nda</w>": 2292,
    "adası,</w>": 2293,
    "adası</w>": 2294,
    "adasına</w>": 2295,
    "adasında</w>": 2296,
    "adasının</w>": 2297,
    "aday": 2298,
    "aday</w>": 2299,
    "adaya</w>": 2300,
    "adaylığı</w>": 2301,
    "adaylığını</w>": 2302,
    "adayı</w>": 2303,
    "add": 2304,
    "addin</w>": 2305,
    "addır.</w>": 2306,
    "ade,</w>": 2307,
    "ade</w>": 2308,
    "adem": 2309,
    "aden": 2310,
    "adenau": 2311,
    "adet": 2312,
    "adet</w>": 2313,
    "adeta</w>": 2314,
    "adi</w>": 2315,
    "adig": 2316,
    "adil</w>": 2317,
    "adile</w>": 2318,
    "adla</w>": 2319,
    "adlandır": 2320,
    "adlandırdığı</w>": 2321,
    "adlandırma</w>": 2322,
    "adlandırıl": 2323,
    "adlandırılan</w>": 2324,
    "adlandırıldı.</w>": 2325,
    "adlandırılmaktadır.</w>": 2326,
    "adlandırılmış</w>": 2327,
    "adlandırılmıştır.</w>": 2328,
    "adlandırılır.</w>": 2329,
    "adlandırılır</w>": 2330,
    "adlar</w>": 2331,
    "adları</w>": 2332,
    "adlarında</w>": 2333,
    "adlarını</w>": 2334,
    "adlarının</w>": 2335,
    "adlarıyla</w>": 2336,
    "adli</w>": 2337,
    "adliye</w>": 2338,
    "adlı</w>": 2339,
    "adnan</w>": 2340,
    "ado": 2341,
    "ado,</w>": 2342,
    "ado</w>": 2343,
    "adol": 2344,
    "adolf</w>": 2345,
    "adren": 2346,
    "adres": 2347,
    "adres</w>": 2348,
    "adrese</w>": 2349,
    "adresi</w>": 2350,
    "adresleme</w>": 2351,
    "adresleri</w>": 2352,
    "adri": 2353,
    "adriya": 2354,
    "adriyatik</w>": 2355,
    "adı": 2356,
    "adı,</w>": 2357,
    "adı.</w>": 2358,
    "adı:</w>": 2359,
    "adı</w>": 2360,
    "adıdır.</w>": 2361,
    "adım": 2362,
    "adım</w>": 2363,
    "adımlar</w>": 2364,
    "adımı</w>": 2365,
    "adın</w>": 2366,
    "adına</w>": 2367,
    "adında</w>": 2368,
    "adındaki</w>": 2369,
    "adından</w>": 2370,
    "adını</w>": 2371,
    "adının</w>": 2372,
    "adır": 2373,
    "adır,</w>": 2374,
    "adır.</w>": 2375,
    "adır</w>": 2376,
    "adırlar.</w>": 2377,
    "adıya": 2378,
    "adıyaman</w>": 2379,
    "adıyla</w>": 2380,
    "adığ": 2381,
    "adığı</w>": 2382,
    "ae": 2383,
    "ae)</w>": 2384,
    "ae</w>": 2385,
    "aeg": 2386,
    "ael</w>": 2387,
    "aer": 2388,
    "aeros": 2389,
    "aes": 2390,
    "af": 2391,
    "af,</w>": 2392,
    "af</w>": 2393,
    "afee": 2394,
    "afet</w>": 2395,
    "aff": 2396,
    "afgan": 2397,
    "afgan</w>": 2398,
    "afganistan,</w>": 2399,
    "afganistan</w>": 2400,
    "afi</w>": 2401,
    "afife</w>": 2402,
    "afri": 2403,
    "afric": 2404,
    "afrik": 2405,
    "afrika": 2406,
    "afrika'da</w>": 2407,
    "afrika'daki</w>": 2408,
    "afrika'dan</w>": 2409,
    "afrika'nın</w>": 2410,
    "afrika'ya</w>": 2411,
    "afrika,</w>": 2412,
    "afrika</w>": 2413,
    "afrikalı</w>": 2414,
    "afro": 2415,
    "afyon": 2416,
    "afyon</w>": 2417,
    "afyonkarahis": 2418,
    "afyonkarahisar</w>": 2419,
    "ag": 2420,
    "ag</w>": 2421,
    "aga": 2422,
    "aga,</w>": 2423,
    "against</w>": 2424,
    "agas": 2425,
    "agat": 2426,
    "age,</w>": 2427,
    "age</w>": 2428,
    "agnos": 2429,
    "agnostikler</w>": 2430,
    "ago": 2431,
    "ago</w>": 2432,
    "agog": 2433,
    "agor": 2434,
    "agr": 2435,
    "agu": 2436,
    "ague</w>": 2437,
    "ah": 2438,
    "ah,</w>": 2439,
    "ah</w>": 2440,
    "aha</w>": 2441,
    "ahal": 2442,
    "ahamen": 2443,
    "ahameniş</w>": 2444,
    "ahat</w>": 2445,
    "ahi</w>": 2446,
    "ahir": 2447,
    "ahit": 2448,
    "ahit</w>": 2449,
    "ahla": 2450,
    "ahlak": 2451,
    "ahlak</w>": 2452,
    "ahlaki</w>": 2453,
    "ahlat": 2454,
    "ahlâ": 2455,
    "ahmed": 2456,
    "ahmed'in</w>": 2457,
    "ahmed,</w>": 2458,
    "ahmed</w>": 2459,
    "ahmet": 2460,
    "ahmet</w>": 2461,
    "ahşap": 2462,
    "ahşap</w>": 2463,
    "ai": 2464,
    "ai,</w>": 2465,
    "ai</w>": 2466,
    "aid": 2467,
    "aids</w>": 2468,
    "ail": 2469,
    "ail</w>": 2470,
    "aile,</w>": 2471,
    "aile</w>": 2472,
    "ailede</w>": 2473,
    "aileden</w>": 2474,
    "aileler</w>": 2475,
    "aileleri</w>": 2476,
    "ailelerin</w>": 2477,
    "ailenin</w>": 2478,
    "ailesi,</w>": 2479,
    "ailesi</w>": 2480,
    "ailesinden</w>": 2481,
    "ailesine</w>": 2482,
    "ailesini</w>": 2483,
    "ailesinin</w>": 2484,
    "ailesiyle</w>": 2485,
    "ain": 2486,
    "ain</w>": 2487,
    "air": 2488,
    "air</w>": 2489,
    "aires": 2490,
    "aires</w>": 2491,
    "airlin": 2492,
    "ait": 2493,
    "ait</w>": 2494,
    "aittir.</w>": 2495,
    "aj": 2496,
    "aj</w>": 2497,
    "ajan": 2498,
    "ajansı</w>": 2499,
    "ajda</w>": 2500,
    "ajı</w>": 2501,
    "ak": 2502,
    "ak,</w>": 2503,
    "ak</w>": 2504,
    "aka": 2505,
    "aka,</w>": 2506,
    "aka</w>": 2507,
    "akab": 2508,
    "akabinde</w>": 2509,
    "akad": 2510,
    "akad</w>": 2511,
    "akadem": 2512,
    "akademi</w>": 2513,
    "akademik</w>": 2514,
    "akademis": 2515,
    "akademisi": 2516,
    "akademisi'nin</w>": 2517,
    "akademisi</w>": 2518,
    "akademisyen": 2519,
    "akademisyen,</w>": 2520,
    "akademisyen</w>": 2521,
    "akademisyenler</w>": 2522,
    "akan</w>": 2523,
    "akar": 2524,
    "akar.</w>": 2525,
    "akarsu": 2526,
    "akarsu</w>": 2527,
    "akarsular</w>": 2528,
    "akat": 2529,
    "akat</w>": 2530,
    "akciğ": 2531,
    "akciğer": 2532,
    "akciğer</w>": 2533,
    "akdeniz": 2534,
    "akdeniz'de</w>": 2535,
    "akdeniz'e</w>": 2536,
    "akdeniz'in</w>": 2537,
    "akdeniz,</w>": 2538,
    "akdeniz</w>": 2539,
    "akhille": 2540,
    "aki,</w>": 2541,
    "aki</w>": 2542,
    "akif</w>": 2543,
    "akkoyun": 2544,
    "akkoyunlu</w>": 2545,
    "akl": 2546,
    "akla</w>": 2547,
    "aklar</w>": 2548,
    "akları</w>": 2549,
    "aklı": 2550,
    "aklı</w>": 2551,
    "aklın</w>": 2552,
    "akrab": 2553,
    "akraba</w>": 2554,
    "akred": 2555,
    "akro": 2556,
    "aksan": 2557,
    "aksaray": 2558,
    "aksaray</w>": 2559,
    "aksi</w>": 2560,
    "aksine,</w>": 2561,
    "aksine</w>": 2562,
    "aksiy": 2563,
    "aksiyom": 2564,
    "aksiyon</w>": 2565,
    "aksu,</w>": 2566,
    "aksu</w>": 2567,
    "akt": 2568,
    "aktaki</w>": 2569,
    "aktar": 2570,
    "aktarma</w>": 2571,
    "aktarıl": 2572,
    "aktarılan</w>": 2573,
    "aktarım</w>": 2574,
    "aktarımı</w>": 2575,
    "akti": 2576,
    "aktif": 2577,
    "aktif</w>": 2578,
    "aktiv": 2579,
    "aktivist,</w>": 2580,
    "aktivist</w>": 2581,
    "aktivisti</w>": 2582,
    "aktivistleri</w>": 2583,
    "aktivit": 2584,
    "aktivite</w>": 2585,
    "aktr": 2586,
    "aktris,</w>": 2587,
    "aktris</w>": 2588,
    "aktör": 2589,
    "aktör,</w>": 2590,
    "aktör</w>": 2591,
    "aktı</w>": 2592,
    "akus": 2593,
    "akustik</w>": 2594,
    "akut</w>": 2595,
    "akç": 2596,
    "akça": 2597,
    "akçaağacı</w>": 2598,
    "akçaağaç</w>": 2599,
    "akçe</w>": 2600,
    "akı": 2601,
    "akıl": 2602,
    "akıl</w>": 2603,
    "akılcı</w>": 2604,
    "akıllı</w>": 2605,
    "akım": 2606,
    "akım</w>": 2607,
    "akımlar</w>": 2608,
    "akımları</w>": 2609,
    "akımı</w>": 2610,
    "akımın</w>": 2611,
    "akımının</w>": 2612,
    "akın": 2613,
    "akın</w>": 2614,
    "akıntı": 2615,
    "akış": 2616,
    "akış</w>": 2617,
    "akışkan": 2618,
    "akışkan</w>": 2619,
    "akışkanlar</w>": 2620,
    "akışı</w>": 2621,
    "akışını</w>": 2622,
    "akş": 2623,
    "akşam": 2624,
    "akşam</w>": 2625,
    "akşamı</w>": 2626,
    "al": 2627,
    "al'a</w>": 2628,
    "al'in</w>": 2629,
    "al'ın</w>": 2630,
    "al)</w>": 2631,
    "al,</w>": 2632,
    "al-": 2633,
    "al</w>": 2634,
    "ala": 2635,
    "ala,</w>": 2636,
    "ala</w>": 2637,
    "alab": 2638,
    "alabama": 2639,
    "alabama'da</w>": 2640,
    "alabama,</w>": 2641,
    "alabama</w>": 2642,
    "alabil": 2643,
    "alabilir.</w>": 2644,
    "alacak": 2645,
    "alacak</w>": 2646,
    "alacağı</w>": 2647,
    "alacağını</w>": 2648,
    "alain</w>": 2649,
    "alakalı</w>": 2650,
    "alama": 2651,
    "alamadı.</w>": 2652,
    "alan": 2653,
    "alan,</w>": 2654,
    "alan</w>": 2655,
    "alana</w>": 2656,
    "aland": 2657,
    "alanda</w>": 2658,
    "alandaki</w>": 2659,
    "alandı.</w>": 2660,
    "alandı</w>": 2661,
    "alandır.</w>": 2662,
    "alanlar,</w>": 2663,
    "alanlar</w>": 2664,
    "alanlara</w>": 2665,
    "alanlarda</w>": 2666,
    "alanlardan</w>": 2667,
    "alanları,</w>": 2668,
    "alanları</w>": 2669,
    "alanların</w>": 2670,
    "alanlarına</w>": 2671,
    "alanlarında</w>": 2672,
    "alanlarından</w>": 2673,
    "alanlarını</w>": 2674,
    "alanlarının</w>": 2675,
    "alanı,</w>": 2676,
    "alanı</w>": 2677,
    "alanıdır.</w>": 2678,
    "alanın</w>": 2679,
    "alanına</w>": 2680,
    "alanında</w>": 2681,
    "alanındaki</w>": 2682,
    "alanından</w>": 2683,
    "alanını</w>": 2684,
    "alanının</w>": 2685,
    "alar": 2686,
    "alar,</w>": 2687,
    "alar</w>": 2688,
    "alara</w>": 2689,
    "alarak,</w>": 2690,
    "alarak</w>": 2691,
    "alarca</w>": 2692,
    "alarda</w>": 2693,
    "alardaki</w>": 2694,
    "alardan</w>": 2695,
    "alarla</w>": 2696,
    "aları,</w>": 2697,
    "aları</w>": 2698,
    "aların</w>": 2699,
    "alarına</w>": 2700,
    "alarında</w>": 2701,
    "alarından</w>": 2702,
    "alarını</w>": 2703,
    "alarının</w>": 2704,
    "alarıyla</w>": 2705,
    "alas": 2706,
    "alaska": 2707,
    "alaska'da</w>": 2708,
    "alaska'nın</w>": 2709,
    "alaska,</w>": 2710,
    "alaska</w>": 2711,
    "alat</w>": 2712,
    "alay": 2713,
    "alay</w>": 2714,
    "alayı</w>": 2715,
    "alaş": 2716,
    "alban": 2717,
    "albay</w>": 2718,
    "alber": 2719,
    "albert</w>": 2720,
    "alberto</w>": 2721,
    "albü": 2722,
    "albüm": 2723,
    "albüm,</w>": 2724,
    "albüm</w>": 2725,
    "albümde</w>": 2726,
    "albümdeki</w>": 2727,
    "albümden</w>": 2728,
    "albümle</w>": 2729,
    "albümler</w>": 2730,
    "albümleri</w>": 2731,
    "albümlerini</w>": 2732,
    "albümü": 2733,
    "albümü</w>": 2734,
    "albümün</w>": 2735,
    "albümünde</w>": 2736,
    "albümünü</w>": 2737,
    "albümünün</w>": 2738,
    "ald,</w>": 2739,
    "ald</w>": 2740,
    "aldat": 2741,
    "aldo</w>": 2742,
    "aldı,</w>": 2743,
    "aldı.</w>": 2744,
    "aldı</w>": 2745,
    "aldıkları</w>": 2746,
    "aldıktan</w>": 2747,
    "aldılar.</w>": 2748,
    "aldığı</w>": 2749,
    "aldığını</w>": 2750,
    "ale": 2751,
    "ale,</w>": 2752,
    "ale</w>": 2753,
    "alej": 2754,
    "alek": 2755,
    "aleksan": 2756,
    "aleksand": 2757,
    "aleksandr</w>": 2758,
    "aleksey</w>": 2759,
    "aleksi": 2760,
    "alem": 2761,
    "alem</w>": 2762,
    "alemdar</w>": 2763,
    "aler": 2764,
    "ales": 2765,
    "alessandro</w>": 2766,
    "alet": 2767,
    "alet</w>": 2768,
    "aleti</w>": 2769,
    "aletler</w>": 2770,
    "aletleri</w>": 2771,
    "alev": 2772,
    "alev</w>": 2773,
    "alevi</w>": 2774,
    "alex": 2775,
    "alex</w>": 2776,
    "alexand": 2777,
    "alexander": 2778,
    "alexander,</w>": 2779,
    "alexander</w>": 2780,
    "alexandre</w>": 2781,
    "aley": 2782,
    "aleyh": 2783,
    "aleyhinde</w>": 2784,
    "aleyhine</w>": 2785,
    "alfa</w>": 2786,
    "alfab": 2787,
    "alfabe</w>": 2788,
    "alfabesi</w>": 2789,
    "alfabesinde</w>": 2790,
    "alfabesini</w>": 2791,
    "alfon": 2792,
    "alfred": 2793,
    "alfred</w>": 2794,
    "alg": 2795,
    "algor": 2796,
    "algorit": 2797,
    "algoritma</w>": 2798,
    "algoritmalar</w>": 2799,
    "algı": 2800,
    "algı</w>": 2801,
    "algıla": 2802,
    "algılama</w>": 2803,
    "algılan": 2804,
    "algın": 2805,
    "ali": 2806,
    "ali'nin</w>": 2807,
    "ali,</w>": 2808,
    "ali</w>": 2809,
    "alib": 2810,
    "alic": 2811,
    "alice</w>": 2812,
    "align": 2813,
    "align=": 2814,
    "align=\"": 2815,
    "align=\"center": 2816,
    "align=\"left": 2817,
    "align=\"left\"</w>": 2818,
    "align=left|": 2819,
    "align=left|</w>": 2820,
    "alim": 2821,
    "alim</w>": 2822,
    "alin</w>": 2823,
    "alis</w>": 2824,
    "alist</w>": 2825,
    "alit": 2826,
    "aliy": 2827,
    "aliye</w>": 2828,
    "alizm</w>": 2829,
    "alkali</w>": 2830,
    "alkol": 2831,
    "alkol</w>": 2832,
    "alkollü</w>": 2833,
    "all": 2834,
    "all</w>": 2835,
    "allah": 2836,
    "allah'a</w>": 2837,
    "allah'ın</w>": 2838,
    "allah</w>": 2839,
    "allan</w>": 2840,
    "allen,</w>": 2841,
    "allen</w>": 2842,
    "allend": 2843,
    "alli": 2844,
    "alli</w>": 2845,
    "allo": 2846,
    "alma": 2847,
    "alma</w>": 2848,
    "almadan</w>": 2849,
    "almak</w>": 2850,
    "almakta</w>": 2851,
    "almaktadır.</w>": 2852,
    "almaktaydı.</w>": 2853,
    "alman": 2854,
    "alman-": 2855,
    "alman</w>": 2856,
    "almanca,</w>": 2857,
    "almanca</w>": 2858,
    "almanlar</w>": 2859,
    "almanların</w>": 2860,
    "almanya": 2861,
    "almanya'da</w>": 2862,
    "almanya'daki</w>": 2863,
    "almanya'dan</w>": 2864,
    "almanya'nın</w>": 2865,
    "almanya'ya</w>": 2866,
    "almanya,</w>": 2867,
    "almanya</w>": 2868,
    "almanyası": 2869,
    "almanyası'nda</w>": 2870,
    "almanyası'nın</w>": 2871,
    "almanyası</w>": 2872,
    "almanya’da</w>": 2873,
    "alması</w>": 2874,
    "almasına</w>": 2875,
    "almasını</w>": 2876,
    "almaya</w>": 2877,
    "almayan</w>": 2878,
    "almayı</w>": 2879,
    "almış": 2880,
    "almış,</w>": 2881,
    "almış</w>": 2882,
    "almışlardır.</w>": 2883,
    "almıştı.</w>": 2884,
    "almıştır.</w>": 2885,
    "almıştır</w>": 2886,
    "alo": 2887,
    "alon": 2888,
    "alp": 2889,
    "alp,</w>": 2890,
    "alp</w>": 2891,
    "alpars": 2892,
    "alparslan</w>": 2893,
    "alph": 2894,
    "als</w>": 2895,
    "alt": 2896,
    "alt</w>": 2897,
    "altan</w>": 2898,
    "altay</w>": 2899,
    "altern": 2900,
    "alternatif</w>": 2901,
    "altta</w>": 2902,
    "altyapı</w>": 2903,
    "altyapısı</w>": 2904,
    "altı": 2905,
    "altı</w>": 2906,
    "altın": 2907,
    "altın,</w>": 2908,
    "altın</w>": 2909,
    "altına</w>": 2910,
    "altıncı</w>": 2911,
    "altınd": 2912,
    "altında,</w>": 2913,
    "altında</w>": 2914,
    "altındadır.</w>": 2915,
    "altındaki</w>": 2916,
    "altından</w>": 2917,
    "altını</w>": 2918,
    "altısı</w>": 2919,
    "alve": 2920,
    "alâ": 2921,
    "alâeddin</w>": 2922,
    "alçak</w>": 2923,
    "alçal": 2924,
    "alüm": 2925,
    "alümin": 2926,
    "alüminyum</w>": 2927,
    "alüv": 2928,
    "alı": 2929,
    "alı,</w>": 2930,
    "alı-": 2931,
    "alı-amerikalı</w>": 2932,
    "alı</w>": 2933,
    "alıcı": 2934,
    "alıcı</w>": 2935,
    "alıdır.</w>": 2936,
    "alık": 2937,
    "alık</w>": 2938,
    "alılar,</w>": 2939,
    "alılar</w>": 2940,
    "alıların</w>": 2941,
    "alım": 2942,
    "alım</w>": 2943,
    "alımı</w>": 2944,
    "alın": 2945,
    "alınacak</w>": 2946,
    "alınan</w>": 2947,
    "alınarak</w>": 2948,
    "alınd": 2949,
    "alındı.</w>": 2950,
    "alındı</w>": 2951,
    "alındığı</w>": 2952,
    "alındığında,</w>": 2953,
    "alındığında</w>": 2954,
    "alınması</w>": 2955,
    "alınmasına</w>": 2956,
    "alınmasını</w>": 2957,
    "alınmış</w>": 2958,
    "alınmıştır.</w>": 2959,
    "alıntı": 2960,
    "alıntı</w>": 2961,
    "alınıp</w>": 2962,
    "alınır.</w>": 2963,
    "alıp</w>": 2964,
    "alır": 2965,
    "alır,</w>": 2966,
    "alır.</w>": 2967,
    "alır</w>": 2968,
    "alırken,</w>": 2969,
    "alırken</w>": 2970,
    "alırlar.</w>": 2971,
    "alıyor.</w>": 2972,
    "alıyordu.</w>": 2973,
    "alığı</w>": 2974,
    "alış": 2975,
    "alışkan": 2976,
    "alışver": 2977,
    "alışveriş</w>": 2978,
    "alışverişi</w>": 2979,
    "am": 2980,
    "am,</w>": 2981,
    "am</w>": 2982,
    "ama": 2983,
    "ama,</w>": 2984,
    "ama</w>": 2985,
    "amac": 2986,
    "amaca</w>": 2987,
    "amacı,</w>": 2988,
    "amacı</w>": 2989,
    "amacına</w>": 2990,
    "amacını</w>": 2991,
    "amacıyla,</w>": 2992,
    "amacıyla</w>": 2993,
    "amadı.</w>": 2994,
    "amadığı</w>": 2995,
    "amal": 2996,
    "amalı</w>": 2997,
    "amaması</w>": 2998,
    "amamış</w>": 2999,
    "amamıştır.</w>": 3000,
    "aman": 3001,
    "aman</w>": 3002,
    "amanın</w>": 3003,
    "amar": 3004,
    "amas": 3005,
    "amasya,</w>": 3006,
    "amasya</w>": 3007,
    "aması</w>": 3008,
    "amatör</w>": 3009,
    "amayacak</w>": 3010,
    "amayacağı</w>": 3011,
    "amayan</w>": 3012,
    "amaz": 3013,
    "amaz.</w>": 3014,
    "amaz</w>": 3015,
    "amazon</w>": 3016,
    "amaç": 3017,
    "amaç,</w>": 3018,
    "amaç</w>": 3019,
    "amaçla</w>": 3020,
    "amaçlar</w>": 3021,
    "amaçlarla</w>": 3022,
    "amaçları</w>": 3023,
    "amaçlayan</w>": 3024,
    "amaçlı</w>": 3025,
    "ambar": 3026,
    "amblem": 3027,
    "amcası</w>": 3028,
    "amd</w>": 3029,
    "ame</w>": 3030,
    "amel": 3031,
    "ameliyat": 3032,
    "ameliyat</w>": 3033,
    "amen": 3034,
    "amer": 3035,
    "amer,</w>": 3036,
    "americ": 3037,
    "america</w>": 3038,
    "american</w>": 3039,
    "amerik": 3040,
    "amerika": 3041,
    "amerika'da</w>": 3042,
    "amerika'daki</w>": 3043,
    "amerika'nın</w>": 3044,
    "amerika'ya</w>": 3045,
    "amerika,</w>": 3046,
    "amerika</w>": 3047,
    "amerikalı</w>": 3048,
    "amerikalılar</w>": 3049,
    "amerikalıların</w>": 3050,
    "amerikan</w>": 3051,
    "ami</w>": 3052,
    "amig": 3053,
    "amiga</w>": 3054,
    "amik</w>": 3055,
    "amin": 3056,
    "amin</w>": 3057,
    "amino</w>": 3058,
    "amir": 3059,
    "amiral</w>": 3060,
    "amon": 3061,
    "amor": 3062,
    "amp": 3063,
    "amp</w>": 3064,
    "ampir": 3065,
    "amsterdam": 3066,
    "amsterdam</w>": 3067,
    "amy</w>": 3068,
    "amı</w>": 3069,
    "an": 3070,
    "an\"</w>": 3071,
    "an'a</w>": 3072,
    "an'da</w>": 3073,
    "an'dan</w>": 3074,
    "an'ı</w>": 3075,
    "an'ın</w>": 3076,
    "an)</w>": 3077,
    "an,</w>": 3078,
    "an-": 3079,
    "an</w>": 3080,
    "ana": 3081,
    "ana)</w>": 3082,
    "ana,</w>": 3083,
    "ana</w>": 3084,
    "anabil": 3085,
    "anabilim</w>": 3086,
    "anad": 3087,
    "anadili</w>": 3088,
    "anadol": 3089,
    "anadol</w>": 3090,
    "anadolu": 3091,
    "anadolu'da</w>": 3092,
    "anadolu'daki</w>": 3093,
    "anadolu'dan</w>": 3094,
    "anadolu'nun</w>": 3095,
    "anadolu'ya</w>": 3096,
    "anadolu'yu</w>": 3097,
    "anadolu,</w>": 3098,
    "anadolu</w>": 3099,
    "anadolu’da</w>": 3100,
    "anadolu’ya</w>": 3101,
    "anaf": 3102,
    "anafar": 3103,
    "anafartalar</w>": 3104,
    "anafila": 3105,
    "anafilaks": 3106,
    "anah": 3107,
    "anahtar": 3108,
    "anahtar</w>": 3109,
    "anak": 3110,
    "anakar": 3111,
    "anakin</w>": 3112,
    "anal": 3113,
    "analitik</w>": 3114,
    "analiz": 3115,
    "analiz</w>": 3116,
    "analizi</w>": 3117,
    "analog</w>": 3118,
    "anam": 3119,
    "anan</w>": 3120,
    "anap</w>": 3121,
    "anar": 3122,
    "anarş": 3123,
    "anarşist</w>": 3124,
    "anas": 3125,
    "anastas": 3126,
    "anat": 3127,
    "anatol": 3128,
    "anatom": 3129,
    "anatomi</w>": 3130,
    "anatomik</w>": 3131,
    "anav": 3132,
    "anavatan</w>": 3133,
    "anayas": 3134,
    "anayasa'nın</w>": 3135,
    "anayasa</w>": 3136,
    "anayasal</w>": 3137,
    "anayasanın</w>": 3138,
    "anayasası'nın</w>": 3139,
    "anayasası,</w>": 3140,
    "anayasası</w>": 3141,
    "anayasasını</w>": 3142,
    "anayasaya</w>": 3143,
    "anayasayı</w>": 3144,
    "anca</w>": 3145,
    "ancak,</w>": 3146,
    "ancak</w>": 3147,
    "anchor": 3148,
    "anci": 3149,
    "ancient</w>": 3150,
    "ancı</w>": 3151,
    "and": 3152,
    "and,</w>": 3153,
    "and</w>": 3154,
    "anda,</w>": 3155,
    "anda</w>": 3156,
    "andaki</w>": 3157,
    "andan</w>": 3158,
    "ander": 3159,
    "anderson,</w>": 3160,
    "andor": 3161,
    "andr": 3162,
    "andre": 3163,
    "andre</w>": 3164,
    "andrea</w>": 3165,
    "andreas</w>": 3166,
    "andrew</w>": 3167,
    "andrey</w>": 3168,
    "andro": 3169,
    "andro</w>": 3170,
    "android</w>": 3171,
    "andronik": 3172,
    "andré</w>": 3173,
    "andu": 3174,
    "andy</w>": 3175,
    "andı</w>": 3176,
    "andır": 3177,
    "andır.</w>": 3178,
    "ane,</w>": 3179,
    "ane</w>": 3180,
    "anest": 3181,
    "anet</w>": 3182,
    "ang": 3183,
    "ang</w>": 3184,
    "ange": 3185,
    "angel": 3186,
    "angeles": 3187,
    "angeles</w>": 3188,
    "anglik": 3189,
    "anglikan</w>": 3190,
    "anglo-": 3191,
    "ango": 3192,
    "angola": 3193,
    "angola</w>": 3194,
    "anguil": 3195,
    "ani": 3196,
    "ani,</w>": 3197,
    "ani</w>": 3198,
    "aniden</w>": 3199,
    "anim": 3200,
    "animasyon</w>": 3201,
    "animat": 3202,
    "animatör</w>": 3203,
    "anime</w>": 3204,
    "anj": 3205,
    "ank": 3206,
    "ankar": 3207,
    "ankara": 3208,
    "ankara'da</w>": 3209,
    "ankara'daki</w>": 3210,
    "ankara'nın</w>": 3211,
    "ankara'ya</w>": 3212,
    "ankara,</w>": 3213,
    "ankara-": 3214,
    "ankara</w>": 3215,
    "anket": 3216,
    "anki</w>": 3217,
    "anla": 3218,
    "anlam": 3219,
    "anlam</w>": 3220,
    "anlama": 3221,
    "anlama</w>": 3222,
    "anlamak</w>": 3223,
    "anlamaya</w>": 3224,
    "anlamda</w>": 3225,
    "anlamlara</w>": 3226,
    "anlamları</w>": 3227,
    "anlamlarına</w>": 3228,
    "anlamlı</w>": 3229,
    "anlamı</w>": 3230,
    "anlamına</w>": 3231,
    "anlamında</w>": 3232,
    "anlamındadır.</w>": 3233,
    "anlamındaki</w>": 3234,
    "anlamını</w>": 3235,
    "anlamıyla</w>": 3236,
    "anlar,</w>": 3237,
    "anlar</w>": 3238,
    "anlara</w>": 3239,
    "anlardan</w>": 3240,
    "anları</w>": 3241,
    "anların</w>": 3242,
    "anlat": 3243,
    "anlatan</w>": 3244,
    "anlatmaktadır.</w>": 3245,
    "anlatmıştır.</w>": 3246,
    "anlattı.</w>": 3247,
    "anlattığı</w>": 3248,
    "anlatı": 3249,
    "anlatıl": 3250,
    "anlatılan</w>": 3251,
    "anlatılır.</w>": 3252,
    "anlatım": 3253,
    "anlatım</w>": 3254,
    "anlatır": 3255,
    "anlatır.</w>": 3256,
    "anlay": 3257,
    "anlayış": 3258,
    "anlayış</w>": 3259,
    "anlayışa</w>": 3260,
    "anlayışı</w>": 3261,
    "anlayışına</w>": 3262,
    "anlayışını</w>": 3263,
    "anlayışının</w>": 3264,
    "anlaş": 3265,
    "anlaşma</w>": 3266,
    "anlaşmalar</w>": 3267,
    "anlaşması": 3268,
    "anlaşması</w>": 3269,
    "anlaşmasını</w>": 3270,
    "anlaşmaya</w>": 3271,
    "anlaşmayı</w>": 3272,
    "anlaşmaz": 3273,
    "anlaşmazlık</w>": 3274,
    "anlaşmazlıklar</w>": 3275,
    "anlaşıl": 3276,
    "anlaşılabil": 3277,
    "anlaşılama": 3278,
    "anlaşılan</w>": 3279,
    "anlaşıldı.</w>": 3280,
    "anlaşılmaktadır.</w>": 3281,
    "anlaşılması</w>": 3282,
    "anlaşılır.</w>": 3283,
    "anlaşılır</w>": 3284,
    "anlı</w>": 3285,
    "anlık</w>": 3286,
    "anma</w>": 3287,
    "ann": 3288,
    "ann,</w>": 3289,
    "ann</w>": 3290,
    "anna</w>": 3291,
    "anne": 3292,
    "anne</w>": 3293,
    "annesi,</w>": 3294,
    "annesi</w>": 3295,
    "annesine</w>": 3296,
    "annesini</w>": 3297,
    "annesinin</w>": 3298,
    "anni</w>": 3299,
    "annis": 3300,
    "annis</w>": 3301,
    "ano": 3302,
    "ano,</w>": 3303,
    "ano</w>": 3304,
    "anon": 3305,
    "anonim</w>": 3306,
    "anor": 3307,
    "anormal": 3308,
    "anormal</w>": 3309,
    "anos</w>": 3310,
    "ans": 3311,
    "ans,</w>": 3312,
    "ans</w>": 3313,
    "ansat": 3314,
    "ansik": 3315,
    "ansikloped": 3316,
    "ansiklopedisi</w>": 3317,
    "ansı</w>": 3318,
    "ant": 3319,
    "ant,</w>": 3320,
    "ant</w>": 3321,
    "antak": 3322,
    "antakya</w>": 3323,
    "antal": 3324,
    "antalya</w>": 3325,
    "antark": 3326,
    "antarkti": 3327,
    "antarktika</w>": 3328,
    "anth": 3329,
    "anthony</w>": 3330,
    "anti": 3331,
    "anti-": 3332,
    "anti</w>": 3333,
    "antibiyo": 3334,
    "antibiyotik</w>": 3335,
    "antibiyotikler</w>": 3336,
    "antik": 3337,
    "antik</w>": 3338,
    "antikor": 3339,
    "antil": 3340,
    "antioksid": 3341,
    "antioksidan</w>": 3342,
    "antisem": 3343,
    "antlaş": 3344,
    "antlaşma</w>": 3345,
    "antlaşmaları</w>": 3346,
    "antlaşmanın</w>": 3347,
    "antlaşması": 3348,
    "antlaşması'nı</w>": 3349,
    "antlaşması'nın</w>": 3350,
    "antlaşması'yla</w>": 3351,
    "antlaşması,</w>": 3352,
    "antlaşması</w>": 3353,
    "antlaşmaya</w>": 3354,
    "anto": 3355,
    "antoine</w>": 3356,
    "anton": 3357,
    "anton</w>": 3358,
    "antonio</w>": 3359,
    "antren": 3360,
    "antrenör</w>": 3361,
    "antrenörü</w>": 3362,
    "antrop": 3363,
    "antropolog</w>": 3364,
    "antropoloji</w>": 3365,
    "antum</w>": 3366,
    "anz": 3367,
    "anı": 3368,
    "anı,</w>": 3369,
    "anı</w>": 3370,
    "anıl": 3371,
    "anılan</w>": 3372,
    "anılmaktadır.</w>": 3373,
    "anılmaya</w>": 3374,
    "anılmıştır.</w>": 3375,
    "anılır.</w>": 3376,
    "anım": 3377,
    "anın</w>": 3378,
    "anında</w>": 3379,
    "anısına</w>": 3380,
    "anıt": 3381,
    "anıt</w>": 3382,
    "anıtka": 3383,
    "anıtkabir": 3384,
    "anıtlar</w>": 3385,
    "anıtsal</w>": 3386,
    "anıtı</w>": 3387,
    "an’ın</w>": 3388,
    "ao</w>": 3389,
    "ap": 3390,
    "ap,</w>": 3391,
    "ap</w>": 3392,
    "apar": 3393,
    "apart": 3394,
    "aparthe": 3395,
    "apartman": 3396,
    "aph": 3397,
    "apo": 3398,
    "apol": 3399,
    "apollo</w>": 3400,
    "apollon": 3401,
    "apollon</w>": 3402,
    "app": 3403,
    "apple</w>": 3404,
    "applic": 3405,
    "aqu": 3406,
    "ar": 3407,
    "ar'ın</w>": 3408,
    "ar,</w>": 3409,
    "ar-": 3410,
    "ar.</w>": 3411,
    "ar</w>": 3412,
    "ara": 3413,
    "ara,</w>": 3414,
    "ara</w>": 3415,
    "arab": 3416,
    "araba</w>": 3417,
    "arabası</w>": 3418,
    "arabesk</w>": 3419,
    "arabistan</w>": 3420,
    "arac": 3421,
    "aracı,</w>": 3422,
    "aracı</w>": 3423,
    "aracılığ": 3424,
    "aracılığı</w>": 3425,
    "aracılığıyla</w>": 3426,
    "aracın</w>": 3427,
    "aracını</w>": 3428,
    "aracının</w>": 3429,
    "arada,</w>": 3430,
    "arada</w>": 3431,
    "aradan</w>": 3432,
    "araf": 3433,
    "arag": 3434,
    "aragu": 3435,
    "arak": 3436,
    "arak,</w>": 3437,
    "arak</w>": 3438,
    "aral": 3439,
    "aralarında</w>": 3440,
    "aralarındaki</w>": 3441,
    "aralı": 3442,
    "aralık": 3443,
    "aralık'ta</w>": 3444,
    "aralık</w>": 3445,
    "aralıklarla</w>": 3446,
    "aralıksız</w>": 3447,
    "aralığ": 3448,
    "aralığı</w>": 3449,
    "aralığında</w>": 3450,
    "aralığındadır.</w>": 3451,
    "aram": 3452,
    "arama": 3453,
    "arama</w>": 3454,
    "aramak</w>": 3455,
    "aran": 3456,
    "aranan</w>": 3457,
    "aranj": 3458,
    "aranjör</w>": 3459,
    "arap": 3460,
    "arap</w>": 3461,
    "araplar,</w>": 3462,
    "araplar</w>": 3463,
    "arapların</w>": 3464,
    "arapç": 3465,
    "arapça,</w>": 3466,
    "arapça:</w>": 3467,
    "arapça</w>": 3468,
    "arapçada</w>": 3469,
    "arapçadaki</w>": 3470,
    "aras": 3471,
    "aras</w>": 3472,
    "arası</w>": 3473,
    "arasına</w>": 3474,
    "arasınd": 3475,
    "arasında,</w>": 3476,
    "arasında</w>": 3477,
    "arasındadır.</w>": 3478,
    "arasındaki</w>": 3479,
    "arasından</w>": 3480,
    "arasındaydı.</w>": 3481,
    "arasının</w>": 3482,
    "aray": 3483,
    "araya</w>": 3484,
    "arayan</w>": 3485,
    "arayüz": 3486,
    "arayüz</w>": 3487,
    "arayüzü</w>": 3488,
    "arayış": 3489,
    "araz": 3490,
    "arazi</w>": 3491,
    "arazinin</w>": 3492,
    "arazisi</w>": 3493,
    "araç": 3494,
    "araç</w>": 3495,
    "araçlar</w>": 3496,
    "araçları</w>": 3497,
    "araçlarının</w>": 3498,
    "araştır": 3499,
    "araştıran</w>": 3500,
    "araştırma": 3501,
    "araştırma,</w>": 3502,
    "araştırma</w>": 3503,
    "araştırmacı</w>": 3504,
    "araştırmacılar,</w>": 3505,
    "araştırmacılar</w>": 3506,
    "araştırmacısı</w>": 3507,
    "araştırmada</w>": 3508,
    "araştırmalar,</w>": 3509,
    "araştırmalar</w>": 3510,
    "araştırmalara</w>": 3511,
    "araştırmalarda</w>": 3512,
    "araştırmaları</w>": 3513,
    "araştırmaların</w>": 3514,
    "araştırmalarına</w>": 3515,
    "araştırmalarında</w>": 3516,
    "araştırması</w>": 3517,
    "araştırmaya</w>": 3518,
    "araştırılması</w>": 3519,
    "arc": 3520,
    "arch": 3521,
    "arch</w>": 3522,
    "archit": 3523,
    "architec": 3524,
    "archiv": 3525,
    "archive.": 3526,
    "archive.org/": 3527,
    "ard": 3528,
    "ard,</w>": 3529,
    "ard</w>": 3530,
    "arda</w>": 3531,
    "ardah": 3532,
    "ardahan</w>": 3533,
    "ardo</w>": 3534,
    "ards</w>": 3535,
    "ardı": 3536,
    "ardı</w>": 3537,
    "ardıcı</w>": 3538,
    "ardılı</w>": 3539,
    "ardına</w>": 3540,
    "ardında</w>": 3541,
    "ardından,</w>": 3542,
    "ardından</w>": 3543,
    "ardıç</w>": 3544,
    "ardış": 3545,
    "ardışık</w>": 3546,
    "are</w>": 3547,
    "aren": 3548,
    "ares</w>": 3549,
    "aret": 3550,
    "aret</w>": 3551,
    "areti</w>": 3552,
    "arg": 3553,
    "argen": 3554,
    "argü": 3555,
    "argüman": 3556,
    "arhav": 3557,
    "arhavi</w>": 3558,
    "ari": 3559,
    "ari,</w>": 3560,
    "ari</w>": 3561,
    "arif</w>": 3562,
    "aring</w>": 3563,
    "aris": 3564,
    "aristo": 3565,
    "aristo'nun</w>": 3566,
    "aristo</w>": 3567,
    "aristokr": 3568,
    "aristotel": 3569,
    "aristoteles": 3570,
    "aristoteles'in</w>": 3571,
    "aristoteles</w>": 3572,
    "arit": 3573,
    "aritm": 3574,
    "aritmeti": 3575,
    "aritmetik</w>": 3576,
    "ariz": 3577,
    "arizon": 3578,
    "arizona</w>": 3579,
    "arjan": 3580,
    "arjantin": 3581,
    "arjantin'in</w>": 3582,
    "arjantin,</w>": 3583,
    "arjantin</w>": 3584,
    "arjantinli</w>": 3585,
    "ark": 3586,
    "ark</w>": 3587,
    "arka": 3588,
    "arka</w>": 3589,
    "arkad": 3590,
    "arkadan</w>": 3591,
    "arkadaş": 3592,
    "arkadaş</w>": 3593,
    "arkadaşlar": 3594,
    "arkadaşları</w>": 3595,
    "arkadaşlarına</w>": 3596,
    "arkadaşlarının</w>": 3597,
    "arkadaşı</w>": 3598,
    "arkalı</w>": 3599,
    "arkas": 3600,
    "arkasına</w>": 3601,
    "arkasında</w>": 3602,
    "arkasındaki</w>": 3603,
    "arkasından</w>": 3604,
    "arke": 3605,
    "arken,</w>": 3606,
    "arken</w>": 3607,
    "arkeolog</w>": 3608,
    "arkeologlar</w>": 3609,
    "arkeoloji</w>": 3610,
    "arkeolojik</w>": 3611,
    "arktik</w>": 3612,
    "arlar.</w>": 3613,
    "arlar</w>": 3614,
    "arm": 3615,
    "arman": 3616,
    "armağ": 3617,
    "armağan</w>": 3618,
    "armağanı</w>": 3619,
    "armen": 3620,
    "armon": 3621,
    "armstr": 3622,
    "armstrong,</w>": 3623,
    "armstrong</w>": 3624,
    "arn": 3625,
    "arnavut": 3626,
    "arnavut</w>": 3627,
    "arnavutluk": 3628,
    "arnavutluk</w>": 3629,
    "arnold</w>": 3630,
    "aro": 3631,
    "arp": 3632,
    "arpa,</w>": 3633,
    "arpa</w>": 3634,
    "arpan": 3635,
    "ars": 3636,
    "ars</w>": 3637,
    "arsen": 3638,
    "arslan": 3639,
    "arslan'ın</w>": 3640,
    "arslan,</w>": 3641,
    "arslan</w>": 3642,
    "art": 3643,
    "art,</w>": 3644,
    "art</w>": 3645,
    "artan</w>": 3646,
    "artar": 3647,
    "artar.</w>": 3648,
    "artarak</w>": 3649,
    "artem": 3650,
    "artemis</w>": 3651,
    "arter": 3652,
    "arter</w>": 3653,
    "arth": 3654,
    "arthur</w>": 3655,
    "artis": 3656,
    "artistik</w>": 3657,
    "artmaktadır.</w>": 3658,
    "artması</w>": 3659,
    "artmasına</w>": 3660,
    "artmasıyla</w>": 3661,
    "artmaya</w>": 3662,
    "artmış</w>": 3663,
    "artmıştır.</w>": 3664,
    "arts</w>": 3665,
    "arttı.</w>": 3666,
    "arttı</w>": 3667,
    "arttıkça</w>": 3668,
    "arttır": 3669,
    "arttırmak</w>": 3670,
    "arttığı</w>": 3671,
    "artu": 3672,
    "artvin": 3673,
    "artvin</w>": 3674,
    "artı": 3675,
    "artı</w>": 3676,
    "artık</w>": 3677,
    "artır": 3678,
    "artıran</w>": 3679,
    "artırdı.</w>": 3680,
    "artırmak</w>": 3681,
    "artış": 3682,
    "artış</w>": 3683,
    "artışı</w>": 3684,
    "ary</w>": 3685,
    "arya</w>": 3686,
    "arz": 3687,
    "arz</w>": 3688,
    "arzu": 3689,
    "arzu</w>": 3690,
    "arı": 3691,
    "arı</w>": 3692,
    "arın": 3693,
    "arındır": 3694,
    "arıt": 3695,
    "arız": 3696,
    "arş": 3697,
    "arşi": 3698,
    "arşid": 3699,
    "arşim": 3700,
    "arşimet</w>": 3701,
    "arşiv": 3702,
    "arşivi</w>": 3703,
    "as": 3704,
    "as'ın</w>": 3705,
    "as)</w>": 3706,
    "as,</w>": 3707,
    "as</w>": 3708,
    "asa</w>": 3709,
    "asal": 3710,
    "asal</w>": 3711,
    "asala</w>": 3712,
    "asay": 3713,
    "ascii</w>": 3714,
    "ase</w>": 3715,
    "aset</w>": 3716,
    "asf": 3717,
    "asfalt": 3718,
    "asgari</w>": 3719,
    "ash": 3720,
    "ash-": 3721,
    "ashikaga</w>": 3722,
    "asi</w>": 3723,
    "asil": 3724,
    "asil</w>": 3725,
    "asim": 3726,
    "asist</w>": 3727,
    "asistan": 3728,
    "asit": 3729,
    "asit</w>": 3730,
    "ask": 3731,
    "asker": 3732,
    "asker,</w>": 3733,
    "asker</w>": 3734,
    "askere</w>": 3735,
    "askeri</w>": 3736,
    "askerin</w>": 3737,
    "askerler</w>": 3738,
    "askerleri</w>": 3739,
    "askerlerin</w>": 3740,
    "askerlerini</w>": 3741,
    "askerlerinin</w>": 3742,
    "askerlik</w>": 3743,
    "askerliğini</w>": 3744,
    "askerî</w>": 3745,
    "askor": 3746,
    "askorbik</w>": 3747,
    "askıya</w>": 3748,
    "asl": 3749,
    "asla</w>": 3750,
    "aslan": 3751,
    "aslan</w>": 3752,
    "aslen</w>": 3753,
    "aslı</w>": 3754,
    "aslında,</w>": 3755,
    "aslında</w>": 3756,
    "asma</w>": 3757,
    "aspir": 3758,
    "asr": 3759,
    "ass": 3760,
    "associ": 3761,
    "association</w>": 3762,
    "ast": 3763,
    "ast</w>": 3764,
    "aster": 3765,
    "astero": 3766,
    "asteroit</w>": 3767,
    "asteroitler</w>": 3768,
    "asti": 3769,
    "astr": 3770,
    "astro": 3771,
    "astrofizikçi</w>": 3772,
    "astron": 3773,
    "astronom": 3774,
    "astronom</w>": 3775,
    "astronomi</w>": 3776,
    "astronomik</w>": 3777,
    "astronot</w>": 3778,
    "astsubay</w>": 3779,
    "asur": 3780,
    "asur</w>": 3781,
    "asya'da</w>": 3782,
    "asya'daki</w>": 3783,
    "asya'dan</w>": 3784,
    "asya'nın</w>": 3785,
    "asya'ya</w>": 3786,
    "asya,</w>": 3787,
    "asya</w>": 3788,
    "asyon": 3789,
    "asyon,</w>": 3790,
    "asyon</w>": 3791,
    "asyona</w>": 3792,
    "asyonal</w>": 3793,
    "asyond": 3794,
    "asyonda</w>": 3795,
    "asyonu</w>": 3796,
    "asyonunu</w>": 3797,
    "ası": 3798,
    "ası\"</w>": 3799,
    "ası'na</w>": 3800,
    "ası'nda</w>": 3801,
    "ası'ndaki</w>": 3802,
    "ası'ndan</w>": 3803,
    "ası'nı</w>": 3804,
    "ası'nın</w>": 3805,
    "ası)</w>": 3806,
    "ası,</w>": 3807,
    "ası:</w>": 3808,
    "ası</w>": 3809,
    "asıdır.</w>": 3810,
    "asıdır</w>": 3811,
    "asıl": 3812,
    "asıl</w>": 3813,
    "asıllı</w>": 3814,
    "asım</w>": 3815,
    "asına</w>": 3816,
    "asında,</w>": 3817,
    "asında</w>": 3818,
    "asındaki</w>": 3819,
    "asından</w>": 3820,
    "asını</w>": 3821,
    "asının</w>": 3822,
    "asır": 3823,
    "asır</w>": 3824,
    "asıydı.</w>": 3825,
    "asıyla</w>": 3826,
    "asız</w>": 3827,
    "at": 3828,
    "at'ın</w>": 3829,
    "at,</w>": 3830,
    "at</w>": 3831,
    "ata": 3832,
    "ata,</w>": 3833,
    "ata</w>": 3834,
    "atab": 3835,
    "atadı.</w>": 3836,
    "atak": 3837,
    "ataları</w>": 3838,
    "atalarının</w>": 3839,
    "atama": 3840,
    "atama</w>": 3841,
    "atan": 3842,
    "atan</w>": 3843,
    "atanan</w>": 3844,
    "atandı.</w>": 3845,
    "atanmıştır.</w>": 3846,
    "atanır.</w>": 3847,
    "atar.</w>": 3848,
    "atar</w>": 3849,
    "atarak</w>": 3850,
    "atas": 3851,
    "atasöz": 3852,
    "atasözleri</w>": 3853,
    "atası</w>": 3854,
    "atatür": 3855,
    "atatürk": 3856,
    "atatürk'ün</w>": 3857,
    "atatürk,</w>": 3858,
    "atatürk</w>": 3859,
    "atatürkç": 3860,
    "atay": 3861,
    "atay</w>": 3862,
    "ataş": 3863,
    "ate": 3864,
    "ate</w>": 3865,
    "ated</w>": 3866,
    "ateist</w>": 3867,
    "ateistler</w>": 3868,
    "ater": 3869,
    "ateroskler": 3870,
    "ates</w>": 3871,
    "ateş": 3872,
    "ateş,</w>": 3873,
    "ateş</w>": 3874,
    "ateşe</w>": 3875,
    "ateşi</w>": 3876,
    "ateşkes</w>": 3877,
    "ateşli</w>": 3878,
    "atf": 3879,
    "atfedilen</w>": 3880,
    "ath": 3881,
    "ath,</w>": 3882,
    "ath</w>": 3883,
    "athan": 3884,
    "athan</w>": 3885,
    "athen": 3886,
    "athena</w>": 3887,
    "ati": 3888,
    "ati,</w>": 3889,
    "ati</w>": 3890,
    "atif": 3891,
    "atif</w>": 3892,
    "atik</w>": 3893,
    "atilla</w>": 3894,
    "atin": 3895,
    "atina": 3896,
    "atina'da</w>": 3897,
    "atina</w>": 3898,
    "ating</w>": 3899,
    "ation": 3900,
    "ation)</w>": 3901,
    "ation,</w>": 3902,
    "ation</w>": 3903,
    "ational</w>": 3904,
    "ations</w>": 3905,
    "atis": 3906,
    "atisti": 3907,
    "ative</w>": 3908,
    "atla": 3909,
    "atlama</w>": 3910,
    "atlan": 3911,
    "atlantik</w>": 3912,
    "atlar</w>": 3913,
    "atları</w>": 3914,
    "atların</w>": 3915,
    "atlas</w>": 3916,
    "atlat": 3917,
    "atlet</w>": 3918,
    "atleti": 3919,
    "atletiz": 3920,
    "atletizm</w>": 3921,
    "atlı</w>": 3922,
    "atm</w>": 3923,
    "atma</w>": 3924,
    "atmak</w>": 3925,
    "atmos": 3926,
    "atmosfer": 3927,
    "atmosfer</w>": 3928,
    "atmosferde</w>": 3929,
    "atmosfere</w>": 3930,
    "atmosferi</w>": 3931,
    "atmosferik</w>": 3932,
    "atmosferin</w>": 3933,
    "atmosferinin</w>": 3934,
    "atmış</w>": 3935,
    "atmıştır.</w>": 3936,
    "ato</w>": 3937,
    "atom": 3938,
    "atom</w>": 3939,
    "atomik</w>": 3940,
    "atomlar</w>": 3941,
    "atomları</w>": 3942,
    "atomların</w>": 3943,
    "atomu</w>": 3944,
    "atomun</w>": 3945,
    "ator": 3946,
    "ator</w>": 3947,
    "atp</w>": 3948,
    "atsız,</w>": 3949,
    "atsız</w>": 3950,
    "atta</w>": 3951,
    "attan</w>": 3952,
    "atti": 3953,
    "attin</w>": 3954,
    "attı.</w>": 3955,
    "attığı</w>": 3956,
    "atur": 3957,
    "atçı</w>": 3958,
    "atöly": 3959,
    "atör": 3960,
    "atör</w>": 3961,
    "atörü</w>": 3962,
    "atür": 3963,
    "atı,</w>": 3964,
    "atı</w>": 3965,
    "atıcı</w>": 3966,
    "atıf": 3967,
    "atıf</w>": 3968,
    "atıfta</w>": 3969,
    "atık": 3970,
    "atık</w>": 3971,
    "atıl": 3972,
    "atılan</w>": 3973,
    "atıldı.</w>": 3974,
    "atılmış</w>": 3975,
    "atılmıştır.</w>": 3976,
    "atılır.</w>": 3977,
    "atın</w>": 3978,
    "atına</w>": 3979,
    "atından</w>": 3980,
    "atını</w>": 3981,
    "atının</w>": 3982,
    "atış": 3983,
    "atış</w>": 3984,
    "atışı</w>": 3985,
    "au": 3986,
    "au,</w>": 3987,
    "au</w>": 3988,
    "audi</w>": 3989,
    "augus": 3990,
    "august</w>": 3991,
    "auguste</w>": 3992,
    "augustin": 3993,
    "augustus</w>": 3994,
    "aul": 3995,
    "aur": 3996,
    "aus": 3997,
    "austral": 3998,
    "aut": 3999,
    "auto": 4000,
    "aux</w>": 4001,
    "av": 4002,
    "av</w>": 4003,
    "ava</w>": 4004,
    "avam</w>": 4005,
    "avan": 4006,
    "avant": 4007,
    "avantaj": 4008,
    "avantaj</w>": 4009,
    "avantajları</w>": 4010,
    "avar": 4011,
    "avar</w>": 4012,
    "avcı": 4013,
    "avcı</w>": 4014,
    "aven": 4015,
    "aver": 4016,
    "avi": 4017,
    "avi</w>": 4018,
    "avir": 4019,
    "avlan": 4020,
    "avlu": 4021,
    "avni</w>": 4022,
    "avras": 4023,
    "avrasya</w>": 4024,
    "avrup": 4025,
    "avrupa": 4026,
    "avrupa'da</w>": 4027,
    "avrupa'daki</w>": 4028,
    "avrupa'dan</w>": 4029,
    "avrupa'nın</w>": 4030,
    "avrupa'ya</w>": 4031,
    "avrupa'yı</w>": 4032,
    "avrupa,</w>": 4033,
    "avrupa</w>": 4034,
    "avrupalı</w>": 4035,
    "avrupalılar</w>": 4036,
    "avrupalıların</w>": 4037,
    "avrupa’da</w>": 4038,
    "avrupa’nın</w>": 4039,
    "avu": 4040,
    "avukat": 4041,
    "avukat,</w>": 4042,
    "avukat</w>": 4043,
    "avukatı</w>": 4044,
    "avus": 4045,
    "avustral": 4046,
    "avustralya'da</w>": 4047,
    "avustralya'nın</w>": 4048,
    "avustralya,</w>": 4049,
    "avustralya</w>": 4050,
    "avustralyalı</w>": 4051,
    "avustur": 4052,
    "avusturya'nın</w>": 4053,
    "avusturya,</w>": 4054,
    "avusturya-": 4055,
    "avusturya-macaristan</w>": 4056,
    "avusturya</w>": 4057,
    "avusturyalı</w>": 4058,
    "avv": 4059,
    "aw": 4060,
    "aw</w>": 4061,
    "awa</w>": 4062,
    "ax": 4063,
    "ay": 4064,
    "ay'a</w>": 4065,
    "ay'da</w>": 4066,
    "ay'ı</w>": 4067,
    "ay'ın</w>": 4068,
    "ay,</w>": 4069,
    "ay-": 4070,
    "ay</w>": 4071,
    "aya": 4072,
    "aya</w>": 4073,
    "ayak": 4074,
    "ayak</w>": 4075,
    "ayakkab": 4076,
    "ayakkabı</w>": 4077,
    "ayaklan": 4078,
    "ayaklanma": 4079,
    "ayaklanma</w>": 4080,
    "ayaklanmalar</w>": 4081,
    "ayaklanması</w>": 4082,
    "ayakta</w>": 4083,
    "ayan</w>": 4084,
    "ayar": 4085,
    "ayar</w>": 4086,
    "ayarak</w>": 4087,
    "ayas": 4088,
    "ayasof": 4089,
    "ayasofya</w>": 4090,
    "ayasofya’nın</w>": 4091,
    "ayaz": 4092,
    "ayağ": 4093,
    "ayağa</w>": 4094,
    "ayd": 4095,
    "ayda</w>": 4096,
    "aydan</w>": 4097,
    "aydı.</w>": 4098,
    "aydı</w>": 4099,
    "aydın": 4100,
    "aydın,</w>": 4101,
    "aydın</w>": 4102,
    "aydınlan": 4103,
    "aydınlanma</w>": 4104,
    "aydınlat": 4105,
    "aydınlatma</w>": 4106,
    "aydınlık</w>": 4107,
    "ayet": 4108,
    "ayet</w>": 4109,
    "ayetinde</w>": 4110,
    "ayg": 4111,
    "aygı": 4112,
    "aygıt": 4113,
    "ayhan</w>": 4114,
    "ayin": 4115,
    "ayken</w>": 4116,
    "aykut</w>": 4117,
    "aykırı</w>": 4118,
    "ayla</w>": 4119,
    "aylar</w>": 4120,
    "ayları</w>": 4121,
    "aylarında</w>": 4122,
    "aylı</w>": 4123,
    "aylık</w>": 4124,
    "ayn": 4125,
    "ayn</w>": 4126,
    "ayna</w>": 4127,
    "ayne</w>": 4128,
    "aynen</w>": 4129,
    "ayni</w>": 4130,
    "aynı</w>": 4131,
    "aynıdır.</w>": 4132,
    "ayr": 4133,
    "ayrı": 4134,
    "ayrı</w>": 4135,
    "ayrıca,</w>": 4136,
    "ayrıca</w>": 4137,
    "ayrıcal": 4138,
    "ayrık</w>": 4139,
    "ayrıl": 4140,
    "ayrılabil": 4141,
    "ayrılabilir.</w>": 4142,
    "ayrılan</w>": 4143,
    "ayrılarak</w>": 4144,
    "ayrıldı.</w>": 4145,
    "ayrıldı</w>": 4146,
    "ayrıldıktan</w>": 4147,
    "ayrıldığı</w>": 4148,
    "ayrılma</w>": 4149,
    "ayrılmak</w>": 4150,
    "ayrılmaktadır.</w>": 4151,
    "ayrılması</w>": 4152,
    "ayrılmasıyla</w>": 4153,
    "ayrılmış</w>": 4154,
    "ayrılmıştır.</w>": 4155,
    "ayrılık": 4156,
    "ayrılık</w>": 4157,
    "ayrılıkçı</w>": 4158,
    "ayrılıp</w>": 4159,
    "ayrılır.</w>": 4160,
    "ayrılır:</w>": 4161,
    "ayrılırlar.</w>": 4162,
    "ayrılığı</w>": 4163,
    "ayrım": 4164,
    "ayrım</w>": 4165,
    "ayrımı</w>": 4166,
    "ayrın": 4167,
    "ayrıntı": 4168,
    "ayrıntı</w>": 4169,
    "ayrıntılı</w>": 4170,
    "ayrış": 4171,
    "ayrıştır": 4172,
    "ayt": 4173,
    "ayval": 4174,
    "ayvalık</w>": 4175,
    "ayçiç": 4176,
    "ayı,</w>": 4177,
    "ayı</w>": 4178,
    "ayın</w>": 4179,
    "ayına</w>": 4180,
    "ayında,</w>": 4181,
    "ayında</w>": 4182,
    "ayından</w>": 4183,
    "ayının</w>": 4184,
    "ayıp</w>": 4185,
    "ayır": 4186,
    "ayıran</w>": 4187,
    "ayırma</w>": 4188,
    "ayırmak</w>": 4189,
    "ayırt</w>": 4190,
    "ayırıcı</w>": 4191,
    "ayırır.</w>": 4192,
    "ayşe</w>": 4193,
    "az": 4194,
    "az,</w>": 4195,
    "az</w>": 4196,
    "aza</w>": 4197,
    "azal": 4198,
    "azalan</w>": 4199,
    "azaldı.</w>": 4200,
    "azalma</w>": 4201,
    "azalması</w>": 4202,
    "azalmasına</w>": 4203,
    "azalmıştır.</w>": 4204,
    "azalt": 4205,
    "azaltmak</w>": 4206,
    "azaltılması</w>": 4207,
    "azaltır.</w>": 4208,
    "azalır.</w>": 4209,
    "azdır.</w>": 4210,
    "azer": 4211,
    "azerbay": 4212,
    "azerbaycan": 4213,
    "azerbaycan'da</w>": 4214,
    "azerbaycan'ın</w>": 4215,
    "azerbaycan,</w>": 4216,
    "azerbaycan</w>": 4217,
    "azerbaycanlı</w>": 4218,
    "azeri</w>": 4219,
    "azeric": 4220,
    "azerice</w>": 4221,
    "azi</w>": 4222,
    "aziz": 4223,
    "aziz</w>": 4224,
    "azl": 4225,
    "azot</w>": 4226,
    "azz": 4227,
    "azı</w>": 4228,
    "azın": 4229,
    "azından</w>": 4230,
    "azınlık</w>": 4231,
    "azınlıklar</w>": 4232,
    "aç": 4233,
    "aç,</w>": 4234,
    "aç</w>": 4235,
    "açabilir.</w>": 4236,
    "açan</w>": 4237,
    "açar.</w>": 4238,
    "açarak</w>": 4239,
    "açlık</w>": 4240,
    "açmış</w>": 4241,
    "açmıştır.</w>": 4242,
    "açtı.</w>": 4243,
    "açtı</w>": 4244,
    "açtığı</w>": 4245,
    "açı": 4246,
    "açı</w>": 4247,
    "açıdan</w>": 4248,
    "açık": 4249,
    "açık'ta</w>": 4250,
    "açık,</w>": 4251,
    "açık</w>": 4252,
    "açıkla": 4253,
    "açıkladı.</w>": 4254,
    "açıkladığı</w>": 4255,
    "açıklama": 4256,
    "açıklama</w>": 4257,
    "açıklamada</w>": 4258,
    "açıklamak</w>": 4259,
    "açıklamalar</w>": 4260,
    "açıklaması</w>": 4261,
    "açıklamasını</w>": 4262,
    "açıklamaya</w>": 4263,
    "açıklamıştır.</w>": 4264,
    "açıklan": 4265,
    "açıklanan</w>": 4266,
    "açıklandı.</w>": 4267,
    "açıklanmıştır.</w>": 4268,
    "açıklar.</w>": 4269,
    "açıklarında</w>": 4270,
    "açıklayan</w>": 4271,
    "açıklık</w>": 4272,
    "açıktır.</w>": 4273,
    "açıkça</w>": 4274,
    "açıl": 4275,
    "açılan</w>": 4276,
    "açıldı.</w>": 4277,
    "açıldı</w>": 4278,
    "açıldığı</w>": 4279,
    "açılması</w>": 4280,
    "açılmasına</w>": 4281,
    "açılmış</w>": 4282,
    "açılmıştır.</w>": 4283,
    "açılır.</w>": 4284,
    "açılış": 4285,
    "açılış</w>": 4286,
    "açılışı</w>": 4287,
    "açıs": 4288,
    "açısal</w>": 4289,
    "açısı</w>": 4290,
    "açısından</w>": 4291,
    "açığ": 4292,
    "açığa</w>": 4293,
    "aüstü</w>": 4294,
    "ağ": 4295,
    "ağ,</w>": 4296,
    "ağ</w>": 4297,
    "ağa": 4298,
    "ağa,</w>": 4299,
    "ağa</w>": 4300,
    "ağab": 4301,
    "ağabeyi</w>": 4302,
    "ağac": 4303,
    "ağacı</w>": 4304,
    "ağacın</w>": 4305,
    "ağan</w>": 4306,
    "ağaç": 4307,
    "ağaç,</w>": 4308,
    "ağaç</w>": 4309,
    "ağaçlar</w>": 4310,
    "ağaçları</w>": 4311,
    "ağaçların</w>": 4312,
    "ağlar</w>": 4313,
    "ağları</w>": 4314,
    "ağr": 4315,
    "ağrı": 4316,
    "ağrı</w>": 4317,
    "ağusto": 4318,
    "ağustos": 4319,
    "ağustos'ta</w>": 4320,
    "ağustos</w>": 4321,
    "ağz": 4322,
    "ağzı</w>": 4323,
    "ağzından</w>": 4324,
    "ağı,</w>": 4325,
    "ağı</w>": 4326,
    "ağın</w>": 4327,
    "ağına</w>": 4328,
    "ağında</w>": 4329,
    "ağından</w>": 4330,
    "ağını</w>": 4331,
    "ağının</w>": 4332,
    "ağır": 4333,
    "ağır</w>": 4334,
    "ağırlık": 4335,
    "ağırlık</w>": 4336,
    "ağırlıklı</w>": 4337,
    "ağırlığ": 4338,
    "ağırlığı</w>": 4339,
    "ağırlığında</w>": 4340,
    "ağız": 4341,
    "ağız</w>": 4342,
    "aş": 4343,
    "aş'ın</w>": 4344,
    "aş,</w>": 4345,
    "aş</w>": 4346,
    "aşa": 4347,
    "aşa</w>": 4348,
    "aşama": 4349,
    "aşama</w>": 4350,
    "aşamada</w>": 4351,
    "aşamalı</w>": 4352,
    "aşaması</w>": 4353,
    "aşamasında</w>": 4354,
    "aşan</w>": 4355,
    "aşağ": 4356,
    "aşağı": 4357,
    "aşağı</w>": 4358,
    "aşağıda</w>": 4359,
    "aşağıdaki</w>": 4360,
    "aşağıya</w>": 4361,
    "aşina</w>": 4362,
    "aşir": 4363,
    "aşk": 4364,
    "aşk,</w>": 4365,
    "aşk</w>": 4366,
    "aşkı</w>": 4367,
    "aşkın</w>": 4368,
    "aşla": 4369,
    "aşla</w>": 4370,
    "aşlar": 4371,
    "aşlar</w>": 4372,
    "aşları</w>": 4373,
    "aşlarının</w>": 4374,
    "aştır": 4375,
    "aşı,</w>": 4376,
    "aşı</w>": 4377,
    "aşık</w>": 4378,
    "aşın": 4379,
    "aşır": 4380,
    "aşırı</w>": 4381,
    "a’": 4382,
    "a’da</w>": 4383,
    "a’nın</w>": 4384,
    "a’ya</w>": 4385,
    "a’yı</w>": 4386,
    "a”</w>": 4387,
    "b": 4388,
    "b)</w>": 4389,
    "b,</w>": 4390,
    "b-": 4391,
    "b-ı</w>": 4392,
    "b.": 4393,
    "b.</w>": 4394,
    "b</w>": 4395,
    "ba": 4396,
    "ba,</w>": 4397,
    "ba</w>": 4398,
    "bab": 4399,
    "baba": 4400,
    "baba,</w>": 4401,
    "baba</w>": 4402,
    "babaeski</w>": 4403,
    "babası,</w>": 4404,
    "babası</w>": 4405,
    "babasına</w>": 4406,
    "babasını</w>": 4407,
    "babasının</w>": 4408,
    "babil": 4409,
    "babil</w>": 4410,
    "babür</w>": 4411,
    "babı": 4412,
    "bac": 4413,
    "baca</w>": 4414,
    "bacak": 4415,
    "bach": 4416,
    "bach'ın</w>": 4417,
    "bach,</w>": 4418,
    "bach</w>": 4419,
    "back": 4420,
    "back</w>": 4421,
    "background": 4422,
    "bad": 4423,
    "bad</w>": 4424,
    "baden": 4425,
    "baden-w": 4426,
    "baden-württem": 4427,
    "baf": 4428,
    "bafta</w>": 4429,
    "bag": 4430,
    "bagr": 4431,
    "bah": 4432,
    "baha": 4433,
    "bahadır</w>": 4434,
    "bahama": 4435,
    "bahar": 4436,
    "bahar</w>": 4437,
    "baharat</w>": 4438,
    "baharda</w>": 4439,
    "baharında</w>": 4440,
    "bahr": 4441,
    "bahriye</w>": 4442,
    "bahs": 4443,
    "bahsed": 4444,
    "bahseder.</w>": 4445,
    "bahsedil": 4446,
    "bahsedilen</w>": 4447,
    "bahsedilir.</w>": 4448,
    "bahsetmiştir.</w>": 4449,
    "bahsi</w>": 4450,
    "bahâ": 4451,
    "bahç": 4452,
    "bahçe</w>": 4453,
    "bahçel": 4454,
    "bahçeleri</w>": 4455,
    "bahçesi</w>": 4456,
    "bahçesinde</w>": 4457,
    "bail": 4458,
    "bak": 4459,
    "baka": 4460,
    "bakan": 4461,
    "bakan,</w>": 4462,
    "bakan</w>": 4463,
    "bakanlar</w>": 4464,
    "bakanları</w>": 4465,
    "bakanlık</w>": 4466,
    "bakanlığı": 4467,
    "bakanlığı'na</w>": 4468,
    "bakanlığı'nın</w>": 4469,
    "bakanlığı,</w>": 4470,
    "bakanlığı</w>": 4471,
    "bakanlığına</w>": 4472,
    "bakanı</w>": 4473,
    "baker,</w>": 4474,
    "bakter": 4475,
    "bakteri</w>": 4476,
    "bakteriler</w>": 4477,
    "bakterilerin</w>": 4478,
    "bakteriy": 4479,
    "bakteriyel</w>": 4480,
    "bakü": 4481,
    "bakü-": 4482,
    "bakü</w>": 4483,
    "bakıl": 4484,
    "bakıldığında</w>": 4485,
    "bakım": 4486,
    "bakım</w>": 4487,
    "bakıma</w>": 4488,
    "bakımdan</w>": 4489,
    "bakımından</w>": 4490,
    "bakın": 4491,
    "bakınız": 4492,
    "bakınız:</w>": 4493,
    "bakınız</w>": 4494,
    "bakır": 4495,
    "bakır,</w>": 4496,
    "bakır</w>": 4497,
    "bakırköy</w>": 4498,
    "bakış": 4499,
    "bakış</w>": 4500,
    "bal": 4501,
    "bal,</w>": 4502,
    "bal</w>": 4503,
    "bala": 4504,
    "bale</w>": 4505,
    "balkan": 4506,
    "balkan</w>": 4507,
    "balkanlar'da</w>": 4508,
    "balkanlar</w>": 4509,
    "ball</w>": 4510,
    "balon": 4511,
    "balt": 4512,
    "baltık</w>": 4513,
    "balı</w>": 4514,
    "balık": 4515,
    "balık,</w>": 4516,
    "balık</w>": 4517,
    "balıkesir": 4518,
    "balıkesir</w>": 4519,
    "balıklı": 4520,
    "balıkç": 4521,
    "balıkçı</w>": 4522,
    "balıkçılık</w>": 4523,
    "balığı</w>": 4524,
    "bam": 4525,
    "ban": 4526,
    "ban</w>": 4527,
    "bana</w>": 4528,
    "band": 4529,
    "band</w>": 4530,
    "bandır": 4531,
    "bandırma</w>": 4532,
    "banglad": 4533,
    "bangladeş": 4534,
    "bangladeş</w>": 4535,
    "bangladeşli</w>": 4536,
    "bank": 4537,
    "bank</w>": 4538,
    "banka": 4539,
    "banka</w>": 4540,
    "bankacılık</w>": 4541,
    "bankalar</w>": 4542,
    "bankaların</w>": 4543,
    "bankası": 4544,
    "bankası,</w>": 4545,
    "bankası</w>": 4546,
    "banliy": 4547,
    "banliyö": 4548,
    "banliyö</w>": 4549,
    "bant": 4550,
    "bant</w>": 4551,
    "bantu</w>": 4552,
    "banı</w>": 4553,
    "bap": 4554,
    "baptist": 4555,
    "baptiste</w>": 4556,
    "bar": 4557,
    "bar,</w>": 4558,
    "bar</w>": 4559,
    "bara</w>": 4560,
    "baraj": 4561,
    "baraj</w>": 4562,
    "barajı</w>": 4563,
    "barat</w>": 4564,
    "barbad": 4565,
    "barbar": 4566,
    "barbara</w>": 4567,
    "barbaros</w>": 4568,
    "barcel": 4569,
    "barok</w>": 4570,
    "baron</w>": 4571,
    "barret": 4572,
    "barrett,</w>": 4573,
    "barrett</w>": 4574,
    "barry</w>": 4575,
    "barsel": 4576,
    "barselon": 4577,
    "bart": 4578,
    "barth": 4579,
    "bartol": 4580,
    "bartolom": 4581,
    "bartın</w>": 4582,
    "barın": 4583,
    "barındır": 4584,
    "barındıran</w>": 4585,
    "barındırmaktadır.</w>": 4586,
    "barındırır.</w>": 4587,
    "barış": 4588,
    "barış</w>": 4589,
    "barışçıl</w>": 4590,
    "barışı</w>": 4591,
    "bas": 4592,
    "bas</w>": 4593,
    "basama": 4594,
    "basamak": 4595,
    "basamak</w>": 4596,
    "basamaklı</w>": 4597,
    "basan</w>": 4598,
    "base-": 4599,
    "basic</w>": 4600,
    "basit": 4601,
    "basit</w>": 4602,
    "bask": 4603,
    "basket": 4604,
    "basketbol": 4605,
    "basketbol,</w>": 4606,
    "basketbol</w>": 4607,
    "basketbolcu": 4608,
    "basketbolcu</w>": 4609,
    "baskı": 4610,
    "baskı,</w>": 4611,
    "baskı</w>": 4612,
    "baskıcı</w>": 4613,
    "baskılar</w>": 4614,
    "baskın": 4615,
    "baskın</w>": 4616,
    "baskını</w>": 4617,
    "baskıs": 4618,
    "baskısı</w>": 4619,
    "basra</w>": 4620,
    "basti": 4621,
    "bastır": 4622,
    "bastırmak</w>": 4623,
    "bastırıldı.</w>": 4624,
    "bası</w>": 4625,
    "basıl": 4626,
    "basılan</w>": 4627,
    "basıldı.</w>": 4628,
    "basılmış</w>": 4629,
    "basılmıştır.</w>": 4630,
    "basılı</w>": 4631,
    "basım": 4632,
    "basım</w>": 4633,
    "basımı</w>": 4634,
    "basın": 4635,
    "basın</w>": 4636,
    "basına</w>": 4637,
    "basıncı</w>": 4638,
    "basıncının</w>": 4639,
    "basında</w>": 4640,
    "basınç": 4641,
    "basınç</w>": 4642,
    "bat": 4643,
    "bat</w>": 4644,
    "batak": 4645,
    "bataklık</w>": 4646,
    "batar": 4647,
    "bater": 4648,
    "baterist</w>": 4649,
    "bathor": 4650,
    "bati": 4651,
    "batlamy": 4652,
    "batman</w>": 4653,
    "battista</w>": 4654,
    "batum": 4655,
    "batum</w>": 4656,
    "batı": 4657,
    "batı'da</w>": 4658,
    "batı</w>": 4659,
    "batıda</w>": 4660,
    "batıdaki</w>": 4661,
    "batıdan</w>": 4662,
    "batılı</w>": 4663,
    "batın": 4664,
    "batır": 4665,
    "batısı</w>": 4666,
    "batısında,</w>": 4667,
    "batısında</w>": 4668,
    "batısındaki</w>": 4669,
    "batıya</w>": 4670,
    "bau": 4671,
    "bav": 4672,
    "bavyer": 4673,
    "bavyera</w>": 4674,
    "bay": 4675,
    "bay,</w>": 4676,
    "bay</w>": 4677,
    "bayan</w>": 4678,
    "bayar,</w>": 4679,
    "bayar</w>": 4680,
    "bayağı</w>": 4681,
    "baybur": 4682,
    "bayburt</w>": 4683,
    "bayez": 4684,
    "bayezid": 4685,
    "bayezid'in</w>": 4686,
    "bayezid,</w>": 4687,
    "bayezid</w>": 4688,
    "bayr": 4689,
    "bayrak": 4690,
    "bayrak</w>": 4691,
    "bayram": 4692,
    "bayram</w>": 4693,
    "bayramı</w>": 4694,
    "bayrağı</w>": 4695,
    "bayt": 4696,
    "bayt</w>": 4697,
    "bayındır": 4698,
    "bayındırlık</w>": 4699,
    "baz": 4700,
    "baz</w>": 4701,
    "bazen</w>": 4702,
    "bazlı</w>": 4703,
    "bazı": 4704,
    "bazı</w>": 4705,
    "bazıları,</w>": 4706,
    "bazıları</w>": 4707,
    "bazılarıdır.</w>": 4708,
    "bazılarında</w>": 4709,
    "bazılarını</w>": 4710,
    "bazılarının</w>": 4711,
    "bazında</w>": 4712,
    "bağ": 4713,
    "bağ</w>": 4714,
    "bağcılar</w>": 4715,
    "bağd": 4716,
    "bağdat": 4717,
    "bağdat'ta</w>": 4718,
    "bağdat</w>": 4719,
    "bağdaştır": 4720,
    "bağla": 4721,
    "bağlam": 4722,
    "bağlama": 4723,
    "bağlama</w>": 4724,
    "bağlamda</w>": 4725,
    "bağlamında</w>": 4726,
    "bağlan": 4727,
    "bağlanan</w>": 4728,
    "bağlandı.</w>": 4729,
    "bağlanma</w>": 4730,
    "bağlanması</w>": 4731,
    "bağlanmış</w>": 4732,
    "bağlanmıştır.</w>": 4733,
    "bağlant": 4734,
    "bağlantı": 4735,
    "bağlantı</w>": 4736,
    "bağlantılar</w>": 4737,
    "bağlantıları</w>": 4738,
    "bağlantılı</w>": 4739,
    "bağlantılıdır.</w>": 4740,
    "bağlantısı</w>": 4741,
    "bağlanır.</w>": 4742,
    "bağlar.</w>": 4743,
    "bağlar</w>": 4744,
    "bağları</w>": 4745,
    "bağlayan</w>": 4746,
    "bağlayıcı</w>": 4747,
    "bağlı": 4748,
    "bağlı</w>": 4749,
    "bağlıdır.</w>": 4750,
    "bağlılık</w>": 4751,
    "bağlıydı.</w>": 4752,
    "bağı</w>": 4753,
    "bağıl</w>": 4754,
    "bağım": 4755,
    "bağımlı</w>": 4756,
    "bağımlılık</w>": 4757,
    "bağımlılığı</w>": 4758,
    "bağımsız": 4759,
    "bağımsız</w>": 4760,
    "bağımsızlık</w>": 4761,
    "bağımsızlıklarını</w>": 4762,
    "bağımsızlığı</w>": 4763,
    "bağımsızlığın</w>": 4764,
    "bağımsızlığına</w>": 4765,
    "bağımsızlığını</w>": 4766,
    "bağın": 4767,
    "bağır": 4768,
    "bağırsak": 4769,
    "bağırsak</w>": 4770,
    "bağış": 4771,
    "bağışıklık</w>": 4772,
    "baş": 4773,
    "baş,</w>": 4774,
    "baş</w>": 4775,
    "başa</w>": 4776,
    "başar": 4777,
    "başaran</w>": 4778,
    "başardı.</w>": 4779,
    "başarmıştır.</w>": 4780,
    "başarı": 4781,
    "başarı</w>": 4782,
    "başarılar</w>": 4783,
    "başarıları</w>": 4784,
    "başarılı</w>": 4785,
    "başarısı</w>": 4786,
    "başarısını</w>": 4787,
    "başarısız": 4788,
    "başarısız</w>": 4789,
    "başarısızlıkla</w>": 4790,
    "başarıya</w>": 4791,
    "başarıyla</w>": 4792,
    "başbak": 4793,
    "başbakan": 4794,
    "başbakan</w>": 4795,
    "başbakanlık</w>": 4796,
    "başbakanlığı</w>": 4797,
    "başbakanı</w>": 4798,
    "başka": 4799,
    "başka</w>": 4800,
    "başkaları</w>": 4801,
    "başkalarının</w>": 4802,
    "başkaldır": 4803,
    "başkan": 4804,
    "başkan</w>": 4805,
    "başkanları</w>": 4806,
    "başkanlarından</w>": 4807,
    "başkanlık</w>": 4808,
    "başkanlığ": 4809,
    "başkanlığa</w>": 4810,
    "başkanlığı'na</w>": 4811,
    "başkanlığı,</w>": 4812,
    "başkanlığı</w>": 4813,
    "başkanlığına</w>": 4814,
    "başkanlığında</w>": 4815,
    "başkanlığındaki</w>": 4816,
    "başkanlığını</w>": 4817,
    "başkanı,</w>": 4818,
    "başkanı</w>": 4819,
    "başkanını</w>": 4820,
    "başkanının</w>": 4821,
    "başken": 4822,
    "başkent": 4823,
    "başkent</w>": 4824,
    "başkenti": 4825,
    "başkenti</w>": 4826,
    "başkentini</w>": 4827,
    "başkentte</w>": 4828,
    "başkomutan": 4829,
    "başla": 4830,
    "başladı,</w>": 4831,
    "başladı.</w>": 4832,
    "başladı;</w>": 4833,
    "başladı</w>": 4834,
    "başladıktan</w>": 4835,
    "başladılar.</w>": 4836,
    "başladığı</w>": 4837,
    "başladığında</w>": 4838,
    "başladığını</w>": 4839,
    "başlama</w>": 4840,
    "başlamadan</w>": 4841,
    "başlamak</w>": 4842,
    "başlaması</w>": 4843,
    "başlamasına</w>": 4844,
    "başlamasından</w>": 4845,
    "başlamasıyla</w>": 4846,
    "başlamış,</w>": 4847,
    "başlamış</w>": 4848,
    "başlamışlardır.</w>": 4849,
    "başlamıştı.</w>": 4850,
    "başlamıştır.</w>": 4851,
    "başlan": 4852,
    "başlanan</w>": 4853,
    "başland": 4854,
    "başlandı.</w>": 4855,
    "başlangı": 4856,
    "başlangıc": 4857,
    "başlangıcı</w>": 4858,
    "başlangıcında</w>": 4859,
    "başlangıcından</w>": 4860,
    "başlangıç": 4861,
    "başlangıç</w>": 4862,
    "başlangıçta</w>": 4863,
    "başlanmış</w>": 4864,
    "başlanmıştır.</w>": 4865,
    "başlar": 4866,
    "başlar,</w>": 4867,
    "başlar.</w>": 4868,
    "başlar</w>": 4869,
    "başlarda</w>": 4870,
    "başlarına</w>": 4871,
    "başlarında,</w>": 4872,
    "başlarında</w>": 4873,
    "başlarından</w>": 4874,
    "başlat": 4875,
    "başlatan</w>": 4876,
    "başlatmıştır.</w>": 4877,
    "başlattı.</w>": 4878,
    "başlattığı</w>": 4879,
    "başlatılan</w>": 4880,
    "başlatıldı.</w>": 4881,
    "başlayan</w>": 4882,
    "başlayarak</w>": 4883,
    "başlayınca</w>": 4884,
    "başlayıp</w>": 4885,
    "başlı": 4886,
    "başlı</w>": 4887,
    "başlıca</w>": 4888,
    "başlık": 4889,
    "başlık</w>": 4890,
    "başlıklı</w>": 4891,
    "başlığı</w>": 4892,
    "başpiskopos": 4893,
    "başpiskoposu</w>": 4894,
    "başrol": 4895,
    "başrol</w>": 4896,
    "başsav": 4897,
    "başta</w>": 4898,
    "baştan": 4899,
    "baştan</w>": 4900,
    "başvur": 4901,
    "başvurdu.</w>": 4902,
    "başvuru</w>": 4903,
    "başı": 4904,
    "başı,</w>": 4905,
    "başı</w>": 4906,
    "başına</w>": 4907,
    "başında,</w>": 4908,
    "başında</w>": 4909,
    "başındaki</w>": 4910,
    "başından</w>": 4911,
    "başını</w>": 4912,
    "bb": 4913,
    "bbc</w>": 4914,
    "bby</w>": 4915,
    "bd": 4916,
    "be": 4917,
    "be,</w>": 4918,
    "be</w>": 4919,
    "beat": 4920,
    "beatles": 4921,
    "beatles</w>": 4922,
    "beau": 4923,
    "beb": 4924,
    "bebek": 4925,
    "bebek</w>": 4926,
    "bec": 4927,
    "becer": 4928,
    "beck,</w>": 4929,
    "becket": 4930,
    "beckett'ın</w>": 4931,
    "beckett</w>": 4932,
    "bed": 4933,
    "beden": 4934,
    "beden</w>": 4935,
    "bedensel</w>": 4936,
    "bedest": 4937,
    "bedri</w>": 4938,
    "beethov": 4939,
    "beg": 4940,
    "beh": 4941,
    "behç": 4942,
    "behçet</w>": 4943,
    "bek": 4944,
    "bek</w>": 4945,
    "bekir</w>": 4946,
    "beklem": 4947,
    "beklen": 4948,
    "beklenen</w>": 4949,
    "beklenmedik</w>": 4950,
    "beklenti": 4951,
    "bekleyen</w>": 4952,
    "bekt": 4953,
    "bektaş": 4954,
    "bektaş</w>": 4955,
    "bektâş": 4956,
    "bektâşî": 4957,
    "bektâşî</w>": 4958,
    "bel": 4959,
    "bel,</w>": 4960,
    "bel</w>": 4961,
    "bela</w>": 4962,
    "belar": 4963,
    "belarus</w>": 4964,
    "beld": 4965,
    "belde</w>": 4966,
    "beldes": 4967,
    "beled": 4968,
    "belediy": 4969,
    "belediye,</w>": 4970,
    "belediye</w>": 4971,
    "belediyelerde</w>": 4972,
    "belediyesi</w>": 4973,
    "belediyespor</w>": 4974,
    "beler</w>": 4975,
    "beleri</w>": 4976,
    "belg": 4977,
    "belge</w>": 4978,
    "belgel": 4979,
    "belgeler": 4980,
    "belgeler</w>": 4981,
    "belgeleri</w>": 4982,
    "belges": 4983,
    "belgesel</w>": 4984,
    "belgrad": 4985,
    "belgrad</w>": 4986,
    "beli</w>": 4987,
    "belir": 4988,
    "belirg": 4989,
    "belirgin": 4990,
    "belirgin</w>": 4991,
    "belirgindir.</w>": 4992,
    "belirlediği</w>": 4993,
    "belirlem": 4994,
    "belirleme</w>": 4995,
    "belirlemek</w>": 4996,
    "belirlen": 4997,
    "belirlendi.</w>": 4998,
    "belirlenen</w>": 4999,
    "belirlenir.</w>": 5000,
    "belirlenir</w>": 5001,
    "belirlenmesi</w>": 5002,
    "belirlenmiş</w>": 5003,
    "belirlenmiştir.</w>": 5004,
    "belirler.</w>": 5005,
    "belirley": 5006,
    "belirleyen</w>": 5007,
    "belirleyici</w>": 5008,
    "belirli</w>": 5009,
    "belirmiş</w>": 5010,
    "belirsiz": 5011,
    "belirsiz</w>": 5012,
    "belirsizlik</w>": 5013,
    "belirt": 5014,
    "belirten</w>": 5015,
    "belirterek</w>": 5016,
    "belirti": 5017,
    "belirtil": 5018,
    "belirtildiği</w>": 5019,
    "belirtilen</w>": 5020,
    "belirtiler</w>": 5021,
    "belirtileri</w>": 5022,
    "belirtilir.</w>": 5023,
    "belirtilmektedir.</w>": 5024,
    "belirtilmemiş</w>": 5025,
    "belirtilmiştir.</w>": 5026,
    "belirtir": 5027,
    "belirtir.</w>": 5028,
    "belirtmek</w>": 5029,
    "belirtmektedir.</w>": 5030,
    "belirtmiştir.</w>": 5031,
    "belirtti.</w>": 5032,
    "belirttiği</w>": 5033,
    "belki</w>": 5034,
    "bell": 5035,
    "bell,</w>": 5036,
    "bell</w>": 5037,
    "bellek</w>": 5038,
    "belli</w>": 5039,
    "belç": 5040,
    "belçika": 5041,
    "belçika'da</w>": 5042,
    "belçika'nın</w>": 5043,
    "belçika,</w>": 5044,
    "belçika</w>": 5045,
    "belçikalı</w>": 5046,
    "bem": 5047,
    "ben": 5048,
    "ben,</w>": 5049,
    "ben</w>": 5050,
    "bend": 5051,
    "bened": 5052,
    "benedic": 5053,
    "beni</w>": 5054,
    "benim": 5055,
    "benim</w>": 5056,
    "benims": 5057,
    "benimsed": 5058,
    "benimsedi.</w>": 5059,
    "benimsem": 5060,
    "benimsemiştir.</w>": 5061,
    "benimsen": 5062,
    "benimsey": 5063,
    "benimseyen</w>": 5064,
    "benin</w>": 5065,
    "benito</w>": 5066,
    "benjam": 5067,
    "benjamin</w>": 5068,
    "beno": 5069,
    "benoî": 5070,
    "benoît</w>": 5071,
    "benz": 5072,
    "benzer": 5073,
    "benzer.</w>": 5074,
    "benzer</w>": 5075,
    "benzeri</w>": 5076,
    "benzerlik</w>": 5077,
    "benzerlikler</w>": 5078,
    "benzersiz</w>": 5079,
    "benzetil": 5080,
    "benzeyen</w>": 5081,
    "ber": 5082,
    "ber,</w>": 5083,
    "ber</w>": 5084,
    "beraat</w>": 5085,
    "berab": 5086,
    "beraber": 5087,
    "beraber,</w>": 5088,
    "beraber</w>": 5089,
    "berabere</w>": 5090,
    "beraberinde</w>": 5091,
    "berber": 5092,
    "berberi</w>": 5093,
    "berek": 5094,
    "bereket</w>": 5095,
    "berg": 5096,
    "berg'in</w>": 5097,
    "berg,</w>": 5098,
    "berg</w>": 5099,
    "bergama": 5100,
    "bergama</w>": 5101,
    "berger,</w>": 5102,
    "beri)</w>": 5103,
    "beri,</w>": 5104,
    "beri</w>": 5105,
    "berk": 5106,
    "berlin": 5107,
    "berlin'de</w>": 5108,
    "berlin'e</w>": 5109,
    "berlin,</w>": 5110,
    "berlin</w>": 5111,
    "bern": 5112,
    "bernard</w>": 5113,
    "bernhard</w>": 5114,
    "berno": 5115,
    "bernoul": 5116,
    "bert,</w>": 5117,
    "bert</w>": 5118,
    "berto</w>": 5119,
    "bertran": 5120,
    "bertrand</w>": 5121,
    "bes": 5122,
    "besin": 5123,
    "besin</w>": 5124,
    "beslen": 5125,
    "beslenen</w>": 5126,
    "beslenme</w>": 5127,
    "best": 5128,
    "best</w>": 5129,
    "beste</w>": 5130,
    "bestec": 5131,
    "besteci,</w>": 5132,
    "besteci</w>": 5133,
    "besteciler</w>": 5134,
    "bestecileri</w>": 5135,
    "bestecisi</w>": 5136,
    "bestek": 5137,
    "bestekâr": 5138,
    "bestekâr</w>": 5139,
    "bestel": 5140,
    "bestelediği</w>": 5141,
    "bestelem": 5142,
    "bestesi</w>": 5143,
    "bet": 5144,
    "bet,</w>": 5145,
    "bet</w>": 5146,
    "beta</w>": 5147,
    "beti</w>": 5148,
    "betim": 5149,
    "betimlem": 5150,
    "beton</w>": 5151,
    "bette</w>": 5152,
    "betula</w>": 5153,
    "bey": 5154,
    "bey'e</w>": 5155,
    "bey'in</w>": 5156,
    "bey,</w>": 5157,
    "bey</w>": 5158,
    "beyan</w>": 5159,
    "beyann": 5160,
    "beyannam": 5161,
    "beyaz": 5162,
    "beyaz,</w>": 5163,
    "beyaz</w>": 5164,
    "beyazıt</w>": 5165,
    "beyi</w>": 5166,
    "beyin</w>": 5167,
    "beykoz": 5168,
    "beykoz</w>": 5169,
    "beyle</w>": 5170,
    "beyler": 5171,
    "beylerbeyi</w>": 5172,
    "beyleri</w>": 5173,
    "beyli</w>": 5174,
    "beylik": 5175,
    "beylik</w>": 5176,
    "beyliğ": 5177,
    "beyliği'nin</w>": 5178,
    "beyliği</w>": 5179,
    "beyn": 5180,
    "beynin</w>": 5181,
    "beyoğlu": 5182,
    "beyoğlu,</w>": 5183,
    "beyoğlu</w>": 5184,
    "beyrut": 5185,
    "beyrut</w>": 5186,
    "beyz": 5187,
    "beyzbol</w>": 5188,
    "beyşehir</w>": 5189,
    "bey’in</w>": 5190,
    "bez": 5191,
    "bezi</w>": 5192,
    "beğ": 5193,
    "beğen": 5194,
    "beğeni</w>": 5195,
    "beş": 5196,
    "beş</w>": 5197,
    "beşeri</w>": 5198,
    "beşik": 5199,
    "beşiktaş": 5200,
    "beşiktaş'ın</w>": 5201,
    "beşiktaş,</w>": 5202,
    "beşiktaş</w>": 5203,
    "beşinci</w>": 5204,
    "beşte</w>": 5205,
    "bg": 5206,
    "bgcolor=\"": 5207,
    "bgcolor=\"#": 5208,
    "bi": 5209,
    "bi,</w>": 5210,
    "bi</w>": 5211,
    "bib": 5212,
    "bibli": 5213,
    "bibliy": 5214,
    "bibliyograf": 5215,
    "bibliyografya</w>": 5216,
    "bic": 5217,
    "bid": 5218,
    "bie</w>": 5219,
    "big": 5220,
    "big</w>": 5221,
    "bigad": 5222,
    "bih": 5223,
    "bik": 5224,
    "bik</w>": 5225,
    "bil": 5226,
    "bil</w>": 5227,
    "bilan": 5228,
    "bilar": 5229,
    "bildir": 5230,
    "bildirdi.</w>": 5231,
    "bildiren</w>": 5232,
    "bildirg": 5233,
    "bildiri</w>": 5234,
    "bildiril": 5235,
    "bildirildi.</w>": 5236,
    "bildirilmiştir.</w>": 5237,
    "bildirmiştir.</w>": 5238,
    "bile,</w>": 5239,
    "bile</w>": 5240,
    "bilec": 5241,
    "bilecik</w>": 5242,
    "bilen</w>": 5243,
    "bileş": 5244,
    "bileşen": 5245,
    "bileşeni</w>": 5246,
    "bileşenler</w>": 5247,
    "bileşenleri</w>": 5248,
    "bileşik": 5249,
    "bileşik</w>": 5250,
    "bileşikler</w>": 5251,
    "bileşikleri</w>": 5252,
    "bileşim": 5253,
    "bileşimi</w>": 5254,
    "bilg": 5255,
    "bilge</w>": 5256,
    "bilgel": 5257,
    "bilgi,</w>": 5258,
    "bilgi</w>": 5259,
    "bilgil": 5260,
    "bilgilendir": 5261,
    "bilgiler": 5262,
    "bilgiler</w>": 5263,
    "bilgilere</w>": 5264,
    "bilgileri</w>": 5265,
    "bilgilerin</w>": 5266,
    "bilgilerini</w>": 5267,
    "bilgin": 5268,
    "bilgin</w>": 5269,
    "bilgini</w>": 5270,
    "bilginin</w>": 5271,
    "bilgis": 5272,
    "bilgisay": 5273,
    "bilgisayar": 5274,
    "bilgisayar</w>": 5275,
    "bilgisayara</w>": 5276,
    "bilgisayarlar</w>": 5277,
    "bilgisayarlarda</w>": 5278,
    "bilgisayarları</w>": 5279,
    "bilgisayarların</w>": 5280,
    "bilgisayarı</w>": 5281,
    "bilgisayarın</w>": 5282,
    "bilgisi</w>": 5283,
    "bilgisini</w>": 5284,
    "bilgiye</w>": 5285,
    "bilgiyi</w>": 5286,
    "bilhassa</w>": 5287,
    "bilim": 5288,
    "bilim,</w>": 5289,
    "bilim</w>": 5290,
    "bilimc": 5291,
    "bilimci,</w>": 5292,
    "bilimci</w>": 5293,
    "bilimciler</w>": 5294,
    "bilimcisi</w>": 5295,
    "bilimde</w>": 5296,
    "bilime</w>": 5297,
    "bilimi,</w>": 5298,
    "bilimi</w>": 5299,
    "bilimin</w>": 5300,
    "biliminin</w>": 5301,
    "bilimkurgu</w>": 5302,
    "bilimler</w>": 5303,
    "bilimleri</w>": 5304,
    "bilimlerin</w>": 5305,
    "bilimsel</w>": 5306,
    "bilin": 5307,
    "bilinc": 5308,
    "bilindiği</w>": 5309,
    "bilinen,</w>": 5310,
    "bilinen</w>": 5311,
    "bilinir)</w>": 5312,
    "bilinir.</w>": 5313,
    "bilinir</w>": 5314,
    "biliniyor.</w>": 5315,
    "biliniyordu.</w>": 5316,
    "bilinmektedir.</w>": 5317,
    "bilinmemektedir.</w>": 5318,
    "bilinmey": 5319,
    "bilinmeyen</w>": 5320,
    "bilinmeyenler</w>": 5321,
    "bilinç": 5322,
    "bilinç</w>": 5323,
    "bilinçli</w>": 5324,
    "bilir": 5325,
    "bilir.</w>": 5326,
    "biliyor": 5327,
    "biliş": 5328,
    "bilişim</w>": 5329,
    "bilişsel</w>": 5330,
    "bilkent</w>": 5331,
    "bill": 5332,
    "bill</w>": 5333,
    "billy</w>": 5334,
    "bilmek</w>": 5335,
    "bin": 5336,
    "bin,</w>": 5337,
    "bin</w>": 5338,
    "bina,</w>": 5339,
    "bina</w>": 5340,
    "binada</w>": 5341,
    "binalar</w>": 5342,
    "binaları</w>": 5343,
    "binaların</w>": 5344,
    "binanın</w>": 5345,
    "binası,</w>": 5346,
    "binası</w>": 5347,
    "binasına</w>": 5348,
    "binasında</w>": 5349,
    "binasının</w>": 5350,
    "binbaşı</w>": 5351,
    "binde</w>": 5352,
    "binden</w>": 5353,
    "bine</w>": 5354,
    "bingöl": 5355,
    "bingöl</w>": 5356,
    "bini</w>": 5357,
    "binin</w>": 5358,
    "binlerce</w>": 5359,
    "biograp": 5360,
    "bir": 5361,
    "bir,</w>": 5362,
    "bir</w>": 5363,
    "bira</w>": 5364,
    "biraz</w>": 5365,
    "birbir": 5366,
    "birbiri</w>": 5367,
    "birbirinden</w>": 5368,
    "birbirine</w>": 5369,
    "birbirini</w>": 5370,
    "birbiriyle</w>": 5371,
    "birbirleri</w>": 5372,
    "birbirlerinden</w>": 5373,
    "birbirlerine</w>": 5374,
    "birbirlerini</w>": 5375,
    "birbirlerinin</w>": 5376,
    "birbirleriyle</w>": 5377,
    "bird</w>": 5378,
    "birden": 5379,
    "birden</w>": 5380,
    "bire</w>": 5381,
    "birebir</w>": 5382,
    "birer</w>": 5383,
    "birey": 5384,
    "birey</w>": 5385,
    "bireyin</w>": 5386,
    "bireyler</w>": 5387,
    "bireylere</w>": 5388,
    "bireyleri</w>": 5389,
    "bireylerin</w>": 5390,
    "bireysel</w>": 5391,
    "biri,</w>": 5392,
    "biri</w>": 5393,
    "biridir.</w>": 5394,
    "biridir</w>": 5395,
    "birik": 5396,
    "birikimi</w>": 5397,
    "biriktir": 5398,
    "birim": 5399,
    "birim</w>": 5400,
    "birimi</w>": 5401,
    "birimidir.</w>": 5402,
    "biriminin</w>": 5403,
    "birimler</w>": 5404,
    "birimleri</w>": 5405,
    "birimlerin</w>": 5406,
    "birinc": 5407,
    "birinci</w>": 5408,
    "birincil</w>": 5409,
    "birincilik</w>": 5410,
    "birincisi,</w>": 5411,
    "birincisi</w>": 5412,
    "birinde</w>": 5413,
    "birinden</w>": 5414,
    "birine</w>": 5415,
    "birini</w>": 5416,
    "birinin</w>": 5417,
    "birisi</w>": 5418,
    "birisidir.</w>": 5419,
    "biriydi.</w>": 5420,
    "biriyle</w>": 5421,
    "birkaç</w>": 5422,
    "birleş": 5423,
    "birleşerek</w>": 5424,
    "birleşik</w>": 5425,
    "birleşimi</w>": 5426,
    "birleşiminden</w>": 5427,
    "birleşir.</w>": 5428,
    "birleşme</w>": 5429,
    "birleşmesi</w>": 5430,
    "birleşmesinden</w>": 5431,
    "birleşmesiyle</w>": 5432,
    "birleşmiş</w>": 5433,
    "birleşti.</w>": 5434,
    "birleştir": 5435,
    "birleştiren</w>": 5436,
    "birleştirerek</w>": 5437,
    "birleştiril": 5438,
    "birleştiği</w>": 5439,
    "birlik": 5440,
    "birlik</w>": 5441,
    "birlikler</w>": 5442,
    "birlikleri,</w>": 5443,
    "birlikleri</w>": 5444,
    "birliklerin</w>": 5445,
    "birliklerine</w>": 5446,
    "birliklerini</w>": 5447,
    "birliklerinin</w>": 5448,
    "birlikte": 5449,
    "birlikte)</w>": 5450,
    "birlikte,</w>": 5451,
    "birlikte</w>": 5452,
    "birliktel": 5453,
    "birliğ": 5454,
    "birliğe</w>": 5455,
    "birliği'nde</w>": 5456,
    "birliği'nden</w>": 5457,
    "birliği'ne</w>": 5458,
    "birliği'ni</w>": 5459,
    "birliği'nin</w>": 5460,
    "birliği,</w>": 5461,
    "birliği</w>": 5462,
    "birliğin</w>": 5463,
    "birliğine</w>": 5464,
    "birliğini</w>": 5465,
    "birliğinin</w>": 5466,
    "birliğiyle</w>": 5467,
    "birming": 5468,
    "birtakım</w>": 5469,
    "birçok</w>": 5470,
    "birçoğu</w>": 5471,
    "bis": 5472,
    "bis</w>": 5473,
    "biseksüel</w>": 5474,
    "bisikl": 5475,
    "bisiklet": 5476,
    "bisiklet</w>": 5477,
    "bisikleti</w>": 5478,
    "bisikletçi</w>": 5479,
    "bissa": 5480,
    "bit": 5481,
    "bit</w>": 5482,
    "biten</w>": 5483,
    "biti": 5484,
    "bitin": 5485,
    "bitir": 5486,
    "bitirdi.</w>": 5487,
    "bitirdikten</w>": 5488,
    "bitiren</w>": 5489,
    "bitiş": 5490,
    "bitişik</w>": 5491,
    "bitk": 5492,
    "bitki</w>": 5493,
    "bitkiler</w>": 5494,
    "bitkileri</w>": 5495,
    "bitkilerin</w>": 5496,
    "bitkisel</w>": 5497,
    "bitlik</w>": 5498,
    "bitlis": 5499,
    "bitlis</w>": 5500,
    "bitti.</w>": 5501,
    "biy": 5502,
    "biya,</w>": 5503,
    "biya</w>": 5504,
    "biye</w>": 5505,
    "biyo": 5506,
    "biyogaz</w>": 5507,
    "biyograf": 5508,
    "biyografi</w>": 5509,
    "biyografik</w>": 5510,
    "biyografisi</w>": 5511,
    "biyokim": 5512,
    "biyokimya": 5513,
    "biyokimyacı</w>": 5514,
    "biyolog</w>": 5515,
    "biyoloj": 5516,
    "biyoloji,</w>": 5517,
    "biyoloji</w>": 5518,
    "biyolojik</w>": 5519,
    "biyom": 5520,
    "biyop": 5521,
    "biyopsi</w>": 5522,
    "biz": 5523,
    "biz</w>": 5524,
    "bizans": 5525,
    "bizans'ın</w>": 5526,
    "bizans,</w>": 5527,
    "bizans</w>": 5528,
    "bizanslı": 5529,
    "bizanslılar</w>": 5530,
    "bize</w>": 5531,
    "bizi</w>": 5532,
    "bizim</w>": 5533,
    "bizzat</w>": 5534,
    "biç": 5535,
    "biçim": 5536,
    "biçim</w>": 5537,
    "biçimde</w>": 5538,
    "biçimi</w>": 5539,
    "biçimidir.</w>": 5540,
    "biçiminde</w>": 5541,
    "biçimindeki</w>": 5542,
    "biçimine</w>": 5543,
    "biçimini</w>": 5544,
    "biçimlendir": 5545,
    "biçimlerde</w>": 5546,
    "biçimleri</w>": 5547,
    "biçimlerini</w>": 5548,
    "biçimli</w>": 5549,
    "biçimsel</w>": 5550,
    "biş": 5551,
    "bj": 5552,
    "bk": 5553,
    "bl": 5554,
    "bla": 5555,
    "black": 5556,
    "black;\"</w>": 5557,
    "black</w>": 5558,
    "blan": 5559,
    "ble": 5560,
    "ble</w>": 5561,
    "blem": 5562,
    "blo": 5563,
    "blog": 5564,
    "blog</w>": 5565,
    "blok": 5566,
    "blok</w>": 5567,
    "blu": 5568,
    "blue</w>": 5569,
    "blues</w>": 5570,
    "bm": 5571,
    "bm</w>": 5572,
    "bo": 5573,
    "bo,</w>": 5574,
    "bo</w>": 5575,
    "board</w>": 5576,
    "bob</w>": 5577,
    "bobby</w>": 5578,
    "bod": 5579,
    "bodrum": 5580,
    "bodrum</w>": 5581,
    "boe": 5582,
    "boeing</w>": 5583,
    "bog": 5584,
    "bohem": 5585,
    "bohemya</w>": 5586,
    "bohr": 5587,
    "bohr</w>": 5588,
    "boks": 5589,
    "boks</w>": 5590,
    "boksör</w>": 5591,
    "bol": 5592,
    "bol,</w>": 5593,
    "bol</w>": 5594,
    "bola</w>": 5595,
    "bolcu</w>": 5596,
    "bold": 5597,
    "boliv": 5598,
    "bolivya</w>": 5599,
    "bolog": 5600,
    "bolu,</w>": 5601,
    "bolu</w>": 5602,
    "bolvad": 5603,
    "bolşev": 5604,
    "bolşevik</w>": 5605,
    "bolşevikler</w>": 5606,
    "bom": 5607,
    "bomb": 5608,
    "bomba": 5609,
    "bomba</w>": 5610,
    "bombala": 5611,
    "bombalı</w>": 5612,
    "bombar": 5613,
    "bombardı": 5614,
    "bombardıman": 5615,
    "bombardıman</w>": 5616,
    "bombas": 5617,
    "bombası</w>": 5618,
    "bon": 5619,
    "bon</w>": 5620,
    "bonapar": 5621,
    "bond": 5622,
    "book": 5623,
    "book</w>": 5624,
    "books": 5625,
    "books,</w>": 5626,
    "bor": 5627,
    "bor</w>": 5628,
    "bora</w>": 5629,
    "borat": 5630,
    "borc": 5631,
    "borcu</w>": 5632,
    "bord": 5633,
    "borg": 5634,
    "boris</w>": 5635,
    "born</w>": 5636,
    "bors": 5637,
    "borsası</w>": 5638,
    "boru": 5639,
    "boru</w>": 5640,
    "borç": 5641,
    "borç</w>": 5642,
    "borçlu</w>": 5643,
    "bos": 5644,
    "bos</w>": 5645,
    "bosn": 5646,
    "bosna": 5647,
    "bosna-her": 5648,
    "bosna-hersek": 5649,
    "bosna-hersek</w>": 5650,
    "bosna</w>": 5651,
    "bosnalı</w>": 5652,
    "bostan": 5653,
    "boston": 5654,
    "boston</w>": 5655,
    "bot": 5656,
    "botan": 5657,
    "botanik</w>": 5658,
    "botanikçi</w>": 5659,
    "botsvan": 5660,
    "bou": 5661,
    "boul": 5662,
    "bour": 5663,
    "bow": 5664,
    "box": 5665,
    "box</w>": 5666,
    "boy": 5667,
    "boy</w>": 5668,
    "boya": 5669,
    "boya</w>": 5670,
    "boyan": 5671,
    "boyko": 5672,
    "boykot</w>": 5673,
    "boylam": 5674,
    "boylamları</w>": 5675,
    "boyları</w>": 5676,
    "boylu</w>": 5677,
    "boyn": 5678,
    "boynuz": 5679,
    "boyu</w>": 5680,
    "boyun": 5681,
    "boyun</w>": 5682,
    "boyuna</w>": 5683,
    "boyunca,</w>": 5684,
    "boyunca</w>": 5685,
    "boyunda</w>": 5686,
    "boyut": 5687,
    "boyut</w>": 5688,
    "boyutları</w>": 5689,
    "boyutlu</w>": 5690,
    "boyutta</w>": 5691,
    "boyutu</w>": 5692,
    "boz": 5693,
    "bozca": 5694,
    "bozcaada</w>": 5695,
    "bozg": 5696,
    "bozguna</w>": 5697,
    "bozkurt</w>": 5698,
    "bozkır": 5699,
    "bozkır</w>": 5700,
    "bozuk": 5701,
    "bozuk</w>": 5702,
    "bozukluk": 5703,
    "bozukluk</w>": 5704,
    "bozuklukları</w>": 5705,
    "bozukluğu</w>": 5706,
    "bozul": 5707,
    "bozuldu.</w>": 5708,
    "bozulması</w>": 5709,
    "bozulmuş</w>": 5710,
    "bozun": 5711,
    "boğ": 5712,
    "boğa</w>": 5713,
    "boğaz": 5714,
    "boğaz</w>": 5715,
    "boğaziç": 5716,
    "boğaziçi</w>": 5717,
    "boğazlar</w>": 5718,
    "boğazı</w>": 5719,
    "boş": 5720,
    "boş</w>": 5721,
    "boşal": 5722,
    "boşalan</w>": 5723,
    "boşalt": 5724,
    "boşan": 5725,
    "boşluk": 5726,
    "boşluk</w>": 5727,
    "boşluğu</w>": 5728,
    "boşnak": 5729,
    "boşnak</w>": 5730,
    "br": 5731,
    "bra": 5732,
    "bra</w>": 5733,
    "brad": 5734,
    "brad</w>": 5735,
    "brah": 5736,
    "brahman": 5737,
    "brak": 5738,
    "bran": 5739,
    "brand": 5740,
    "branden": 5741,
    "branş": 5742,
    "bras": 5743,
    "bre": 5744,
    "brec": 5745,
    "brech": 5746,
    "brecht": 5747,
    "brecht,</w>": 5748,
    "brecht</w>": 5749,
    "brej": 5750,
    "bren": 5751,
    "bres": 5752,
    "bret": 5753,
    "brezil": 5754,
    "brezilya'da</w>": 5755,
    "brezilya'nın</w>": 5756,
    "brezilya,</w>": 5757,
    "brezilya</w>": 5758,
    "brezilyalı</w>": 5759,
    "bri": 5760,
    "brian</w>": 5761,
    "brid": 5762,
    "brig": 5763,
    "brit": 5764,
    "britan": 5765,
    "britann": 5766,
    "britanya'nın</w>": 5767,
    "britanya'ya</w>": 5768,
    "britanya</w>": 5769,
    "britanyalı</w>": 5770,
    "briti": 5771,
    "british</w>": 5772,
    "briç</w>": 5773,
    "bro": 5774,
    "broad": 5775,
    "bron": 5776,
    "bronz</w>": 5777,
    "bronş": 5778,
    "brook": 5779,
    "brow": 5780,
    "brown,</w>": 5781,
    "brown</w>": 5782,
    "broş": 5783,
    "bru": 5784,
    "bruce</w>": 5785,
    "brun": 5786,
    "bruno</w>": 5787,
    "bryan": 5788,
    "bryant,</w>": 5789,
    "brü": 5790,
    "brüks": 5791,
    "brüksel": 5792,
    "brüksel</w>": 5793,
    "bs": 5794,
    "bs,</w>": 5795,
    "bs</w>": 5796,
    "bsd</w>": 5797,
    "bu": 5798,
    "bu,</w>": 5799,
    "bu</w>": 5800,
    "buca</w>": 5801,
    "bucak": 5802,
    "bucak</w>": 5803,
    "buck": 5804,
    "bud": 5805,
    "buda": 5806,
    "buda</w>": 5807,
    "budap": 5808,
    "budapeş": 5809,
    "budapeşte": 5810,
    "budapeşte</w>": 5811,
    "budd": 5812,
    "budist</w>": 5813,
    "budiz": 5814,
    "budizm": 5815,
    "budizm</w>": 5816,
    "budur.</w>": 5817,
    "buenos</w>": 5818,
    "bugün": 5819,
    "bugün,</w>": 5820,
    "bugün</w>": 5821,
    "bugüne</w>": 5822,
    "bugünkü</w>": 5823,
    "buhar": 5824,
    "buhar</w>": 5825,
    "buhara</w>": 5826,
    "buharlı</w>": 5827,
    "buki</w>": 5828,
    "bul": 5829,
    "bul</w>": 5830,
    "bula": 5831,
    "bulabil": 5832,
    "bulama": 5833,
    "bulan": 5834,
    "bulan</w>": 5835,
    "bulanık</w>": 5836,
    "bulaş": 5837,
    "buldu.</w>": 5838,
    "buldu</w>": 5839,
    "bulduğu</w>": 5840,
    "bulgar": 5841,
    "bulgar</w>": 5842,
    "bulgaristan": 5843,
    "bulgaristan'da</w>": 5844,
    "bulgaristan'ın</w>": 5845,
    "bulgaristan,</w>": 5846,
    "bulgaristan</w>": 5847,
    "bulgu": 5848,
    "bulgular</w>": 5849,
    "bulguları</w>": 5850,
    "bulma</w>": 5851,
    "bulmak</w>": 5852,
    "bulmaktadır.</w>": 5853,
    "bulmaya</w>": 5854,
    "bulmuş</w>": 5855,
    "bulmuştur.</w>": 5856,
    "bulun": 5857,
    "bulunabil": 5858,
    "bulunabilir.</w>": 5859,
    "bulunan,</w>": 5860,
    "bulunan</w>": 5861,
    "bulunarak</w>": 5862,
    "bulund": 5863,
    "bulundu": 5864,
    "bulundu.</w>": 5865,
    "bulundu</w>": 5866,
    "bulundukları</w>": 5867,
    "bulundular.</w>": 5868,
    "bulundur": 5869,
    "bulunduran</w>": 5870,
    "bulundurul": 5871,
    "bulunduğ": 5872,
    "bulunduğu,</w>": 5873,
    "bulunduğu</w>": 5874,
    "bulunduğunu</w>": 5875,
    "bulunma": 5876,
    "bulunmadığı</w>": 5877,
    "bulunmak</w>": 5878,
    "bulunmakta</w>": 5879,
    "bulunmaktadır.</w>": 5880,
    "bulunmaktadır:</w>": 5881,
    "bulunmaktadır</w>": 5882,
    "bulunmaktaydı.</w>": 5883,
    "bulunmamaktadır.</w>": 5884,
    "bulunması,</w>": 5885,
    "bulunması</w>": 5886,
    "bulunmasına</w>": 5887,
    "bulunmayan</w>": 5888,
    "bulunmaz.</w>": 5889,
    "bulunmuş,</w>": 5890,
    "bulunmuş</w>": 5891,
    "bulunmuştur.</w>": 5892,
    "buluntu": 5893,
    "buluntular</w>": 5894,
    "bulunul": 5895,
    "bulunup</w>": 5896,
    "bulunur": 5897,
    "bulunur,</w>": 5898,
    "bulunur.</w>": 5899,
    "bulunur:</w>": 5900,
    "bulunur</w>": 5901,
    "bulunurlar.</w>": 5902,
    "bulunuyor.</w>": 5903,
    "bulunuyordu.</w>": 5904,
    "bulur.</w>": 5905,
    "bulut": 5906,
    "bulut</w>": 5907,
    "bulutlar</w>": 5908,
    "bulutu</w>": 5909,
    "buluş": 5910,
    "bulvar": 5911,
    "bum": 5912,
    "bun": 5913,
    "buna</w>": 5914,
    "bunal": 5915,
    "bund": 5916,
    "bunda</w>": 5917,
    "bundan</w>": 5918,
    "bunlar,</w>": 5919,
    "bunlar:</w>": 5920,
    "bunlar;</w>": 5921,
    "bunlar</w>": 5922,
    "bunlara</w>": 5923,
    "bunlardan</w>": 5924,
    "bunlarla</w>": 5925,
    "bunları</w>": 5926,
    "bunların</w>": 5927,
    "bunu</w>": 5928,
    "bunun</w>": 5929,
    "bununla</w>": 5930,
    "bur": 5931,
    "bur</w>": 5932,
    "burada,</w>": 5933,
    "burada</w>": 5934,
    "buradaki</w>": 5935,
    "buradan</w>": 5936,
    "burak</w>": 5937,
    "buralarda</w>": 5938,
    "buranın</w>": 5939,
    "burası</w>": 5940,
    "buraya</w>": 5941,
    "burayı</w>": 5942,
    "burdur</w>": 5943,
    "burg": 5944,
    "burg'da</w>": 5945,
    "burg,</w>": 5946,
    "burg</w>": 5947,
    "burhan": 5948,
    "burhan</w>": 5949,
    "burhaned": 5950,
    "burju": 5951,
    "burjuva</w>": 5952,
    "burjuvaz": 5953,
    "burkina</w>": 5954,
    "burn": 5955,
    "burnu": 5956,
    "burnu</w>": 5957,
    "bursa": 5958,
    "bursa'da</w>": 5959,
    "bursa'ya</w>": 5960,
    "bursa,</w>": 5961,
    "bursa</w>": 5962,
    "bursas": 5963,
    "burun": 5964,
    "burun</w>": 5965,
    "burund": 5966,
    "burundi</w>": 5967,
    "bury</w>": 5968,
    "bus": 5969,
    "bus</w>": 5970,
    "bush,</w>": 5971,
    "bush</w>": 5972,
    "busines": 5973,
    "business</w>": 5974,
    "but": 5975,
    "buy": 5976,
    "buyru": 5977,
    "buyruk</w>": 5978,
    "buz": 5979,
    "buz</w>": 5980,
    "buzul": 5981,
    "buzul</w>": 5982,
    "buçuk</w>": 5983,
    "buğ": 5984,
    "buğday": 5985,
    "buğday,</w>": 5986,
    "buğday</w>": 5987,
    "by": 5988,
    "by,</w>": 5989,
    "by</w>": 5990,
    "byz": 5991,
    "byzanti": 5992,
    "bâ": 5993,
    "bâb-ı</w>": 5994,
    "bâtın": 5995,
    "bâzı</w>": 5996,
    "bé": 5997,
    "bî</w>": 5998,
    "bö": 5999,
    "böbr": 6000,
    "böbrek</w>": 6001,
    "böc": 6002,
    "böcek": 6003,
    "böcek</w>": 6004,
    "böl": 6005,
    "bölg": 6006,
    "bölge,</w>": 6007,
    "bölge</w>": 6008,
    "bölgede</w>": 6009,
    "bölgedeki</w>": 6010,
    "bölgeden</w>": 6011,
    "bölgedir.</w>": 6012,
    "bölgel": 6013,
    "bölgeler": 6014,
    "bölgeler</w>": 6015,
    "bölgelerde</w>": 6016,
    "bölgelerdeki</w>": 6017,
    "bölgelerden</w>": 6018,
    "bölgelere</w>": 6019,
    "bölgeleri</w>": 6020,
    "bölgelerin</w>": 6021,
    "bölgelerinde</w>": 6022,
    "bölgelerindeki</w>": 6023,
    "bölgelerinden</w>": 6024,
    "bölgelerine</w>": 6025,
    "bölgelerini</w>": 6026,
    "bölgelerinin</w>": 6027,
    "bölgenin</w>": 6028,
    "bölgesel</w>": 6029,
    "bölgesi'nde</w>": 6030,
    "bölgesi'nin</w>": 6031,
    "bölgesi,</w>": 6032,
    "bölgesi</w>": 6033,
    "bölgesidir.</w>": 6034,
    "bölgesinde,</w>": 6035,
    "bölgesinde</w>": 6036,
    "bölgesindeki</w>": 6037,
    "bölgesinden</w>": 6038,
    "bölgesine</w>": 6039,
    "bölgesini</w>": 6040,
    "bölgesinin</w>": 6041,
    "bölgeye</w>": 6042,
    "bölgeyi</w>": 6043,
    "bölme</w>": 6044,
    "bölüm": 6045,
    "bölüm:</w>": 6046,
    "bölüm</w>": 6047,
    "bölümde</w>": 6048,
    "bölümden</w>": 6049,
    "bölüme</w>": 6050,
    "bölümler</w>": 6051,
    "bölümlere</w>": 6052,
    "bölümleri</w>": 6053,
    "bölümlerinde</w>": 6054,
    "bölümlerini</w>": 6055,
    "bölümü": 6056,
    "bölümü'nde</w>": 6057,
    "bölümü,</w>": 6058,
    "bölümü</w>": 6059,
    "bölümün</w>": 6060,
    "bölümünde</w>": 6061,
    "bölümünden</w>": 6062,
    "bölümüne</w>": 6063,
    "bölümünü</w>": 6064,
    "bölümünün</w>": 6065,
    "bölün": 6066,
    "bölünd": 6067,
    "bölündü.</w>": 6068,
    "bölünme</w>": 6069,
    "bölünmesi</w>": 6070,
    "bölünmüş</w>": 6071,
    "bölünmüştür.</w>": 6072,
    "bör": 6073,
    "böy": 6074,
    "böyl": 6075,
    "böyle</w>": 6076,
    "böylece,</w>": 6077,
    "böylece</w>": 6078,
    "böylelikle</w>": 6079,
    "bü": 6080,
    "bükr": 6081,
    "bükreş</w>": 6082,
    "bükül": 6083,
    "bül": 6084,
    "bülent</w>": 6085,
    "bülten": 6086,
    "bün": 6087,
    "büny": 6088,
    "bünyesinde</w>": 6089,
    "bünyesine</w>": 6090,
    "bür": 6091,
    "bürokr": 6092,
    "bürokras": 6093,
    "bürokrat</w>": 6094,
    "büros": 6095,
    "bürosu</w>": 6096,
    "bürün": 6097,
    "büs": 6098,
    "büs</w>": 6099,
    "büt": 6100,
    "bütç": 6101,
    "bütçe</w>": 6102,
    "bütün": 6103,
    "bütün</w>": 6104,
    "bütünleş": 6105,
    "bütünlüğü</w>": 6106,
    "bütünlüğünü</w>": 6107,
    "bütünü</w>": 6108,
    "bütünüyle</w>": 6109,
    "büy": 6110,
    "büyü": 6111,
    "büyüdü.</w>": 6112,
    "büyük": 6113,
    "büyük,</w>": 6114,
    "büyük</w>": 6115,
    "büyükbaş</w>": 6116,
    "büyükel": 6117,
    "büyükelç": 6118,
    "büyükelçi</w>": 6119,
    "büyükelçiliği</w>": 6120,
    "büyükelçisi</w>": 6121,
    "büyüklü": 6122,
    "büyüklük</w>": 6123,
    "büyüklükte</w>": 6124,
    "büyüklüğ": 6125,
    "büyüklüğü</w>": 6126,
    "büyüklüğünde</w>": 6127,
    "büyüklüğündeki</w>": 6128,
    "büyüktür.</w>": 6129,
    "büyükşehir</w>": 6130,
    "büyüme</w>": 6131,
    "büyümesi</w>": 6132,
    "büyümeye</w>": 6133,
    "büyür": 6134,
    "büyüt": 6135,
    "büyütül": 6136,
    "büyüyen</w>": 6137,
    "büyüğ": 6138,
    "büyüğü</w>": 6139,
    "bı": 6140,
    "bır": 6141,
    "bırak": 6142,
    "bıraka": 6143,
    "bırakan</w>": 6144,
    "bırakarak</w>": 6145,
    "bırakma</w>": 6146,
    "bırakmak</w>": 6147,
    "bırakmıştır.</w>": 6148,
    "bıraktı.</w>": 6149,
    "bıraktı</w>": 6150,
    "bıraktığı</w>": 6151,
    "bırakıl": 6152,
    "bırakılan</w>": 6153,
    "bırakıldı.</w>": 6154,
    "bırakılması</w>": 6155,
    "bırakıp</w>": 6156,
    "bırakır.</w>": 6157,
    "bıy": 6158,
    "bıçak": 6159,
    "bıçak</w>": 6160,
    "c": 6161,
    "c'de</w>": 6162,
    "c'nin</w>": 6163,
    "c'ye</w>": 6164,
    "c)</w>": 6165,
    "c+": 6166,
    "c++</w>": 6167,
    "c,</w>": 6168,
    "c-": 6169,
    "c.": 6170,
    "c.</w>": 6171,
    "c:": 6172,
    "c:</w>": 6173,
    "c:\\": 6174,
    "c:\\></w>": 6175,
    "c</w>": 6176,
    "ca": 6177,
    "ca'da</w>": 6178,
    "ca'nın</w>": 6179,
    "ca'ya</w>": 6180,
    "ca),</w>": 6181,
    "ca)</w>": 6182,
    "ca,</w>": 6183,
    "ca-": 6184,
    "ca:</w>": 6185,
    "ca</w>": 6186,
    "cab": 6187,
    "cac": 6188,
    "cad": 6189,
    "cada</w>": 6190,
    "cadan</w>": 6191,
    "cadd": 6192,
    "cadde</w>": 6193,
    "caddes": 6194,
    "caddesi</w>": 6195,
    "caes": 6196,
    "caesar</w>": 6197,
    "caf": 6198,
    "cafer</w>": 6199,
    "cah": 6200,
    "cahit</w>": 6201,
    "cak": 6202,
    "cak,</w>": 6203,
    "cak</w>": 6204,
    "caktı.</w>": 6205,
    "caktır.</w>": 6206,
    "cal": 6207,
    "cal</w>": 6208,
    "cala": 6209,
    "calar</w>": 6210,
    "caları</w>": 6211,
    "california</w>": 6212,
    "calı</w>": 6213,
    "cam": 6214,
    "cam</w>": 6215,
    "cambrid": 6216,
    "cambridge": 6217,
    "cambridge</w>": 6218,
    "camer": 6219,
    "cami": 6220,
    "cami,</w>": 6221,
    "cami</w>": 6222,
    "camii": 6223,
    "camii'nde</w>": 6224,
    "camii,</w>": 6225,
    "camii</w>": 6226,
    "camille</w>": 6227,
    "caminin</w>": 6228,
    "camiye</w>": 6229,
    "camp": 6230,
    "campbell,</w>": 6231,
    "can": 6232,
    "can,</w>": 6233,
    "can</w>": 6234,
    "cand": 6235,
    "candar": 6236,
    "candi": 6237,
    "canlandır": 6238,
    "canlandırdı.</w>": 6239,
    "canlandırılmıştır.</w>": 6240,
    "canlı": 6241,
    "canlı</w>": 6242,
    "canlılar</w>": 6243,
    "canlıların</w>": 6244,
    "canlılık</w>": 6245,
    "canlının</w>": 6246,
    "cannes</w>": 6247,
    "canon</w>": 6248,
    "cant": 6249,
    "canın</w>": 6250,
    "cap": 6251,
    "cape</w>": 6252,
    "capit": 6253,
    "capo": 6254,
    "car": 6255,
    "car</w>": 6256,
    "cardu": 6257,
    "carduelis</w>": 6258,
    "carl": 6259,
    "carl</w>": 6260,
    "carlo</w>": 6261,
    "carlos</w>": 6262,
    "carlsen</w>": 6263,
    "carol": 6264,
    "carol</w>": 6265,
    "caroline</w>": 6266,
    "carpinus</w>": 6267,
    "carter,</w>": 6268,
    "cas": 6269,
    "cast</w>": 6270,
    "castro": 6271,
    "castro,</w>": 6272,
    "castro</w>": 6273,
    "casus": 6274,
    "casus</w>": 6275,
    "cası</w>": 6276,
    "casının</w>": 6277,
    "cat": 6278,
    "cather": 6279,
    "catherine</w>": 6280,
    "cauch": 6281,
    "cauchy'nin</w>": 6282,
    "cauchy</w>": 6283,
    "caul": 6284,
    "cav": 6285,
    "cavit</w>": 6286,
    "cay": 6287,
    "caya</w>": 6288,
    "caz": 6289,
    "caz</w>": 6290,
    "cağ": 6291,
    "cağı</w>": 6292,
    "cağına</w>": 6293,
    "cağını</w>": 6294,
    "cc": 6295,
    "cc;</w>": 6296,
    "cc</w>": 6297,
    "cd": 6298,
    "cd</w>": 6299,
    "ce": 6300,
    "ce)</w>": 6301,
    "ce,</w>": 6302,
    "ce:</w>": 6303,
    "ce</w>": 6304,
    "ceb": 6305,
    "cebel": 6306,
    "cebelitar": 6307,
    "cebir": 6308,
    "cebir</w>": 6309,
    "cebirsel</w>": 6310,
    "cec": 6311,
    "ced": 6312,
    "ced</w>": 6313,
    "ceh": 6314,
    "cehen": 6315,
    "cehennem": 6316,
    "cehennem</w>": 6317,
    "cel": 6318,
    "cel</w>": 6319,
    "cela": 6320,
    "celal</w>": 6321,
    "celaled": 6322,
    "cell</w>": 6323,
    "celâl</w>": 6324,
    "cem": 6325,
    "cem</w>": 6326,
    "cema": 6327,
    "cemaat": 6328,
    "cemaat</w>": 6329,
    "cemaati": 6330,
    "cemal</w>": 6331,
    "cemil</w>": 6332,
    "cemiyet": 6333,
    "cemiyeti": 6334,
    "cemiyeti'ne</w>": 6335,
    "cemiyeti'nin</w>": 6336,
    "cemiyeti</w>": 6337,
    "cen": 6338,
    "cenaz": 6339,
    "cenaze</w>": 6340,
    "cenazesi</w>": 6341,
    "cenev": 6342,
    "ceneviz": 6343,
    "ceneviz</w>": 6344,
    "cenevre": 6345,
    "cenevre</w>": 6346,
    "ceng": 6347,
    "cengiz</w>": 6348,
    "cennet": 6349,
    "cennet</w>": 6350,
    "center": 6351,
    "center</w>": 6352,
    "central</w>": 6353,
    "centur": 6354,
    "century</w>": 6355,
    "ceo'": 6356,
    "ceo'su</w>": 6357,
    "cep": 6358,
    "cep</w>": 6359,
    "ceph": 6360,
    "cephane</w>": 6361,
    "cephe</w>": 6362,
    "cephede</w>": 6363,
    "cephes": 6364,
    "cephesi'nde</w>": 6365,
    "cephesi</w>": 6366,
    "cephesinde</w>": 6367,
    "cer": 6368,
    "ceres</w>": 6369,
    "cermen</w>": 6370,
    "cerrah": 6371,
    "cerrah</w>": 6372,
    "cerrahi</w>": 6373,
    "ces": 6374,
    "ces</w>": 6375,
    "cesar": 6376,
    "cesaret": 6377,
    "cesaret</w>": 6378,
    "cesi</w>": 6379,
    "cet": 6380,
    "cetvel": 6381,
    "cev": 6382,
    "cevab": 6383,
    "cevabı</w>": 6384,
    "cevap": 6385,
    "cevap</w>": 6386,
    "cevat</w>": 6387,
    "cevdet</w>": 6388,
    "cevher": 6389,
    "cevher</w>": 6390,
    "ceviz": 6391,
    "ceviz</w>": 6392,
    "cevizi</w>": 6393,
    "cey": 6394,
    "ceye</w>": 6395,
    "ceyhan</w>": 6396,
    "ceylan</w>": 6397,
    "cez": 6398,
    "ceza": 6399,
    "ceza</w>": 6400,
    "cezaev": 6401,
    "cezaevinde</w>": 6402,
    "cezalandır": 6403,
    "cezalar</w>": 6404,
    "cezası</w>": 6405,
    "cezasına</w>": 6406,
    "cezasını</w>": 6407,
    "cezayir": 6408,
    "cezayir,</w>": 6409,
    "cezayir</w>": 6410,
    "cezayirli</w>": 6411,
    "ch": 6412,
    "ch,</w>": 6413,
    "ch</w>": 6414,
    "cha": 6415,
    "cha</w>": 6416,
    "chal": 6417,
    "challen": 6418,
    "cham": 6419,
    "chamber": 6420,
    "chamberla": 6421,
    "champ": 6422,
    "chan": 6423,
    "chand": 6424,
    "chann": 6425,
    "chap": 6426,
    "char": 6427,
    "charles": 6428,
    "charles,</w>": 6429,
    "charles</w>": 6430,
    "charlie</w>": 6431,
    "charlot": 6432,
    "charlotte</w>": 6433,
    "chat": 6434,
    "che": 6435,
    "che</w>": 6436,
    "chel": 6437,
    "chem": 6438,
    "chen": 6439,
    "chen</w>": 6440,
    "cher": 6441,
    "cher,</w>": 6442,
    "cher</w>": 6443,
    "ches": 6444,
    "chew": 6445,
    "chi": 6446,
    "chi,</w>": 6447,
    "chi</w>": 6448,
    "chic": 6449,
    "chicago</w>": 6450,
    "chil": 6451,
    "chin": 6452,
    "cho": 6453,
    "cho</w>": 6454,
    "chom": 6455,
    "chomsk": 6456,
    "chomsky</w>": 6457,
    "chomsky’nin</w>": 6458,
    "chor": 6459,
    "chp": 6460,
    "chp'den</w>": 6461,
    "chp'nin</w>": 6462,
    "chp</w>": 6463,
    "chr": 6464,
    "chris": 6465,
    "chris</w>": 6466,
    "christ": 6467,
    "christi": 6468,
    "christiaan</w>": 6469,
    "christian</w>": 6470,
    "christine</w>": 6471,
    "christop": 6472,
    "christoph</w>": 6473,
    "christopher</w>": 6474,
    "chro": 6475,
    "chron": 6476,
    "chu": 6477,
    "chun": 6478,
    "chur": 6479,
    "churchil": 6480,
    "ci": 6481,
    "ci,</w>": 6482,
    "ci</w>": 6483,
    "cia,</w>": 6484,
    "cia</w>": 6485,
    "cib": 6486,
    "cibu": 6487,
    "cic": 6488,
    "cid": 6489,
    "ciddi</w>": 6490,
    "cidi</w>": 6491,
    "cih": 6492,
    "cihan": 6493,
    "cihan</w>": 6494,
    "cihat</w>": 6495,
    "cihaz": 6496,
    "cihaz</w>": 6497,
    "cihazlar</w>": 6498,
    "cihazları</w>": 6499,
    "cihazların</w>": 6500,
    "cii</w>": 6501,
    "cil": 6502,
    "cil</w>": 6503,
    "cila": 6504,
    "cilalı</w>": 6505,
    "cildi</w>": 6506,
    "ciler,</w>": 6507,
    "ciler</w>": 6508,
    "cileri</w>": 6509,
    "cilerin</w>": 6510,
    "cilik,</w>": 6511,
    "cilik</w>": 6512,
    "ciliği</w>": 6513,
    "ciliğin</w>": 6514,
    "cilt": 6515,
    "cilt</w>": 6516,
    "ciltlik</w>": 6517,
    "cim": 6518,
    "cin": 6519,
    "cin</w>": 6520,
    "cinay": 6521,
    "cinayet</w>": 6522,
    "cinin</w>": 6523,
    "cins": 6524,
    "cins</w>": 6525,
    "cinsel": 6526,
    "cinsel</w>": 6527,
    "cinsellik</w>": 6528,
    "cinsi</w>": 6529,
    "cinsinden</w>": 6530,
    "cinsiyet": 6531,
    "cinsiyet</w>": 6532,
    "cio</w>": 6533,
    "cip": 6534,
    "cir": 6535,
    "cis": 6536,
    "cisi</w>": 6537,
    "cisidir.</w>": 6538,
    "cisim": 6539,
    "cisim</w>": 6540,
    "cisimler</w>": 6541,
    "cisimleri</w>": 6542,
    "cisimlerin</w>": 6543,
    "cisimlerinin</w>": 6544,
    "cism": 6545,
    "cismi</w>": 6546,
    "cismin</w>": 6547,
    "cit": 6548,
    "city</w>": 6549,
    "civ": 6550,
    "civar": 6551,
    "civarı</w>": 6552,
    "civarında,</w>": 6553,
    "civarında</w>": 6554,
    "civarındadır.</w>": 6555,
    "civarındaki</w>": 6556,
    "ciz": 6557,
    "cizvit</w>": 6558,
    "ciğ": 6559,
    "ck": 6560,
    "ck,</w>": 6561,
    "ck</w>": 6562,
    "cla": 6563,
    "clar": 6564,
    "clark,</w>": 6565,
    "clas": 6566,
    "class": 6567,
    "class=\"": 6568,
    "class=\"wik": 6569,
    "class=\"wikitab": 6570,
    "classic": 6571,
    "clau": 6572,
    "claude</w>": 6573,
    "cle": 6574,
    "clem": 6575,
    "cler": 6576,
    "clerk</w>": 6577,
    "clif": 6578,
    "clin": 6579,
    "clou": 6580,
    "clu": 6581,
    "club</w>": 6582,
    "cm": 6583,
    "cm</w>": 6584,
    "cn": 6585,
    "co": 6586,
    "co'nun</w>": 6587,
    "co,</w>": 6588,
    "co</w>": 6589,
    "coba": 6590,
    "cobain'in</w>": 6591,
    "cobain</w>": 6592,
    "cocc": 6593,
    "cock,</w>": 6594,
    "cod": 6595,
    "coh": 6596,
    "col": 6597,
    "col</w>": 6598,
    "cole</w>": 6599,
    "colin</w>": 6600,
    "colle": 6601,
    "collec": 6602,
    "college": 6603,
    "college</w>": 6604,
    "collin": 6605,
    "color": 6606,
    "color:#": 6607,
    "color:#0000": 6608,
    "color:#000000;\"</w>": 6609,
    "color:</w>": 6610,
    "colorado</w>": 6611,
    "colspan=\"": 6612,
    "colum": 6613,
    "columb": 6614,
    "columbia</w>": 6615,
    "com": 6616,
    "com</w>": 6617,
    "commod": 6618,
    "commodore</w>": 6619,
    "commun": 6620,
    "comp": 6621,
    "compan": 6622,
    "company</w>": 6623,
    "comput": 6624,
    "computer</w>": 6625,
    "con": 6626,
    "con</w>": 6627,
    "concer": 6628,
    "cond": 6629,
    "connec": 6630,
    "conrad</w>": 6631,
    "constan": 6632,
    "contr": 6633,
    "coop": 6634,
    "cooper,</w>": 6635,
    "cop": 6636,
    "cor": 6637,
    "cord": 6638,
    "corn": 6639,
    "cornel": 6640,
    "cornell</w>": 6641,
    "corpor": 6642,
    "corporation</w>": 6643,
    "cos": 6644,
    "cos</w>": 6645,
    "cost": 6646,
    "cot": 6647,
    "cou": 6648,
    "coul": 6649,
    "coulom": 6650,
    "coun": 6651,
    "count</w>": 6652,
    "country</w>": 6653,
    "coup": 6654,
    "cour": 6655,
    "court": 6656,
    "cov": 6657,
    "cover": 6658,
    "covid-": 6659,
    "covid-19</w>": 6660,
    "coğraf": 6661,
    "coğrafi</w>": 6662,
    "coğrafya": 6663,
    "coğrafya,</w>": 6664,
    "coğrafya</w>": 6665,
    "coğrafyacı</w>": 6666,
    "coğrafyası</w>": 6667,
    "coş": 6668,
    "coşkun</w>": 6669,
    "cp": 6670,
    "cpu</w>": 6671,
    "cr": 6672,
    "cra": 6673,
    "cra</w>": 6674,
    "cre": 6675,
    "crip": 6676,
    "cript</w>": 6677,
    "cris": 6678,
    "cristi": 6679,
    "criti": 6680,
    "cro": 6681,
    "cros": 6682,
    "crow": 6683,
    "cru": 6684,
    "cs": 6685,
    "cs,</w>": 6686,
    "cs</w>": 6687,
    "ctor</w>": 6688,
    "cu": 6689,
    "cu,</w>": 6690,
    "cu</w>": 6691,
    "cul": 6692,
    "cular</w>": 6693,
    "cuların</w>": 6694,
    "cultur": 6695,
    "culu": 6696,
    "culuk</w>": 6697,
    "culuğu</w>": 6698,
    "cum": 6699,
    "cum</w>": 6700,
    "cuma</w>": 6701,
    "cumartesi</w>": 6702,
    "cumhur": 6703,
    "cumhurbaşkan": 6704,
    "cumhurbaşkanlığı</w>": 6705,
    "cumhurbaşkanlığına</w>": 6706,
    "cumhurbaşkanı,</w>": 6707,
    "cumhurbaşkanı</w>": 6708,
    "cumhurbaşkanının</w>": 6709,
    "cumhuriy": 6710,
    "cumhuriyet": 6711,
    "cumhuriyet'in</w>": 6712,
    "cumhuriyet</w>": 6713,
    "cumhuriyeti": 6714,
    "cumhuriyeti'nde</w>": 6715,
    "cumhuriyeti'ne</w>": 6716,
    "cumhuriyeti'ni</w>": 6717,
    "cumhuriyeti'nin</w>": 6718,
    "cumhuriyeti,</w>": 6719,
    "cumhuriyeti</w>": 6720,
    "cumhuriyetin</w>": 6721,
    "cumhuriyetler</w>": 6722,
    "cumhuriyettir.</w>": 6723,
    "cumhuriyetçi</w>": 6724,
    "cun": 6725,
    "cunun</w>": 6726,
    "cup</w>": 6727,
    "cur": 6728,
    "curz": 6729,
    "curzon,</w>": 6730,
    "cus": 6731,
    "cus</w>": 6732,
    "cusu": 6733,
    "cusu,</w>": 6734,
    "cusu</w>": 6735,
    "cut": 6736,
    "cut</w>": 6737,
    "cy": 6738,
    "cy</w>": 6739,
    "cyc": 6740,
    "cz": 6741,
    "czy": 6742,
    "câ": 6743,
    "cé": 6744,
    "césar</w>": 6745,
    "cömer": 6746,
    "cü": 6747,
    "cü,</w>": 6748,
    "cü</w>": 6749,
    "cüc": 6750,
    "cüce</w>": 6751,
    "cük</w>": 6752,
    "cül": 6753,
    "cül</w>": 6754,
    "cülük</w>": 6755,
    "cüm": 6756,
    "cüml": 6757,
    "cümle</w>": 6758,
    "cün": 6759,
    "cüney": 6760,
    "cüneyt</w>": 6761,
    "cür": 6762,
    "cüs": 6763,
    "cüsü</w>": 6764,
    "cüz": 6765,
    "cı": 6766,
    "cı,</w>": 6767,
    "cı.</w>": 6768,
    "cı</w>": 6769,
    "cıdır.</w>": 6770,
    "cık": 6771,
    "cık,</w>": 6772,
    "cık</w>": 6773,
    "cılar,</w>": 6774,
    "cılar</w>": 6775,
    "cılara</w>": 6776,
    "cıları</w>": 6777,
    "cıların</w>": 6778,
    "cılı": 6779,
    "cılık": 6780,
    "cılık,</w>": 6781,
    "cılık</w>": 6782,
    "cılıkta</w>": 6783,
    "cılığ": 6784,
    "cılığa</w>": 6785,
    "cılığı,</w>": 6786,
    "cılığı</w>": 6787,
    "cılığın</w>": 6788,
    "cılığını</w>": 6789,
    "cın</w>": 6790,
    "cını</w>": 6791,
    "cının</w>": 6792,
    "cısı,</w>": 6793,
    "cısı</w>": 6794,
    "d": 6795,
    "d'": 6796,
    "d'hondt</w>": 6797,
    "d'nin</w>": 6798,
    "d'un</w>": 6799,
    "d'ın</w>": 6800,
    "d)</w>": 6801,
    "d,</w>": 6802,
    "d-": 6803,
    "d.": 6804,
    "d.</w>": 6805,
    "d4</w>": 6806,
    "d</w>": 6807,
    "da": 6808,
    "da'nın</w>": 6809,
    "da)</w>": 6810,
    "da,</w>": 6811,
    "da.</w>": 6812,
    "da;</w>": 6813,
    "da</w>": 6814,
    "dac": 6815,
    "dad": 6816,
    "dadır.</w>": 6817,
    "daeg": 6818,
    "daegu</w>": 6819,
    "dah": 6820,
    "daha</w>": 6821,
    "dahası</w>": 6822,
    "dahi</w>": 6823,
    "dahil": 6824,
    "dahil)</w>": 6825,
    "dahil</w>": 6826,
    "dahildir.</w>": 6827,
    "dahili</w>": 6828,
    "dahilinde</w>": 6829,
    "dahiliye</w>": 6830,
    "dail": 6831,
    "daima</w>": 6832,
    "daimi</w>": 6833,
    "dair": 6834,
    "dair</w>": 6835,
    "daire</w>": 6836,
    "dairenin</w>": 6837,
    "dairesel</w>": 6838,
    "dairesi,</w>": 6839,
    "dairesi</w>": 6840,
    "dak": 6841,
    "dak</w>": 6842,
    "daki</w>": 6843,
    "dakik": 6844,
    "dakika": 6845,
    "dakika</w>": 6846,
    "dakikada</w>": 6847,
    "dakikalık</w>": 6848,
    "dal": 6849,
    "dal</w>": 6850,
    "dala": 6851,
    "dalda</w>": 6852,
    "dale</w>": 6853,
    "dalg": 6854,
    "dalga": 6855,
    "dalga</w>": 6856,
    "dalgalan": 6857,
    "dalgalar</w>": 6858,
    "dalgaları</w>": 6859,
    "dalgaların</w>": 6860,
    "dalgalarının</w>": 6861,
    "dalgalı</w>": 6862,
    "dalgası</w>": 6863,
    "dallar</w>": 6864,
    "dalları</w>": 6865,
    "dallarında</w>": 6866,
    "dallarından</w>": 6867,
    "dalı</w>": 6868,
    "dalıdır.</w>": 6869,
    "dalında</w>": 6870,
    "dalış</w>": 6871,
    "dam": 6872,
    "dam</w>": 6873,
    "dama": 6874,
    "damar": 6875,
    "damar</w>": 6876,
    "damat</w>": 6877,
    "damg": 6878,
    "damga</w>": 6879,
    "damgasını</w>": 6880,
    "dan": 6881,
    "dan,</w>": 6882,
    "dan</w>": 6883,
    "dana</w>": 6884,
    "dani": 6885,
    "daniel</w>": 6886,
    "danimar": 6887,
    "danimarka": 6888,
    "danimarka,</w>": 6889,
    "danimarka</w>": 6890,
    "danimarkalı</w>": 6891,
    "daniş": 6892,
    "danişmend": 6893,
    "danny</w>": 6894,
    "dans": 6895,
    "dans</w>": 6896,
    "dansçı,</w>": 6897,
    "dansçı</w>": 6898,
    "dansı</w>": 6899,
    "danın</w>": 6900,
    "danış": 6901,
    "danışma</w>": 6902,
    "danışman": 6903,
    "danışman</w>": 6904,
    "danışmanlık</w>": 6905,
    "danışmanı</w>": 6906,
    "dao</w>": 6907,
    "dar": 6908,
    "dar,</w>": 6909,
    "dar</w>": 6910,
    "darb": 6911,
    "darbe</w>": 6912,
    "darbenin</w>": 6913,
    "darbes": 6914,
    "darbesi'ne</w>": 6915,
    "darbesi'nin</w>": 6916,
    "darbesi</w>": 6917,
    "darbeyle</w>": 6918,
    "darp": 6919,
    "darphan": 6920,
    "darw": 6921,
    "darwin'in</w>": 6922,
    "darwin,</w>": 6923,
    "darwin</w>": 6924,
    "darül": 6925,
    "darülfün": 6926,
    "darüş": 6927,
    "das": 6928,
    "das</w>": 6929,
    "dat": 6930,
    "data</w>": 6931,
    "dav": 6932,
    "dava</w>": 6933,
    "davası</w>": 6934,
    "davasında</w>": 6935,
    "dave</w>": 6936,
    "davet</w>": 6937,
    "david": 6938,
    "david</w>": 6939,
    "davis,</w>": 6940,
    "davran": 6941,
    "davranış": 6942,
    "davranış</w>": 6943,
    "davranışlar</w>": 6944,
    "davranışları</w>": 6945,
    "davranışlarını</w>": 6946,
    "davranışsal</w>": 6947,
    "davranışı</w>": 6948,
    "davul": 6949,
    "davul</w>": 6950,
    "davut": 6951,
    "davut</w>": 6952,
    "daw": 6953,
    "day": 6954,
    "day</w>": 6955,
    "dayalı</w>": 6956,
    "dayalıdır.</w>": 6957,
    "dayan": 6958,
    "dayanak</w>": 6959,
    "dayanan</w>": 6960,
    "dayanarak</w>": 6961,
    "dayandır": 6962,
    "dayandığı</w>": 6963,
    "dayanmaktadır.</w>": 6964,
    "dayanık": 6965,
    "dayanıklı</w>": 6966,
    "dayanır.</w>": 6967,
    "dayanış": 6968,
    "dayanışma</w>": 6969,
    "dağ": 6970,
    "dağ,</w>": 6971,
    "dağ</w>": 6972,
    "dağa</w>": 6973,
    "dağlar,</w>": 6974,
    "dağlar</w>": 6975,
    "dağlarda</w>": 6976,
    "dağlarla</w>": 6977,
    "dağları'nın</w>": 6978,
    "dağları,</w>": 6979,
    "dağları</w>": 6980,
    "dağların</w>": 6981,
    "dağlarının</w>": 6982,
    "dağlık</w>": 6983,
    "dağı": 6984,
    "dağı'nda</w>": 6985,
    "dağı'nın</w>": 6986,
    "dağı,</w>": 6987,
    "dağı</w>": 6988,
    "dağıl": 6989,
    "dağıldı.</w>": 6990,
    "dağılma</w>": 6991,
    "dağılmasından</w>": 6992,
    "dağılmış</w>": 6993,
    "dağılım": 6994,
    "dağılım</w>": 6995,
    "dağılımı</w>": 6996,
    "dağın": 6997,
    "dağın</w>": 6998,
    "dağınık</w>": 6999,
    "dağının</w>": 7000,
    "dağıstan": 7001,
    "dağıt": 7002,
    "dağıtı": 7003,
    "dağıtım": 7004,
    "dağıtım</w>": 7005,
    "dağıtımı</w>": 7006,
    "dc</w>": 7007,
    "dd": 7008,
    "dd-": 7009,
    "de": 7010,
    "de'</w>": 7011,
    "de)</w>": 7012,
    "de,</w>": 7013,
    "de-": 7014,
    "de.</w>": 7015,
    "de;</w>": 7016,
    "de</w>": 7017,
    "dean</w>": 7018,
    "deb": 7019,
    "debian</w>": 7020,
    "dec": 7021,
    "ded": 7022,
    "dede</w>": 7023,
    "dedek": 7024,
    "dedesi</w>": 7025,
    "dedi.</w>": 7026,
    "dedik": 7027,
    "dedir.</w>": 7028,
    "dediği</w>": 7029,
    "deep</w>": 7030,
    "def": 7031,
    "defa</w>": 7032,
    "defalarca</w>": 7033,
    "defn": 7034,
    "defnedildi.</w>": 7035,
    "defnedilenler</w>": 7036,
    "defnedilmiştir.</w>": 7037,
    "defor": 7038,
    "defter": 7039,
    "deg": 7040,
    "deh": 7041,
    "dejener": 7042,
    "dek": 7043,
    "dek</w>": 7044,
    "deki</w>": 7045,
    "deklar": 7046,
    "dekor": 7047,
    "del": 7048,
    "del,</w>": 7049,
    "del</w>": 7050,
    "dela": 7051,
    "dele": 7052,
    "deleg": 7053,
    "deli</w>": 7054,
    "delik": 7055,
    "delik</w>": 7056,
    "delil</w>": 7057,
    "della</w>": 7058,
    "delph": 7059,
    "delta</w>": 7060,
    "dem": 7061,
    "dem</w>": 7062,
    "demek": 7063,
    "demek</w>": 7064,
    "demektir.</w>": 7065,
    "demir": 7066,
    "demir,</w>": 7067,
    "demir</w>": 7068,
    "demirci": 7069,
    "demirci</w>": 7070,
    "demirel'in</w>": 7071,
    "demirel,</w>": 7072,
    "demirel</w>": 7073,
    "demiryol": 7074,
    "demiryolları</w>": 7075,
    "demiryolu</w>": 7076,
    "demiryolunun</w>": 7077,
    "demiştir.</w>": 7078,
    "demo": 7079,
    "democr": 7080,
    "demografi</w>": 7081,
    "demografik</w>": 7082,
    "demokr": 7083,
    "demokras": 7084,
    "demokrasi,</w>": 7085,
    "demokrasi</w>": 7086,
    "demokrasiler</w>": 7087,
    "demokrasinin</w>": 7088,
    "demokrasiye</w>": 7089,
    "demokrasiyi</w>": 7090,
    "demokrat</w>": 7091,
    "demokrati": 7092,
    "demokratik": 7093,
    "demokratik</w>": 7094,
    "demokrit": 7095,
    "den": 7096,
    "den,</w>": 7097,
    "den</w>": 7098,
    "dend": 7099,
    "dendir.</w>": 7100,
    "denem": 7101,
    "deneme</w>": 7102,
    "denemeler</w>": 7103,
    "denemesi</w>": 7104,
    "denen</w>": 7105,
    "denet": 7106,
    "denetim": 7107,
    "denetim</w>": 7108,
    "denetimi</w>": 7109,
    "denetimine</w>": 7110,
    "denetleme</w>": 7111,
    "denetleyic": 7112,
    "deney": 7113,
    "deney</w>": 7114,
    "deneyi</w>": 7115,
    "deneyim": 7116,
    "deneyim</w>": 7117,
    "deneyimi</w>": 7118,
    "deneyler</w>": 7119,
    "deneysel</w>": 7120,
    "deng": 7121,
    "denge</w>": 7122,
    "dengel": 7123,
    "dengeli</w>": 7124,
    "denges": 7125,
    "dengesiz": 7126,
    "denil": 7127,
    "denilen</w>": 7128,
    "denilir.</w>": 7129,
    "denilmektedir.</w>": 7130,
    "denilmiştir.</w>": 7131,
    "denin</w>": 7132,
    "denir.</w>": 7133,
    "denir</w>": 7134,
    "denis</w>": 7135,
    "deniz": 7136,
    "deniz,</w>": 7137,
    "deniz</w>": 7138,
    "denizaltı</w>": 7139,
    "denizaltısı</w>": 7140,
    "denizaşırı</w>": 7141,
    "denizci</w>": 7142,
    "denizcilik</w>": 7143,
    "denizde</w>": 7144,
    "denizden</w>": 7145,
    "denize</w>": 7146,
    "denizi'nde</w>": 7147,
    "denizi'ne</w>": 7148,
    "denizi'nin</w>": 7149,
    "denizi,</w>": 7150,
    "denizi</w>": 7151,
    "denizin</w>": 7152,
    "denizli": 7153,
    "denizli</w>": 7154,
    "denizlis": 7155,
    "denizlispor</w>": 7156,
    "denk": 7157,
    "denk</w>": 7158,
    "denklem": 7159,
    "denklem</w>": 7160,
    "denklemi</w>": 7161,
    "denklemler</w>": 7162,
    "denklemleri</w>": 7163,
    "denklemlerin</w>": 7164,
    "denkt": 7165,
    "denli</w>": 7166,
    "denmektedir.</w>": 7167,
    "dennis</w>": 7168,
    "dep": 7169,
    "depart": 7170,
    "deplas": 7171,
    "deplasmanda</w>": 7172,
    "depo": 7173,
    "depo</w>": 7174,
    "depola": 7175,
    "depolama</w>": 7176,
    "depolan": 7177,
    "depolanan</w>": 7178,
    "depr": 7179,
    "deprem": 7180,
    "deprem</w>": 7181,
    "depremde</w>": 7182,
    "depremi</w>": 7183,
    "depremin</w>": 7184,
    "depremler</w>": 7185,
    "depres": 7186,
    "der": 7187,
    "der,</w>": 7188,
    "der.</w>": 7189,
    "der</w>": 7190,
    "dere,</w>": 7191,
    "dere</w>": 7192,
    "derec": 7193,
    "derece</w>": 7194,
    "derecede</w>": 7195,
    "dereceden</w>": 7196,
    "dereceli</w>": 7197,
    "derecesi</w>": 7198,
    "derecesine</w>": 7199,
    "derecesini</w>": 7200,
    "dereceye</w>": 7201,
    "deresi</w>": 7202,
    "derg": 7203,
    "dergi,</w>": 7204,
    "dergi</w>": 7205,
    "dergide</w>": 7206,
    "dergiler": 7207,
    "dergilerde</w>": 7208,
    "dergilerinde</w>": 7209,
    "derginin</w>": 7210,
    "dergisi,</w>": 7211,
    "dergisi</w>": 7212,
    "dergisinde</w>": 7213,
    "dergisini</w>": 7214,
    "dergisinin</w>": 7215,
    "derhal</w>": 7216,
    "deri</w>": 7217,
    "derin": 7218,
    "derin</w>": 7219,
    "derinden</w>": 7220,
    "derinlik": 7221,
    "derinlik</w>": 7222,
    "derinliği</w>": 7223,
    "derlem": 7224,
    "derleme</w>": 7225,
    "derlen": 7226,
    "derleyic": 7227,
    "dern": 7228,
    "dernek": 7229,
    "dernek</w>": 7230,
    "derneğ": 7231,
    "derneği'nin</w>": 7232,
    "derneği,</w>": 7233,
    "derneği</w>": 7234,
    "ders": 7235,
    "ders,</w>": 7236,
    "ders</w>": 7237,
    "dersi</w>": 7238,
    "dersim</w>": 7239,
    "dersler</w>": 7240,
    "dersleri</w>": 7241,
    "derslerini</w>": 7242,
    "derv": 7243,
    "derviş</w>": 7244,
    "derya</w>": 7245,
    "des": 7246,
    "des</w>": 7247,
    "descar": 7248,
    "descartes": 7249,
    "descartes'ın</w>": 7250,
    "descartes,</w>": 7251,
    "descartes</w>": 7252,
    "descrip": 7253,
    "desen": 7254,
    "desi</w>": 7255,
    "despot": 7256,
    "dest": 7257,
    "destan": 7258,
    "destanı</w>": 7259,
    "destek": 7260,
    "destek</w>": 7261,
    "destekledi.</w>": 7262,
    "desteklediği</w>": 7263,
    "desteklem": 7264,
    "desteklemek</w>": 7265,
    "desteklemektedir.</w>": 7266,
    "desteklen": 7267,
    "desteklenen</w>": 7268,
    "destekler.</w>": 7269,
    "destekley": 7270,
    "destekleyen</w>": 7271,
    "destekli</w>": 7272,
    "destekç": 7273,
    "desteğ": 7274,
    "desteği</w>": 7275,
    "desteğini</w>": 7276,
    "desteğiyle</w>": 7277,
    "det": 7278,
    "det</w>": 7279,
    "detay": 7280,
    "detaylı</w>": 7281,
    "deter": 7282,
    "determin": 7283,
    "deut": 7284,
    "deutsch": 7285,
    "dev": 7286,
    "dev</w>": 7287,
    "devam": 7288,
    "devam</w>": 7289,
    "devamlı</w>": 7290,
    "devamı</w>": 7291,
    "devamında</w>": 7292,
    "devasa</w>": 7293,
    "deve</w>": 7294,
    "devel": 7295,
    "develop": 7296,
    "devin": 7297,
    "devir": 7298,
    "devir</w>": 7299,
    "devirde</w>": 7300,
    "devl": 7301,
    "devlet": 7302,
    "devlet,</w>": 7303,
    "devlet</w>": 7304,
    "devlete</w>": 7305,
    "devleti": 7306,
    "devleti'nde</w>": 7307,
    "devleti'ne</w>": 7308,
    "devleti'nin</w>": 7309,
    "devleti,</w>": 7310,
    "devleti</w>": 7311,
    "devletin</w>": 7312,
    "devletine</w>": 7313,
    "devletini</w>": 7314,
    "devletinin</w>": 7315,
    "devleti’nin</w>": 7316,
    "devletler</w>": 7317,
    "devletlerden</w>": 7318,
    "devletleri": 7319,
    "devletleri'nde</w>": 7320,
    "devletleri'ndeki</w>": 7321,
    "devletleri'ne</w>": 7322,
    "devletleri'nin</w>": 7323,
    "devletleri,</w>": 7324,
    "devletleri</w>": 7325,
    "devletlerin</w>": 7326,
    "devletlerinin</w>": 7327,
    "devr": 7328,
    "devraldı.</w>": 7329,
    "devre</w>": 7330,
    "devredildi.</w>": 7331,
    "devres": 7332,
    "devretti.</w>": 7333,
    "devreye</w>": 7334,
    "devri": 7335,
    "devri</w>": 7336,
    "devril": 7337,
    "devrim": 7338,
    "devrim</w>": 7339,
    "devrimci</w>": 7340,
    "devrimi'nin</w>": 7341,
    "devrimi</w>": 7342,
    "devrimin</w>": 7343,
    "devrin</w>": 7344,
    "devrinde</w>": 7345,
    "devriye</w>": 7346,
    "dew": 7347,
    "dey": 7348,
    "deyim</w>": 7349,
    "deyiş": 7350,
    "deyişle,</w>": 7351,
    "deyişle</w>": 7352,
    "dez": 7353,
    "değ": 7354,
    "değer": 7355,
    "değer</w>": 7356,
    "değere</w>": 7357,
    "değeri,</w>": 7358,
    "değeri</w>": 7359,
    "değerinde</w>": 7360,
    "değerine</w>": 7361,
    "değerini</w>": 7362,
    "değerinin</w>": 7363,
    "değerlendir": 7364,
    "değerlendiril": 7365,
    "değerlendirilir.</w>": 7366,
    "değerlendirilmesi</w>": 7367,
    "değerlendirme</w>": 7368,
    "değerler</w>": 7369,
    "değerlere</w>": 7370,
    "değerleri</w>": 7371,
    "değerlerin</w>": 7372,
    "değerlerine</w>": 7373,
    "değerlerini</w>": 7374,
    "değerlerinin</w>": 7375,
    "değerli</w>": 7376,
    "değil": 7377,
    "değil,</w>": 7378,
    "değil.</w>": 7379,
    "değil</w>": 7380,
    "değildi.</w>": 7381,
    "değildir": 7382,
    "değildir,</w>": 7383,
    "değildir.</w>": 7384,
    "değildir;</w>": 7385,
    "değildir</w>": 7386,
    "değilse</w>": 7387,
    "değin": 7388,
    "değin</w>": 7389,
    "değir": 7390,
    "değirmen": 7391,
    "değiş": 7392,
    "değişen</w>": 7393,
    "değişik": 7394,
    "değişik</w>": 7395,
    "değişiklik": 7396,
    "değişiklik</w>": 7397,
    "değişiklikler</w>": 7398,
    "değişikliklere</w>": 7399,
    "değişiklikleri</w>": 7400,
    "değişikliklerin</w>": 7401,
    "değişikliklerle</w>": 7402,
    "değişikliğe</w>": 7403,
    "değişikliği</w>": 7404,
    "değişikliğine</w>": 7405,
    "değişim": 7406,
    "değişim</w>": 7407,
    "değişime</w>": 7408,
    "değişimi</w>": 7409,
    "değişimin</w>": 7410,
    "değişimler</w>": 7411,
    "değişimleri</w>": 7412,
    "değişir.</w>": 7413,
    "değişken": 7414,
    "değişken</w>": 7415,
    "değişkenlik</w>": 7416,
    "değişmektedir.</w>": 7417,
    "değişmesi</w>": 7418,
    "değişmez": 7419,
    "değişmez</w>": 7420,
    "değişmiştir.</w>": 7421,
    "değişti.</w>": 7422,
    "değiştir": 7423,
    "değiştirdi.</w>": 7424,
    "değiştiren</w>": 7425,
    "değiştirerek</w>": 7426,
    "değiştiril": 7427,
    "değiştirildi.</w>": 7428,
    "değiştirilerek</w>": 7429,
    "değiştirilmesi</w>": 7430,
    "değiştirilmiş</w>": 7431,
    "değiştirilmiştir.</w>": 7432,
    "değiştirme</w>": 7433,
    "değiştirmek</w>": 7434,
    "değiştirmiştir.</w>": 7435,
    "deş": 7436,
    "dg": 7437,
    "dh": 7438,
    "dhar": 7439,
    "di": 7440,
    "di\"</w>": 7441,
    "di'nin</w>": 7442,
    "di)</w>": 7443,
    "di,</w>": 7444,
    "di.": 7445,
    "di.</w>": 7446,
    "di:</w>": 7447,
    "di;</w>": 7448,
    "di</w>": 7449,
    "dia</w>": 7450,
    "diana</w>": 7451,
    "dias": 7452,
    "diaspor": 7453,
    "dic": 7454,
    "dick": 7455,
    "dick</w>": 7456,
    "dicle</w>": 7457,
    "diction": 7458,
    "dictionary</w>": 7459,
    "die</w>": 7460,
    "diego</w>": 7461,
    "diet": 7462,
    "dif": 7463,
    "diferans": 7464,
    "diferansiyel</w>": 7465,
    "digit": 7466,
    "digital</w>": 7467,
    "dij": 7468,
    "dijital</w>": 7469,
    "dik": 7470,
    "dik</w>": 7471,
    "dikdört": 7472,
    "dikdörtgen</w>": 7473,
    "dikey</w>": 7474,
    "dikil": 7475,
    "dikka": 7476,
    "dikkat": 7477,
    "dikkat</w>": 7478,
    "dikkate</w>": 7479,
    "dikkati</w>": 7480,
    "dikkatini</w>": 7481,
    "dikkatli</w>": 7482,
    "dikleri</w>": 7483,
    "diklerini</w>": 7484,
    "diktat": 7485,
    "diktatör": 7486,
    "diktatör</w>": 7487,
    "diktatörlük</w>": 7488,
    "dikten</w>": 7489,
    "dikçe</w>": 7490,
    "dil": 7491,
    "dil,</w>": 7492,
    "dil</w>": 7493,
    "dilbilgis": 7494,
    "dilbilim": 7495,
    "dilbilim</w>": 7496,
    "dilbilimci</w>": 7497,
    "dilbilimin</w>": 7498,
    "dilbilimsel</w>": 7499,
    "dilde</w>": 7500,
    "dilden</w>": 7501,
    "dildir.</w>": 7502,
    "dile</w>": 7503,
    "dilek": 7504,
    "dilek</w>": 7505,
    "diler": 7506,
    "diler.</w>": 7507,
    "diler</w>": 7508,
    "dili,</w>": 7509,
    "dili</w>": 7510,
    "dilidir.</w>": 7511,
    "dilimi</w>": 7512,
    "dilin</w>": 7513,
    "dilinde</w>": 7514,
    "dilindeki</w>": 7515,
    "dilinden</w>": 7516,
    "diline</w>": 7517,
    "dilini</w>": 7518,
    "dilinin</w>": 7519,
    "dille</w>": 7520,
    "diller</w>": 7521,
    "dillerde</w>": 7522,
    "dillerden</w>": 7523,
    "dillere</w>": 7524,
    "dilleri</w>": 7525,
    "dillerin</w>": 7526,
    "dillerinde</w>": 7527,
    "dillerinden</w>": 7528,
    "dillerine</w>": 7529,
    "dillerini</w>": 7530,
    "dillerinin</w>": 7531,
    "dilli</w>": 7532,
    "dilsel</w>": 7533,
    "dim": 7534,
    "dim</w>": 7535,
    "dimit": 7536,
    "din": 7537,
    "din'in</w>": 7538,
    "din,</w>": 7539,
    "din</w>": 7540,
    "dinam": 7541,
    "dinamik</w>": 7542,
    "dinar</w>": 7543,
    "dind": 7544,
    "dindar</w>": 7545,
    "dinde</w>": 7546,
    "dinden</w>": 7547,
    "dine</w>": 7548,
    "ding": 7549,
    "ding,</w>": 7550,
    "ding</w>": 7551,
    "dini,</w>": 7552,
    "dini</w>": 7553,
    "dinin</w>": 7554,
    "dinine</w>": 7555,
    "dininin</w>": 7556,
    "dinlem": 7557,
    "dinlen": 7558,
    "dinlenme</w>": 7559,
    "dinler</w>": 7560,
    "dinlerde</w>": 7561,
    "dinlere</w>": 7562,
    "dinleri</w>": 7563,
    "dinlerin</w>": 7564,
    "dinleyic": 7565,
    "dino": 7566,
    "dino</w>": 7567,
    "dinozor": 7568,
    "dinozorların</w>": 7569,
    "dinsel</w>": 7570,
    "dinî</w>": 7571,
    "dio</w>": 7572,
    "diony": 7573,
    "dip": 7574,
    "dip</w>": 7575,
    "diplo": 7576,
    "diploma": 7577,
    "diplomas": 7578,
    "diplomasi</w>": 7579,
    "diplomat": 7580,
    "diplomat,</w>": 7581,
    "diplomat</w>": 7582,
    "diplomatik</w>": 7583,
    "dipnot": 7584,
    "dipnotlar</w>": 7585,
    "dir": 7586,
    "dir,</w>": 7587,
    "dir.)</w>": 7588,
    "dir.</w>": 7589,
    "dir:</w>": 7590,
    "dir;</w>": 7591,
    "dir</w>": 7592,
    "direc": 7593,
    "direk": 7594,
    "direkt</w>": 7595,
    "direktif": 7596,
    "direktör": 7597,
    "direktör</w>": 7598,
    "direktördür</w>": 7599,
    "direktörleri</w>": 7600,
    "direktörü</w>": 7601,
    "diren": 7602,
    "direnci</w>": 7603,
    "direniş": 7604,
    "direniş</w>": 7605,
    "direnişi</w>": 7606,
    "direnç": 7607,
    "direnç</w>": 7608,
    "diri</w>": 7609,
    "dirich": 7610,
    "dirichlet</w>": 7611,
    "diril": 7612,
    "dis": 7613,
    "disip": 7614,
    "disipl": 7615,
    "disiplin": 7616,
    "disiplin</w>": 7617,
    "disiplini</w>": 7618,
    "disiplinler</w>": 7619,
    "disk": 7620,
    "disk</w>": 7621,
    "disket": 7622,
    "disket</w>": 7623,
    "disko": 7624,
    "diskografi</w>": 7625,
    "dist": 7626,
    "dit": 7627,
    "div": 7628,
    "div</w>": 7629,
    "divan": 7630,
    "divan</w>": 7631,
    "diven": 7632,
    "diy": 7633,
    "diya": 7634,
    "diyal": 7635,
    "diyalek": 7636,
    "diyalog": 7637,
    "diyalog</w>": 7638,
    "diyanet</w>": 7639,
    "diyar": 7640,
    "diyarbakır": 7641,
    "diyarbakır'da</w>": 7642,
    "diyarbakır</w>": 7643,
    "diye</w>": 7644,
    "diyen</w>": 7645,
    "diyerek</w>": 7646,
    "diyet</w>": 7647,
    "diyor": 7648,
    "diyot": 7649,
    "diyot</w>": 7650,
    "diyotlar</w>": 7651,
    "diyse</w>": 7652,
    "diz": 7653,
    "dizayn</w>": 7654,
    "dizi</w>": 7655,
    "dizil": 7656,
    "diziler</w>": 7657,
    "dizileri</w>": 7658,
    "dizilimi</w>": 7659,
    "dizin</w>": 7660,
    "dizinin</w>": 7661,
    "dizisi</w>": 7662,
    "dizisinde</w>": 7663,
    "dizisinin</w>": 7664,
    "diğ": 7665,
    "diğer": 7666,
    "diğer</w>": 7667,
    "diğeri</w>": 7668,
    "diğerine</w>": 7669,
    "diğerleri</w>": 7670,
    "diğerlerinden</w>": 7671,
    "diğerlerinin</w>": 7672,
    "diği,</w>": 7673,
    "diği</w>": 7674,
    "diğimiz</w>": 7675,
    "diğince</w>": 7676,
    "diğinde,</w>": 7677,
    "diğinde</w>": 7678,
    "diğinden,</w>": 7679,
    "diğinden</w>": 7680,
    "diğine</w>": 7681,
    "diğini,</w>": 7682,
    "diğini</w>": 7683,
    "diş": 7684,
    "diş</w>": 7685,
    "dişi</w>": 7686,
    "dişl": 7687,
    "dişli</w>": 7688,
    "dj": 7689,
    "dj</w>": 7690,
    "dmit": 7691,
    "dmitri</w>": 7692,
    "dn": 7693,
    "dna": 7694,
    "dna'nın</w>": 7695,
    "dna,</w>": 7696,
    "dna</w>": 7697,
    "dney</w>": 7698,
    "dns</w>": 7699,
    "do": 7700,
    "do,</w>": 7701,
    "do</w>": 7702,
    "dobru": 7703,
    "docum": 7704,
    "dog": 7705,
    "dok": 7706,
    "doks": 7707,
    "doks</w>": 7708,
    "dokt": 7709,
    "doktor": 7710,
    "doktor,</w>": 7711,
    "doktor</w>": 7712,
    "doktora</w>": 7713,
    "doktoru</w>": 7714,
    "doktr": 7715,
    "doktrin": 7716,
    "doku": 7717,
    "doku</w>": 7718,
    "dokuma</w>": 7719,
    "dokun": 7720,
    "dokunul": 7721,
    "dokuz": 7722,
    "dokuz</w>": 7723,
    "dokuzuncu</w>": 7724,
    "dokü": 7725,
    "dol": 7726,
    "dola": 7727,
    "dolandır": 7728,
    "dolar": 7729,
    "dolar</w>": 7730,
    "dolara</w>": 7731,
    "dolarlık</w>": 7732,
    "doları</w>": 7733,
    "dolay": 7734,
    "dolaylarında</w>": 7735,
    "dolaylı</w>": 7736,
    "dolayı": 7737,
    "dolayı,</w>": 7738,
    "dolayı</w>": 7739,
    "dolayında</w>": 7740,
    "dolayısıyla,</w>": 7741,
    "dolayısıyla</w>": 7742,
    "dolaş": 7743,
    "dolaşan</w>": 7744,
    "dolaşım</w>": 7745,
    "doldur": 7746,
    "doldurul": 7747,
    "dolma": 7748,
    "dolmabahçe</w>": 7749,
    "dolom": 7750,
    "dolu</w>": 7751,
    "dom": 7752,
    "dom</w>": 7753,
    "doma": 7754,
    "domat": 7755,
    "domen": 7756,
    "domenico</w>": 7757,
    "domin": 7758,
    "dominik</w>": 7759,
    "dominique</w>": 7760,
    "domuz": 7761,
    "domuz</w>": 7762,
    "don": 7763,
    "don</w>": 7764,
    "donald</w>": 7765,
    "donan": 7766,
    "donanma</w>": 7767,
    "donanmanın</w>": 7768,
    "donanması": 7769,
    "donanması,</w>": 7770,
    "donanması</w>": 7771,
    "donanmasının</w>": 7772,
    "donanım</w>": 7773,
    "donanımı</w>": 7774,
    "donat": 7775,
    "dond": 7776,
    "dondur": 7777,
    "donmuş</w>": 7778,
    "dor": 7779,
    "dor</w>": 7780,
    "dori": 7781,
    "doruk</w>": 7782,
    "doruğ": 7783,
    "dos": 7784,
    "dos</w>": 7785,
    "dost": 7786,
    "dost</w>": 7787,
    "dostluk</w>": 7788,
    "dostoyev": 7789,
    "dostoyevski,</w>": 7790,
    "dostu</w>": 7791,
    "dosya": 7792,
    "dosya</w>": 7793,
    "dosyaları</w>": 7794,
    "dosyası</w>": 7795,
    "dou": 7796,
    "dou</w>": 7797,
    "doub": 7798,
    "double</w>": 7799,
    "doug": 7800,
    "douglas</w>": 7801,
    "dow": 7802,
    "doy": 7803,
    "doz": 7804,
    "doç": 7805,
    "doğ": 7806,
    "doğa": 7807,
    "doğa</w>": 7808,
    "doğada</w>": 7809,
    "doğal": 7810,
    "doğal</w>": 7811,
    "doğalgaz</w>": 7812,
    "doğan": 7813,
    "doğan,</w>": 7814,
    "doğan</w>": 7815,
    "doğanın</w>": 7816,
    "doğar.</w>": 7817,
    "doğası</w>": 7818,
    "doğasını</w>": 7819,
    "doğaya</w>": 7820,
    "doğayı</w>": 7821,
    "doğaç": 7822,
    "doğdu.</w>": 7823,
    "doğduğu</w>": 7824,
    "doğmuş</w>": 7825,
    "doğmuştur.</w>": 7826,
    "doğr": 7827,
    "doğru": 7828,
    "doğru,</w>": 7829,
    "doğru</w>": 7830,
    "doğrudan</w>": 7831,
    "doğrul": 7832,
    "doğrulama</w>": 7833,
    "doğrult": 7834,
    "doğrultu": 7835,
    "doğrultuda</w>": 7836,
    "doğrultus": 7837,
    "doğrultusunda</w>": 7838,
    "doğrulu": 7839,
    "doğruluk</w>": 7840,
    "doğruluğu</w>": 7841,
    "doğruluğunu</w>": 7842,
    "doğrus": 7843,
    "doğrusal</w>": 7844,
    "doğruya</w>": 7845,
    "doğu": 7846,
    "doğu'da</w>": 7847,
    "doğu'nun</w>": 7848,
    "doğu,</w>": 7849,
    "doğu-": 7850,
    "doğu-batı</w>": 7851,
    "doğu</w>": 7852,
    "doğuda</w>": 7853,
    "doğudaki</w>": 7854,
    "doğudan</w>": 7855,
    "doğum": 7856,
    "doğum</w>": 7857,
    "doğumlar</w>": 7858,
    "doğumlu</w>": 7859,
    "doğumlular</w>": 7860,
    "doğumu</w>": 7861,
    "doğumundan</w>": 7862,
    "doğur": 7863,
    "doğus": 7864,
    "doğusu</w>": 7865,
    "doğusunda,</w>": 7866,
    "doğusunda</w>": 7867,
    "doğusundaki</w>": 7868,
    "doğuya</w>": 7869,
    "doğuş": 7870,
    "doğuştan</w>": 7871,
    "doğuşu</w>": 7872,
    "dp": 7873,
    "dp</w>": 7874,
    "dr": 7875,
    "dr.</w>": 7876,
    "dra": 7877,
    "drak": 7878,
    "dram": 7879,
    "dram</w>": 7880,
    "drama": 7881,
    "drama</w>": 7882,
    "dramatik</w>": 7883,
    "dre": 7884,
    "dren": 7885,
    "drenaj</w>": 7886,
    "dri": 7887,
    "dro": 7888,
    "ds": 7889,
    "ds</w>": 7890,
    "dsp": 7891,
    "du": 7892,
    "du,</w>": 7893,
    "du.</w>": 7894,
    "du:</w>": 7895,
    "du;</w>": 7896,
    "du</w>": 7897,
    "dua</w>": 7898,
    "dub": 7899,
    "dubl": 7900,
    "dubla": 7901,
    "dublaj</w>": 7902,
    "dublin": 7903,
    "dublin</w>": 7904,
    "duc": 7905,
    "dudak": 7906,
    "duk": 7907,
    "dukları</w>": 7908,
    "duktan</w>": 7909,
    "dul": 7910,
    "dul</w>": 7911,
    "dular.</w>": 7912,
    "dulkadir": 7913,
    "dum": 7914,
    "duman": 7915,
    "duman</w>": 7916,
    "dumlu": 7917,
    "dumlupınar</w>": 7918,
    "dun": 7919,
    "dun</w>": 7920,
    "dur": 7921,
    "dur,</w>": 7922,
    "dur.</w>": 7923,
    "dur</w>": 7924,
    "durak": 7925,
    "durak</w>": 7926,
    "duran,</w>": 7927,
    "duran</w>": 7928,
    "durağan</w>": 7929,
    "durdu.</w>": 7930,
    "durdur": 7931,
    "durdurdu.</w>": 7932,
    "durdurmak</w>": 7933,
    "durdurul": 7934,
    "durduruldu.</w>": 7935,
    "durgun": 7936,
    "durgun</w>": 7937,
    "durk": 7938,
    "dursun</w>": 7939,
    "durum": 7940,
    "durum,</w>": 7941,
    "durum</w>": 7942,
    "duruma</w>": 7943,
    "durumda,</w>": 7944,
    "durumda</w>": 7945,
    "durumdadır.</w>": 7946,
    "durumdaki</w>": 7947,
    "durumdan</w>": 7948,
    "durumday": 7949,
    "durumdur.</w>": 7950,
    "durumlar</w>": 7951,
    "durumlarda,</w>": 7952,
    "durumlarda</w>": 7953,
    "durumları</w>": 7954,
    "durumu</w>": 7955,
    "durumun</w>": 7956,
    "durumuna</w>": 7957,
    "durumunda,</w>": 7958,
    "durumunda</w>": 7959,
    "durumundadır.</w>": 7960,
    "durumunu</w>": 7961,
    "durumunun</w>": 7962,
    "durur.</w>": 7963,
    "duruş": 7964,
    "dut": 7965,
    "dut</w>": 7966,
    "duvar": 7967,
    "duvar</w>": 7968,
    "duvarları</w>": 7969,
    "duvarlarında</w>": 7970,
    "duvarı</w>": 7971,
    "duy": 7972,
    "duyan</w>": 7973,
    "duyar": 7974,
    "duyarlı</w>": 7975,
    "duyduğu</w>": 7976,
    "duygu": 7977,
    "duygu</w>": 7978,
    "duygular</w>": 7979,
    "duyguları</w>": 7980,
    "duygus": 7981,
    "duygusal</w>": 7982,
    "duyu": 7983,
    "duyu</w>": 7984,
    "duyul": 7985,
    "duyulan</w>": 7986,
    "duyum": 7987,
    "duyur": 7988,
    "duyurdu.</w>": 7989,
    "duyurmuştur.</w>": 7990,
    "duyuruldu.</w>": 7991,
    "duyusal</w>": 7992,
    "duğ": 7993,
    "duğu,</w>": 7994,
    "duğu</w>": 7995,
    "duğuna</w>": 7996,
    "duğunda,</w>": 7997,
    "duğunda</w>": 7998,
    "duğunu</w>": 7999,
    "dv": 8000,
    "dvd</w>": 8001,
    "dw": 8002,
    "dy": 8003,
    "dy</w>": 8004,
    "dyp</w>": 8005,
    "dz": 8006,
    "dâ": 8007,
    "dâh": 8008,
    "dâhil": 8009,
    "dâhil</w>": 8010,
    "dâr": 8011,
    "dé": 8012,
    "dí": 8013,
    "dî": 8014,
    "dî</w>": 8015,
    "dîn": 8016,
    "dîn</w>": 8017,
    "dîv": 8018,
    "dö": 8019,
    "dök": 8020,
    "döken</w>": 8021,
    "dökül": 8022,
    "dökülen</w>": 8023,
    "dökülür.</w>": 8024,
    "döküm": 8025,
    "döl": 8026,
    "dön": 8027,
    "dönd": 8028,
    "döndü": 8029,
    "döndü.</w>": 8030,
    "döndü</w>": 8031,
    "döndükten</w>": 8032,
    "döndür": 8033,
    "döndüğ": 8034,
    "döndüğü</w>": 8035,
    "döndüğünde</w>": 8036,
    "dönem": 8037,
    "dönem,</w>": 8038,
    "dönem</w>": 8039,
    "dönemde,</w>": 8040,
    "dönemde</w>": 8041,
    "dönemdeki</w>": 8042,
    "dönemden</w>": 8043,
    "dönemdir.</w>": 8044,
    "döneme</w>": 8045,
    "dönemi'nde</w>": 8046,
    "dönemi,</w>": 8047,
    "dönemi</w>": 8048,
    "dönemin</w>": 8049,
    "döneminde,</w>": 8050,
    "döneminde</w>": 8051,
    "dönemindeki</w>": 8052,
    "döneminden</w>": 8053,
    "dönemine</w>": 8054,
    "dönemini</w>": 8055,
    "döneminin</w>": 8056,
    "dönemler</w>": 8057,
    "dönemlerde</w>": 8058,
    "dönemlere</w>": 8059,
    "dönemleri</w>": 8060,
    "dönemlerinde</w>": 8061,
    "dönemlerinden</w>": 8062,
    "dönemlerine</w>": 8063,
    "dönen</w>": 8064,
    "döner.</w>": 8065,
    "döner</w>": 8066,
    "dönerek</w>": 8067,
    "döngü": 8068,
    "döngü</w>": 8069,
    "döngüsü</w>": 8070,
    "dönme</w>": 8071,
    "dönmek</w>": 8072,
    "dönmesi</w>": 8073,
    "dönmeye</w>": 8074,
    "dönmüştür.</w>": 8075,
    "dönük</w>": 8076,
    "dönül": 8077,
    "dönüm": 8078,
    "dönüm</w>": 8079,
    "dönümü</w>": 8080,
    "dönüp</w>": 8081,
    "dönüş": 8082,
    "dönüş</w>": 8083,
    "dönüşen</w>": 8084,
    "dönüşmüştür.</w>": 8085,
    "dönüştü.</w>": 8086,
    "dönüştür": 8087,
    "dönüştürül": 8088,
    "dönüştürüldü.</w>": 8089,
    "dönüştürülmüştür.</w>": 8090,
    "dönüşü</w>": 8091,
    "dönüşüm": 8092,
    "dönüşüm</w>": 8093,
    "dönüşümü</w>": 8094,
    "dönüşünde</w>": 8095,
    "dönüşür.</w>": 8096,
    "dör": 8097,
    "dördü</w>": 8098,
    "dördün": 8099,
    "dördüncü</w>": 8100,
    "dört": 8101,
    "dört</w>": 8102,
    "dörtlü</w>": 8103,
    "dörtte</w>": 8104,
    "döv": 8105,
    "döviz</w>": 8106,
    "dövül": 8107,
    "dövüş": 8108,
    "dövüş</w>": 8109,
    "döş": 8110,
    "dü": 8111,
    "dü,</w>": 8112,
    "dü.</w>": 8113,
    "dü;</w>": 8114,
    "dü</w>": 8115,
    "düet</w>": 8116,
    "dük": 8117,
    "dükal": 8118,
    "dükkân": 8119,
    "dükleri</w>": 8120,
    "dükten</w>": 8121,
    "dükü</w>": 8122,
    "dül": 8123,
    "düler.</w>": 8124,
    "düm": 8125,
    "dün": 8126,
    "dün</w>": 8127,
    "dünd": 8128,
    "dünya": 8129,
    "dünya'da</w>": 8130,
    "dünya'daki</w>": 8131,
    "dünya'dan</w>": 8132,
    "dünya'nın</w>": 8133,
    "dünya'ya</w>": 8134,
    "dünya,</w>": 8135,
    "dünya</w>": 8136,
    "dünyaca</w>": 8137,
    "dünyada</w>": 8138,
    "dünyadaki</w>": 8139,
    "dünyadan</w>": 8140,
    "dünyanın</w>": 8141,
    "dünyas": 8142,
    "dünyası</w>": 8143,
    "dünyasına</w>": 8144,
    "dünyasında</w>": 8145,
    "dünyasının</w>": 8146,
    "dünyaya</w>": 8147,
    "dünyayı</w>": 8148,
    "dünya’nın</w>": 8149,
    "dür": 8150,
    "dür,</w>": 8151,
    "dür.</w>": 8152,
    "dür</w>": 8153,
    "düz": 8154,
    "düz</w>": 8155,
    "düzce</w>": 8156,
    "düzel": 8157,
    "düzelt": 8158,
    "düzeltil": 8159,
    "düzeltme</w>": 8160,
    "düzen": 8161,
    "düzen</w>": 8162,
    "düzene</w>": 8163,
    "düzeni</w>": 8164,
    "düzenin</w>": 8165,
    "düzenine</w>": 8166,
    "düzenini</w>": 8167,
    "düzenledi.</w>": 8168,
    "düzenlediği</w>": 8169,
    "düzenlem": 8170,
    "düzenleme</w>": 8171,
    "düzenlemeler</w>": 8172,
    "düzenlen": 8173,
    "düzenlendi.</w>": 8174,
    "düzenlenen</w>": 8175,
    "düzenlenir.</w>": 8176,
    "düzenlenmektedir.</w>": 8177,
    "düzenlenmesi</w>": 8178,
    "düzenlenmiş</w>": 8179,
    "düzenlenmiştir.</w>": 8180,
    "düzenley": 8181,
    "düzenleyen</w>": 8182,
    "düzenleyici</w>": 8183,
    "düzenli</w>": 8184,
    "düzensiz</w>": 8185,
    "düzey": 8186,
    "düzey</w>": 8187,
    "düzeyde</w>": 8188,
    "düzeye</w>": 8189,
    "düzeyi</w>": 8190,
    "düzeyinde</w>": 8191,
    "düzeyindedir.</w>": 8192,
    "düzeyine</w>": 8193,
    "düzgün</w>": 8194,
    "düzlem": 8195,
    "düzlem</w>": 8196,
    "düzlük": 8197,
    "düğ": 8198,
    "düğü</w>": 8199,
    "düğüm": 8200,
    "düğün": 8201,
    "düğün</w>": 8202,
    "düğünde</w>": 8203,
    "düğünü</w>": 8204,
    "düş": 8205,
    "düşen</w>": 8206,
    "düşer.</w>": 8207,
    "düşerek</w>": 8208,
    "düşman": 8209,
    "düşman</w>": 8210,
    "düşmanı</w>": 8211,
    "düşmanın</w>": 8212,
    "düşmektedir.</w>": 8213,
    "düşmesi</w>": 8214,
    "düşmesine</w>": 8215,
    "düşmüş</w>": 8216,
    "düşmüştür.</w>": 8217,
    "düştü": 8218,
    "düştü.</w>": 8219,
    "düştü:</w>": 8220,
    "düştü</w>": 8221,
    "düştüğ": 8222,
    "düştüğü</w>": 8223,
    "düşük": 8224,
    "düşük</w>": 8225,
    "düşüktür.</w>": 8226,
    "düşün": 8227,
    "düşünc": 8228,
    "düşünce,</w>": 8229,
    "düşünce</w>": 8230,
    "düşünceler</w>": 8231,
    "düşünceleri</w>": 8232,
    "düşüncelerin</w>": 8233,
    "düşüncelerini</w>": 8234,
    "düşüncenin</w>": 8235,
    "düşüncesi</w>": 8236,
    "düşüncesini</w>": 8237,
    "düşüncesinin</w>": 8238,
    "düşüncesiyle</w>": 8239,
    "düşünceye</w>": 8240,
    "düşünceyi</w>": 8241,
    "düşünd": 8242,
    "düşündür": 8243,
    "düşündüğü</w>": 8244,
    "düşünen</w>": 8245,
    "düşünerek</w>": 8246,
    "düşünme</w>": 8247,
    "düşünmektedir.</w>": 8248,
    "düşünsel</w>": 8249,
    "düşünül": 8250,
    "düşünülebilir.</w>": 8251,
    "düşünülen</w>": 8252,
    "düşünülmektedir.</w>": 8253,
    "düşünülür.</w>": 8254,
    "düşünür": 8255,
    "düşünür</w>": 8256,
    "düşünürler</w>": 8257,
    "düşünüyor": 8258,
    "düşünüyordu.</w>": 8259,
    "düşür": 8260,
    "düşürül": 8261,
    "düşüş": 8262,
    "düşüş</w>": 8263,
    "düşüşe</w>": 8264,
    "düşüşü</w>": 8265,
    "dı": 8266,
    "dı)</w>": 8267,
    "dı,</w>": 8268,
    "dı.": 8269,
    "dı.\"</w>": 8270,
    "dı.</w>": 8271,
    "dı:</w>": 8272,
    "dı;</w>": 8273,
    "dı</w>": 8274,
    "dık": 8275,
    "dık</w>": 8276,
    "dıkları</w>": 8277,
    "dıklarında</w>": 8278,
    "dıklarından</w>": 8279,
    "dıklarını</w>": 8280,
    "dıktan</w>": 8281,
    "dıkça</w>": 8282,
    "dılar,</w>": 8283,
    "dılar.</w>": 8284,
    "dılar</w>": 8285,
    "dım.</w>": 8286,
    "dım</w>": 8287,
    "dır": 8288,
    "dır\"</w>": 8289,
    "dır,</w>": 8290,
    "dır.": 8291,
    "dır.\"</w>": 8292,
    "dır.</w>": 8293,
    "dır:</w>": 8294,
    "dır;</w>": 8295,
    "dır</w>": 8296,
    "dırlar.</w>": 8297,
    "dıyla</w>": 8298,
    "dıysa</w>": 8299,
    "dığ": 8300,
    "dığı,</w>": 8301,
    "dığı</w>": 8302,
    "dığımız</w>": 8303,
    "dığına</w>": 8304,
    "dığında,</w>": 8305,
    "dığında</w>": 8306,
    "dığından,</w>": 8307,
    "dığından</w>": 8308,
    "dığını,</w>": 8309,
    "dığını</w>": 8310,
    "dış": 8311,
    "dış</w>": 8312,
    "dışa</w>": 8313,
    "dışar": 8314,
    "dışarı": 8315,
    "dışarı</w>": 8316,
    "dışarıda</w>": 8317,
    "dışarıdan</w>": 8318,
    "dışarıya</w>": 8319,
    "dışav": 8320,
    "dışavurum": 8321,
    "dışişleri</w>": 8322,
    "dışı</w>": 8323,
    "dışına</w>": 8324,
    "dışında,</w>": 8325,
    "dışında</w>": 8326,
    "dışındaki</w>": 8327,
    "dışından</w>": 8328,
    "d’": 8329,
    "e": 8330,
    "e\"": 8331,
    "e\",</w>": 8332,
    "e\"</w>": 8333,
    "e'</w>": 8334,
    "e'a</w>": 8335,
    "e'da</w>": 8336,
    "e'de</w>": 8337,
    "e'deki</w>": 8338,
    "e'den</w>": 8339,
    "e'dir.</w>": 8340,
    "e'in</w>": 8341,
    "e'nin</w>": 8342,
    "e'nun</w>": 8343,
    "e'un</w>": 8344,
    "e'ye</w>": 8345,
    "e'yi</w>": 8346,
    "e'ın</w>": 8347,
    "e),</w>": 8348,
    "e).</w>": 8349,
    "e)</w>": 8350,
    "e,": 8351,
    "e,</w>": 8352,
    "e-": 8353,
    "e-</w>": 8354,
    "e-i</w>": 8355,
    "e-post": 8356,
    "e-posta</w>": 8357,
    "e.": 8358,
    "e.</w>": 8359,
    "e/": 8360,
    "e:": 8361,
    "e:</w>": 8362,
    "e;</w>": 8363,
    "e</w>": 8364,
    "ea,</w>": 8365,
    "ea</w>": 8366,
    "ean</w>": 8367,
    "ear": 8368,
    "earch</w>": 8369,
    "earl</w>": 8370,
    "earth": 8371,
    "eas": 8372,
    "east</w>": 8373,
    "eau,</w>": 8374,
    "eb": 8375,
    "eb</w>": 8376,
    "ebe</w>": 8377,
    "ebedi</w>": 8378,
    "eber": 8379,
    "ebev": 8380,
    "ebeveyn": 8381,
    "ebi</w>": 8382,
    "ebil": 8383,
    "ebildi.</w>": 8384,
    "ebildiği</w>": 8385,
    "ebilecek</w>": 8386,
    "ebileceğ": 8387,
    "ebileceği</w>": 8388,
    "ebileceğini</w>": 8389,
    "ebilen</w>": 8390,
    "ebilir": 8391,
    "ebilir,</w>": 8392,
    "ebilir.</w>": 8393,
    "ebilir:</w>": 8394,
    "ebilir;</w>": 8395,
    "ebilir</w>": 8396,
    "ebiliriz.</w>": 8397,
    "ebilirler.</w>": 8398,
    "ebilme</w>": 8399,
    "ebilmek</w>": 8400,
    "ebilmektedir.</w>": 8401,
    "ebilmesi</w>": 8402,
    "ebilmiştir.</w>": 8403,
    "ebir</w>": 8404,
    "ebo": 8405,
    "ebru</w>": 8406,
    "ebu": 8407,
    "ebu</w>": 8408,
    "ebur": 8409,
    "ebû</w>": 8410,
    "ec": 8411,
    "ec,</w>": 8412,
    "ec</w>": 8413,
    "ece,</w>": 8414,
    "ece</w>": 8415,
    "ecek": 8416,
    "ecek,</w>": 8417,
    "ecek.</w>": 8418,
    "ecek</w>": 8419,
    "ecekleri</w>": 8420,
    "eceklerini</w>": 8421,
    "ecekti.</w>": 8422,
    "ecektir": 8423,
    "ecektir.</w>": 8424,
    "ecev": 8425,
    "ecevit'in</w>": 8426,
    "ecevit,</w>": 8427,
    "ecevit</w>": 8428,
    "eceğ": 8429,
    "eceği,</w>": 8430,
    "eceği</w>": 8431,
    "eceğinden</w>": 8432,
    "eceğine</w>": 8433,
    "eceğini,</w>": 8434,
    "eceğini</w>": 8435,
    "ech": 8436,
    "ech</w>": 8437,
    "eci,</w>": 8438,
    "eci</w>": 8439,
    "eciler</w>": 8440,
    "ecilik</w>": 8441,
    "eck": 8442,
    "eck</w>": 8443,
    "econom": 8444,
    "ect</w>": 8445,
    "ecz": 8446,
    "ed": 8447,
    "ed)</w>": 8448,
    "ed,</w>": 8449,
    "ed-": 8450,
    "ed.</w>": 8451,
    "ed</w>": 8452,
    "eda</w>": 8453,
    "eddie</w>": 8454,
    "eddin</w>": 8455,
    "ede,</w>": 8456,
    "ede</w>": 8457,
    "edeb": 8458,
    "edebi</w>": 8459,
    "edebil": 8460,
    "edebilir": 8461,
    "edebilir.</w>": 8462,
    "edebilmek</w>": 8463,
    "edebiya": 8464,
    "edebiyat": 8465,
    "edebiyat,</w>": 8466,
    "edebiyat</w>": 8467,
    "edebiyatta</w>": 8468,
    "edebiyatçı</w>": 8469,
    "edebiyatı</w>": 8470,
    "edebiyatına</w>": 8471,
    "edebiyatında</w>": 8472,
    "edebiyatının</w>": 8473,
    "edebî</w>": 8474,
    "edecek": 8475,
    "edecek</w>": 8476,
    "edecektir.</w>": 8477,
    "edeceği</w>": 8478,
    "edeceğini</w>": 8479,
    "ededir.</w>": 8480,
    "edeki</w>": 8481,
    "eden": 8482,
    "eden,</w>": 8483,
    "eden</w>": 8484,
    "edenler</w>": 8485,
    "edenlerin</w>": 8486,
    "eder": 8487,
    "eder,</w>": 8488,
    "eder.</w>": 8489,
    "eder</w>": 8490,
    "ederdi.</w>": 8491,
    "ederek,</w>": 8492,
    "ederek</w>": 8493,
    "ederken,</w>": 8494,
    "ederken</w>": 8495,
    "ederler.</w>": 8496,
    "ederse</w>": 8497,
    "edgar</w>": 8498,
    "edi": 8499,
    "edi,</w>": 8500,
    "edi.</w>": 8501,
    "edi</w>": 8502,
    "edici</w>": 8503,
    "edikleri</w>": 8504,
    "edil": 8505,
    "edildi,</w>": 8506,
    "edildi.</w>": 8507,
    "edildi;</w>": 8508,
    "edildi</w>": 8509,
    "edildikten</w>": 8510,
    "edildiler.</w>": 8511,
    "edildiği</w>": 8512,
    "edildiğinde</w>": 8513,
    "edildiğini</w>": 8514,
    "edilebil": 8515,
    "edilebilecek</w>": 8516,
    "edilebilir.</w>": 8517,
    "edilebilir</w>": 8518,
    "edilecek</w>": 8519,
    "edilemez.</w>": 8520,
    "edilemez</w>": 8521,
    "edilen,</w>": 8522,
    "edilen</w>": 8523,
    "edilenler</w>": 8524,
    "ediler": 8525,
    "ediler.</w>": 8526,
    "ediler</w>": 8527,
    "edilerek</w>": 8528,
    "edilince</w>": 8529,
    "edilip</w>": 8530,
    "edilir,</w>": 8531,
    "edilir.</w>": 8532,
    "edilir</w>": 8533,
    "edilirken</w>": 8534,
    "edilirler.</w>": 8535,
    "ediliyor.</w>": 8536,
    "ediliyordu.</w>": 8537,
    "edilme</w>": 8538,
    "edilmedi.</w>": 8539,
    "edilmek</w>": 8540,
    "edilmekte</w>": 8541,
    "edilmektedir.</w>": 8542,
    "edilmelidir.</w>": 8543,
    "edilmemiş</w>": 8544,
    "edilmesi,</w>": 8545,
    "edilmesi</w>": 8546,
    "edilmesinden</w>": 8547,
    "edilmesine</w>": 8548,
    "edilmesini</w>": 8549,
    "edilmesinin</w>": 8550,
    "edilmesiyle</w>": 8551,
    "edilmeye</w>": 8552,
    "edilmeyen</w>": 8553,
    "edilmez.</w>": 8554,
    "edilmiş,</w>": 8555,
    "edilmiş</w>": 8556,
    "edilmişti.</w>": 8557,
    "edilmiştir.</w>": 8558,
    "edilmiştir</w>": 8559,
    "edilse</w>": 8560,
    "edin": 8561,
    "edin</w>": 8562,
    "edinburg": 8563,
    "edinburgh</w>": 8564,
    "edince</w>": 8565,
    "edindiği</w>": 8566,
    "edip,</w>": 8567,
    "edip</w>": 8568,
    "edir": 8569,
    "edir,</w>": 8570,
    "edir.</w>": 8571,
    "edir:</w>": 8572,
    "edir;</w>": 8573,
    "edir</w>": 8574,
    "edirler.</w>": 8575,
    "edirne": 8576,
    "edirne'de</w>": 8577,
    "edirne'ye</w>": 8578,
    "edirne</w>": 8579,
    "edison</w>": 8580,
    "edit": 8581,
    "edith</w>": 8582,
    "edition": 8583,
    "edition</w>": 8584,
    "editör": 8585,
    "editör</w>": 8586,
    "editörü</w>": 8587,
    "ediyor": 8588,
    "ediyor.</w>": 8589,
    "ediyor</w>": 8590,
    "ediyordu.</w>": 8591,
    "ediyorlardı.</w>": 8592,
    "ediği</w>": 8593,
    "ediğini</w>": 8594,
    "edmund</w>": 8595,
    "edo</w>": 8596,
    "edon": 8597,
    "edr": 8598,
    "edrem": 8599,
    "edu": 8600,
    "eduard</w>": 8601,
    "eduardo</w>": 8602,
    "educ": 8603,
    "edw": 8604,
    "edward": 8605,
    "edward</w>": 8606,
    "edwin</w>": 8607,
    "ee": 8608,
    "ee,</w>": 8609,
    "ee</w>": 8610,
    "een</w>": 8611,
    "eer</w>": 8612,
    "ef": 8613,
    "ef</w>": 8614,
    "efa</w>": 8615,
    "efe</w>": 8616,
    "efef": 8617,
    "efefef": 8618,
    "efek": 8619,
    "efekt": 8620,
    "efend": 8621,
    "efendi'nin</w>": 8622,
    "efendi,</w>": 8623,
    "efendi</w>": 8624,
    "efendisi</w>": 8625,
    "efes</w>": 8626,
    "eff": 8627,
    "efi</w>": 8628,
    "eflak</w>": 8629,
    "efsan": 8630,
    "efsane</w>": 8631,
    "efsanesi</w>": 8632,
    "efsanevi</w>": 8633,
    "eg": 8634,
    "ege</w>": 8635,
    "egem": 8636,
    "egemen": 8637,
    "egemen</w>": 8638,
    "egemenlik</w>": 8639,
    "egemenliği</w>": 8640,
    "egemenliğinde</w>": 8641,
    "egemenliğine</w>": 8642,
    "egemenliğini</w>": 8643,
    "ego</w>": 8644,
    "egon</w>": 8645,
    "egyp": 8646,
    "egzer": 8647,
    "egzo": 8648,
    "eh": 8649,
    "eh</w>": 8650,
    "ehan": 8651,
    "ehir": 8652,
    "ehir,</w>": 8653,
    "ehir</w>": 8654,
    "ehl": 8655,
    "ehl-i</w>": 8656,
    "ehr": 8657,
    "ei,</w>": 8658,
    "ei</w>": 8659,
    "eid": 8660,
    "ein": 8661,
    "ein</w>": 8662,
    "einste": 8663,
    "einstein": 8664,
    "einstein'ın</w>": 8665,
    "einstein,</w>": 8666,
    "einstein</w>": 8667,
    "einstein’ın</w>": 8668,
    "eir": 8669,
    "eira,</w>": 8670,
    "eira</w>": 8671,
    "eis": 8672,
    "eisen": 8673,
    "ej": 8674,
    "ej</w>": 8675,
    "ek": 8676,
    "ek)</w>": 8677,
    "ek,</w>": 8678,
    "ek</w>": 8679,
    "ekber</w>": 8680,
    "eke</w>": 8681,
    "eki,</w>": 8682,
    "eki</w>": 8683,
    "ekib": 8684,
    "ekibi</w>": 8685,
    "ekim": 8686,
    "ekim'de</w>": 8687,
    "ekim</w>": 8688,
    "ekip": 8689,
    "ekip</w>": 8690,
    "ekipman": 8691,
    "ekle</w>": 8692,
    "eklem": 8693,
    "eklen": 8694,
    "eklendi.</w>": 8695,
    "eklenen</w>": 8696,
    "eklenerek</w>": 8697,
    "eklenir.</w>": 8698,
    "eklenmiştir.</w>": 8699,
    "eklenti": 8700,
    "ekler</w>": 8701,
    "ekleri</w>": 8702,
    "eklerin</w>": 8703,
    "ekleyerek</w>": 8704,
    "ekli</w>": 8705,
    "ekm": 8706,
    "ekmek": 8707,
    "ekmek</w>": 8708,
    "ekol": 8709,
    "ekoloji</w>": 8710,
    "ekolojik</w>": 8711,
    "ekonom": 8712,
    "ekonomi,</w>": 8713,
    "ekonomi</w>": 8714,
    "ekonomide</w>": 8715,
    "ekonomik,</w>": 8716,
    "ekonomik</w>": 8717,
    "ekonominin</w>": 8718,
    "ekonomisi,</w>": 8719,
    "ekonomisi</w>": 8720,
    "ekonomisinde</w>": 8721,
    "ekonomisine</w>": 8722,
    "ekonomisini</w>": 8723,
    "ekonomisinin</w>": 8724,
    "ekonomist,</w>": 8725,
    "ekonomist</w>": 8726,
    "ekonomiye</w>": 8727,
    "ekonomiyi</w>": 8728,
    "ekos": 8729,
    "ekosistem": 8730,
    "ekosistem</w>": 8731,
    "ekran": 8732,
    "ekran</w>": 8733,
    "ekrana</w>": 8734,
    "ekrem</w>": 8735,
    "eks": 8736,
    "eks</w>": 8737,
    "eksantr": 8738,
    "eksen": 8739,
    "eksen</w>": 8740,
    "ekseni</w>": 8741,
    "eksi</w>": 8742,
    "eksik": 8743,
    "eksik</w>": 8744,
    "eksikliği</w>": 8745,
    "eksiyon": 8746,
    "eksiyon</w>": 8747,
    "eksp": 8748,
    "ekspres": 8749,
    "ekst": 8750,
    "eksü": 8751,
    "eksüel": 8752,
    "eksüel</w>": 8753,
    "ekt": 8754,
    "ekte,</w>": 8755,
    "ekte</w>": 8756,
    "ektedir.</w>": 8757,
    "ekteki</w>": 8758,
    "ekten</w>": 8759,
    "ekteydi.</w>": 8760,
    "ektif</w>": 8761,
    "ektir.</w>": 8762,
    "ektör": 8763,
    "ektör</w>": 8764,
    "ektü": 8765,
    "ekvad": 8766,
    "ekvadorlu</w>": 8767,
    "ekvator": 8768,
    "ekvator</w>": 8769,
    "eköy</w>": 8770,
    "eküm": 8771,
    "ekümenik</w>": 8772,
    "ekşi</w>": 8773,
    "el": 8774,
    "el'e</w>": 8775,
    "el'in</w>": 8776,
    "el)</w>": 8777,
    "el,</w>": 8778,
    "el-": 8779,
    "el.</w>": 8780,
    "el</w>": 8781,
    "ela": 8782,
    "ela,</w>": 8783,
    "ela</w>": 8784,
    "eland,</w>": 8785,
    "elaz": 8786,
    "elazığ": 8787,
    "elazığ</w>": 8788,
    "elb": 8789,
    "elbette</w>": 8790,
    "elbis": 8791,
    "elde</w>": 8792,
    "elden</w>": 8793,
    "ele": 8794,
    "ele</w>": 8795,
    "elec": 8796,
    "electr": 8797,
    "electron": 8798,
    "elekt": 8799,
    "elektr": 8800,
    "elektrik": 8801,
    "elektrik,</w>": 8802,
    "elektrik</w>": 8803,
    "elektrikli</w>": 8804,
    "elektriksel</w>": 8805,
    "elektriğin</w>": 8806,
    "elektro": 8807,
    "elektro</w>": 8808,
    "elektrol": 8809,
    "elektroman": 8810,
    "elektromanyetik</w>": 8811,
    "elektron": 8812,
    "elektron</w>": 8813,
    "elektronik</w>": 8814,
    "elektronlar</w>": 8815,
    "elektronların</w>": 8816,
    "elektronun</w>": 8817,
    "elem": 8818,
    "eleman": 8819,
    "eleman</w>": 8820,
    "elemanları</w>": 8821,
    "elemanı</w>": 8822,
    "eleme</w>": 8823,
    "elemen": 8824,
    "element": 8825,
    "element</w>": 8826,
    "elementin</w>": 8827,
    "elementler</w>": 8828,
    "elementleri</w>": 8829,
    "elementlerin</w>": 8830,
    "elen": 8831,
    "elena</w>": 8832,
    "elendir": 8833,
    "elenen</w>": 8834,
    "elenmiş</w>": 8835,
    "elenmiştir.</w>": 8836,
    "eler": 8837,
    "eler)</w>": 8838,
    "eler,</w>": 8839,
    "eler.</w>": 8840,
    "eler:</w>": 8841,
    "eler</w>": 8842,
    "elerce</w>": 8843,
    "elerde,</w>": 8844,
    "elerde</w>": 8845,
    "elerdeki</w>": 8846,
    "elerden</w>": 8847,
    "elerdir.</w>": 8848,
    "elere</w>": 8849,
    "elerek</w>": 8850,
    "eleri'nin</w>": 8851,
    "eleri)</w>": 8852,
    "eleri,</w>": 8853,
    "eleri</w>": 8854,
    "eleridir.</w>": 8855,
    "elerin,</w>": 8856,
    "elerin</w>": 8857,
    "elerinde,</w>": 8858,
    "elerinde</w>": 8859,
    "elerindeki</w>": 8860,
    "elerinden</w>": 8861,
    "elerine</w>": 8862,
    "elerini,</w>": 8863,
    "elerini</w>": 8864,
    "elerinin</w>": 8865,
    "eleriyle</w>": 8866,
    "elerle</w>": 8867,
    "eley": 8868,
    "eley</w>": 8869,
    "eleyen</w>": 8870,
    "eleş": 8871,
    "eleştir": 8872,
    "eleştirdi.</w>": 8873,
    "eleştirel</w>": 8874,
    "eleştiren</w>": 8875,
    "eleştiri</w>": 8876,
    "eleştiril": 8877,
    "eleştirildi.</w>": 8878,
    "eleştiriler</w>": 8879,
    "eleştirilere</w>": 8880,
    "eleştirileri</w>": 8881,
    "eleştirilmiştir.</w>": 8882,
    "eleştirisi</w>": 8883,
    "eleştirmen": 8884,
    "eleştirmen</w>": 8885,
    "eleştirmeni,</w>": 8886,
    "eleştirmeni</w>": 8887,
    "eleştirmenler</w>": 8888,
    "eleştirmenleri</w>": 8889,
    "eleştirmiştir.</w>": 8890,
    "elf": 8891,
    "eli": 8892,
    "eli'nin</w>": 8893,
    "eli,</w>": 8894,
    "eli</w>": 8895,
    "elidir.</w>": 8896,
    "elif</w>": 8897,
    "elik": 8898,
    "elik,</w>": 8899,
    "elik</w>": 8900,
    "elikle</w>": 8901,
    "eliler</w>": 8902,
    "elin": 8903,
    "elin</w>": 8904,
    "elinde</w>": 8905,
    "elindeki</w>": 8906,
    "elinden</w>": 8907,
    "eline</w>": 8908,
    "elini</w>": 8909,
    "elinin</w>": 8910,
    "elip": 8911,
    "eliptik</w>": 8912,
    "elis": 8913,
    "elis</w>": 8914,
    "elisabeth</w>": 8915,
    "elit</w>": 8916,
    "eliyle</w>": 8917,
    "eliz": 8918,
    "elizab": 8919,
    "elizabeth": 8920,
    "elizabeth</w>": 8921,
    "eliği</w>": 8922,
    "eliğin</w>": 8923,
    "eliğine</w>": 8924,
    "ell": 8925,
    "ell,</w>": 8926,
    "ell</w>": 8927,
    "ella,</w>": 8928,
    "ella</w>": 8929,
    "elle": 8930,
    "elle,</w>": 8931,
    "elle</w>": 8932,
    "ellen</w>": 8933,
    "eller,</w>": 8934,
    "eller</w>": 8935,
    "elleri</w>": 8936,
    "ellerin</w>": 8937,
    "ellerinde</w>": 8938,
    "ellerinden</w>": 8939,
    "elli": 8940,
    "elli,</w>": 8941,
    "elli</w>": 8942,
    "ellik": 8943,
    "ellik</w>": 8944,
    "ellikle</w>": 8945,
    "ello": 8946,
    "ello,</w>": 8947,
    "ello</w>": 8948,
    "elma</w>": 8949,
    "elmas</w>": 8950,
    "elo": 8951,
    "els": 8952,
    "elver": 8953,
    "elverişl": 8954,
    "elverişli</w>": 8955,
    "elvis</w>": 8956,
    "ely</w>": 8957,
    "elç": 8958,
    "elçi</w>": 8959,
    "elçisi</w>": 8960,
    "em": 8961,
    "em,</w>": 8962,
    "em</w>": 8963,
    "ema": 8964,
    "ema</w>": 8965,
    "eman": 8966,
    "eman,</w>": 8967,
    "eman</w>": 8968,
    "emann": 8969,
[...]
